{"<s>":0,"<pad>":1,"</s>":2,"<unk>":3,"<mask>":4,"!":5,"\"":6,"#":7,"$":8,"%":9,"&":10,"'":11,"(":12,")":13,"*":14,"+":15,",":16,"-":17,".":18,"/":19,"0":20,"1":21,"2":22,"3":23,"4":24,"5":25,"6":26,"7":27,"8":28,"9":29,":":30,";":31,"<":32,"=":33,">":34,"?":35,"@":36,"A":37,"B":38,"C":39,"D":40,"E":41,"F":42,"G":43,"H":44,"I":45,"J":46,"K":47,"L":48,"M":49,"N":50,"O":51,"P":52,"Q":53,"R":54,"S":55,"T":56,"U":57,"V":58,"W":59,"X":60,"Y":61,"Z":62,"[":63,"\\":64,"]":65,"^":66,"_":67,"`":68,"a":69,"b":70,"c":71,"d":72,"e":73,"f":74,"g":75,"h":76,"i":77,"j":78,"k":79,"l":80,"m":81,"n":82,"o":83,"p":84,"q":85,"r":86,"s":87,"t":88,"u":89,"v":90,"w":91,"x":92,"y":93,"z":94,"{":95,"|":96,"}":97,"~":98,"¡":99,"¢":100,"£":101,"¤":102,"¥":103,"¦":104,"§":105,"¨":106,"©":107,"ª":108,"«":109,"¬":110,"®":111,"¯":112,"°":113,"±":114,"²":115,"³":116,"´":117,"µ":118,"¶":119,"·":120,"¸":121,"¹":122,"º":123,"»":124,"¼":125,"½":126,"¾":127,"¿":128,"À":129,"Á":130,"Â":131,"Ã":132,"Ä":133,"Å":134,"Æ":135,"Ç":136,"È":137,"É":138,"Ê":139,"Ë":140,"Ì":141,"Í":142,"Î":143,"Ï":144,"Ð":145,"Ñ":146,"Ò":147,"Ó":148,"Ô":149,"Õ":150,"Ö":151,"×":152,"Ø":153,"Ù":154,"Ú":155,"Û":156,"Ü":157,"Ý":158,"Þ":159,"ß":160,"à":161,"á":162,"â":163,"ã":164,"ä":165,"å":166,"æ":167,"ç":168,"è":169,"é":170,"ê":171,"ë":172,"ì":173,"í":174,"î":175,"ï":176,"ð":177,"ñ":178,"ò":179,"ó":180,"ô":181,"õ":182,"ö":183,"÷":184,"ø":185,"ù":186,"ú":187,"û":188,"ü":189,"ý":190,"þ":191,"ÿ":192,"Ā":193,"ā":194,"Ă":195,"ă":196,"Ą":197,"ą":198,"Ć":199,"ć":200,"Ĉ":201,"ĉ":202,"Ċ":203,"ċ":204,"Č":205,"č":206,"Ď":207,"ď":208,"Đ":209,"đ":210,"Ē":211,"ē":212,"Ĕ":213,"ĕ":214,"Ė":215,"ė":216,"Ę":217,"ę":218,"Ě":219,"ě":220,"Ĝ":221,"ĝ":222,"Ğ":223,"ğ":224,"Ġ":225,"ġ":226,"Ģ":227,"ģ":228,"Ĥ":229,"ĥ":230,"Ħ":231,"ħ":232,"Ĩ":233,"ĩ":234,"Ī":235,"ī":236,"Ĭ":237,"ĭ":238,"Į":239,"į":240,"İ":241,"ı":242,"Ĳ":243,"ĳ":244,"Ĵ":245,"ĵ":246,"Ķ":247,"ķ":248,"ĸ":249,"Ĺ":250,"ĺ":251,"Ļ":252,"ļ":253,"Ľ":254,"ľ":255,"Ŀ":256,"ŀ":257,"Ł":258,"ł":259,"Ń":260,"ra":261,"ar":262,"rax":263,"Ġrax":264,"Ġ)":265,"Ġ(":266,"Ġ0":267,"Ġ.":268,"MP":269,"ĠJ":270,"UMP":271,"ĠJUMP":272,"rd":273,"Ġrd":274,"Ġv":275,"Ġvar":276,"Ġ,":277,"Ġ[":278,"Ġ]":279,"Ġrdi":280,"Ġ+":281,"Ġe":282,"Ġx":283,"Ġt":284,"se":285,"en":286,"Ġz":287,"10":288,"Ġi":289,"si":290,"to":291,"lse":292,"Ġth":293,"Ġthen":294,"Ġelse":295,"Ġif":296,"rb":297,"Ġrb":298,"mm":299,"12":300,"Ġg":301,"cx":302,"Ġrdx":303,"Ġ_":304,"rsi":305,"oto":306,"Ġrsi":307,"Ġgoto":308,"Ġzmm":309,"11":310,"rcx":311,"Ġrcx":312,"14":313,"13":314,"15":315,"Ġ$":316,"arg":317,"ff":318,"Ġarg":319,"Ġrbx":320,"re":321,"20":322,"Ġ&":323,"18":324,"ZN":325,"==":326,"Ġ==":327,"st":328,"on":329,"Ġ1":330,"in":331,"16":332,"mp":333,"er":334,"St":335,"28":336,"19":337,"EE":338,"17":339,"Ġrbp":340,"30":341,"at":342,"Ġ\"":343,"al":344,"Ġ!":345,"Ġ!=":346,"emp":347,"00":348,"Ġtemp":349,"Ġf":350,"24":351,"Ġzx":352,"Ġ-":353,"38":354,"con":355,"Ġs":356,"Ġ:":357,"40":358,"25":359,"23":360,"ax":361,"Ġ8":362,"it":363,"26":364,"48":365,"Ev":366,"Ġeax":367,"le":368,"Ġ<":369,"22":370,"ffff":371,"Ġ<<":372,"ur":373,"ch":374,"Ic":375,"27":376,"50":377,"rin":378,"ba":379,"21":380,"et":381,"58":382,"ret":383,"lo":384,"urn":385,"return":386,"29":387,"ec":388,"an":389,"no":390,"Ġ2":391,"68":392,"60":393,"de":394,"34":395,"ring":396,"Ġcon":397,"or":398,"Ġu":399,"Ġcond":400,"Ġ4":401,"Ġ3":402,"78":403,"70":404,"ac":405,"33":406,"Ġ__":407,"ti":408,"39":409,"35":410,"44":411,"ag":412,"Ġreturn":413,"36":414,"NS":415,"tr":416,"37":417,"__":418,"ex":419,"EP":420,"RK":421,"32":422,"ul":423,"tor":424,"80":425,"Ġc":426,"ai":427,"ES":428,"98":429,"ZNK":430,"90":431,"ro":432,"Ġed":433,"pe":434,"Ġsx":435,"ad":436,"31":437,"88":438,"tra":439,"54":440,"get":441,"64":442,"me":443,"55":444,"Ġno":445,"base":446,"char":447,"loc":448,"IS":449,"un":450,"its":451,"ol":452,"ate":453,"47":454,"sic":455,"0000":456,"46":457,"ver":458,"tion":459,"string":460,"45":461,"49":462,"basic":463,"traits":464,"ce":465,"ap":466,"li":467,"ed":468,"cxx":469,"ree":470,"String":471,"Ġ|":472,"co":473,"ail":474,"ype":475,"ptr":476,"ESa":477,"IcEE":478,"Ġn":479,"as":480,"56":481,"set":482,"57":483,"ERK":484,"¦\"":485,"âĢ":486,"âĢ¦\"":487,"ack":488,"41":489,"59":490,"42":491,"43":492,"sbase":493,"ab":494,"ut":495,"ent":496,"Ġfsbase":497,"66":498,"ull":499,"Kc":500,"vert":501,"IcSt":502,"Ġal":503,"xffff":504,"ZNSt":505,"xc":506,"99":507,"Ġst":508,"Ġedx":509,"ata":510,"bj":511,"chk":512,"Ġnoreturn":513,"convert":514,"67":515,"Ġeb":516,"Ġfconvert":517,"69":518,"Ġecx":519,"sp":520,"51":521,">>":522,"52":523,"53":524,"::":525,"Ġd":526,"IN":527,"<=":528,"ector":529,"th":530,"1112":531,"Ġnull":532,"traitsIc":533,"am":534,"anag":535,"ESaIcEE":536,"traitsIcESaIcEE":537,"ast":538,"Ġp":539,"id":540,"74":541,"100":542,"Ġnullptr":543,"anager":544,"ite":545,"bu":546,"ve":547,"77":548,"alloc":549,"ic":550,"manager":551,"Ġesi":552,"te":553,"stack":554,"ter":555,"stringIcSt":556,"ror":557,"79":558,"61":559,"xffffffff":560,"and":561,"ss":562,"ref":563,"ect":564,"63":565,"able":566,"62":567,"ser":568,"65":569,"type":570,"vector":571,"INS":572,"sh":573,"fail":574,"pr":575,"ue":576,"ream":577,"pl":578,"ext":579,"Ġis":580,"108":581,"var":582,"ER":583,"In":584,"Ġ*":585,"xa":586,"87":587,">=":588,"QString":589,"red":590,"fi":591,"72":592,"84":593,"Ġedi":594,"ion":595,"94":596,"73":597,"Re":598,"71":599,"Ġ^":600,"75":601,"is":602,"ode":603,"ost":604,"Data":605,"76":606,"op":607,"Ġebx":608,"ZSt":609,"Ar":610,"Li":611,"110":612,"rint":613,"IP":614,"118":615,"age":616,"ct":617,"el":618,"EPKc":619,"120":620,"ing":621,"xf":622,"128":623,"obj":624,"Ei":625,"expr":626,"Ġb":627,"Ġm":628,"ray":629,"89":630,"Lo":631,"Ġ5":632,"ered":633,"Lb":634,"Ġ%":635,"up":636,"rdered":637,"ri":638,"uno":639,"unordered":640,"gn":641,"Co":642,"130":643,"Ej":644,"ard":645,"add":646,"EEEE":647,"cal":648,"86":649,"ation":650,"lib":651,"140":652,"97":653,"96":654,"Con":655,"itera":656,"Ġnot":657,"95":658,"ame":659,"92":660,"93":661,"91":662,"138":663,"for":664,"Pv":665,"ck":666,"log":667,"il":668,"str":669,"ew":670,"81":671,"mem":672,"82":673,"PK":674,"83":675,"um":676,"Array":677,"table":678,"85":679,"150":680,"Ġw":681,"end":682,"xb":683,"error":684,"Sa":685,"rintf":686,"ERKS":687,"Ġstr":688,"gp":689,"ke":690,"PKc":691,"Obj":692,"val":693,"ostream":694,"List":695,"ĠĠ":696,"148":697,"dl":698,"ep":699,"read":700,"pd":701,"sert":702,"cc":703,"ind":704,"ash":705,"160":706,"allocate":707,"Type":708,"EEE":709,"di":710,"ze":711,"xd":712,"Object":713,"mo":714,"per":715,"Ġ6":716,"app":717,"text":718,"170":719,"158":720,"xe":721,"ls":722,"IT":723,"unc":724,"printf":725,"cl":726,"ase":727,"ISt":728,"fff":729,"ment":730,"fo":731,"De":732,"tk":733,"180":734,"112":735,"168":736,"int":737,"free":738,"iterator":739,"air":740,"bo":741,"200":742,"tree":743,"dlPv":744,"ZdlPv":745,"Ġin":746,"Ġebp":747,"104":748,"NSt":749,"eck":750,"inter":751,"ort":752,"wr":753,"map":754,"ine":755,"Ġ7":756,"call":757,"pro":758,"ay":759,"old":760,"190":761,"000":762,"Im":763,"178":764,"pair":765,"ory":766,"ult":767,"vi":768,"if":769,"114":770,"Ġj":771,"eq":772,"ps":773,"traitsIcEE":774,"ration":775,"ption":776,"ump":777,"00000000":778,"Ġ->":779,"fa":780,"Ġcl":781,"EPS":782,"ran":783,"ge":784,"ub":785,"Get":786,"put":787,"101":788,"em":789,"cmp":790,"Ġ\"%":791,"Po":792,"188":793,"ENS":794,"RSt":795,"ESt":796,"ace":797,"103":798,"102":799,"106":800,"ile":801,"ĠP":802,"imp":803,"ZL":804,"107":805,"105":806,"Log":807,"rror":808,"198":809,"epi":810,"Node":811,"109":812,"tail":813,"cv":814,"ow":815,"hash":816,"key":817,"len":818,"py":819,"tailcall":820,"check":821,"mt":822,"124":823,"Ġstd":824,"Ex":825,"Ġjump":826,"managerE":827,"eg":828,"rap":829,"116":830,"traitsIcEERSt":831,"bug":832,"idget":833,"insert":834,"data":835,"cm":836,"us":837,"113":838,"Rb":839,"ĠS":840,"ance":841,"size":842,"111":843,"115":844,"117":845,"err":846,"ArrayData":847,"Ġa":848,"ix":849,"119":850,"os":851,"iter":852,"od":853,"andle":854,"ESaIS":855,"134":856,"try":857,"rational":858,"mat":859,"AL":860,"228":861,"ig":862,"Ġfree":863,"Ch":864,"new":865,"lag":866,"init":867,"row":868,"lock":869,"ms":870,"EN":871,"gu":872,"loat":873,"ial":874,"Ġl":875,"218":876,"ction":877,"Id":878,"QArrayData":879,"240":880,"fault":881,"deallocate":882,"238":883,"bc":884,"125":885,"uct":886,"126":887,"122":888,"121":889,"out":890,"RKS":891,"node":892,"so":893,"core":894,"123":895,"208":896,"im":897,"127":898,"Ġgtk":899,"list":900,"ach":901,"pairI":902,"129":903,"ara":904,"ht":905,"250":906,"ared":907,"ssage":908,"Base":909,"144":910,"ZNKSt":911,"QM":912,"EC":913,"230":914,"cxa":915,"ii":916,"220":917,"Ġxmm":918,"Ite":919,"dp":920,"mpz":921,"ns":922,"stance":923,"dd":924,"back":925,"En":926,"ant":927,"smt":928,"260":929,"sc":930,"258":931,"ild":932,"qu":933,"name":934,"lement":935,"133":936,"iv":937,"248":938,"131":939,"dS":940,"ception":941,"Zn":942,"OB":943,"136":944,"So":945,"132":946,"ffer":947,"OF":948,"135":949,"Ġesp":950,"137":951,"139":952,"Ġfa":953,"154":954,"art":955,"Set":956,"ator":957,"210":958,"ush":959,"147":960,"Ġfalse":961,"move":962,"og":963,"Pro":964,"sy":965,"vectorI":966,"SaIS":967,"dc":968,"om":969,"fc":970,"pack":971,"Val":972,"res":973,"ence":974,"rom":975,"rsp":976,"debug":977,"gnu":978,"ET":979,"thread":980,"ty":981,"270":982,"Ġfloat":983,"dec":984,"143":985,"Ġrsp":986,"141":987,"Widget":988,"wx":989,"..":990,"pp":991,"164":992,"146":993,"refI":994,"fd":995,"142":996,"cast":997,"145":998,"Error":999,"Ġ9":1000,"Ġo":1001,"149":1002,"Ġmem":1003,"xff":1004,"OS":1005,"Ġdl":1006,"wm":1007,"guard":1008,"Se":1009,"reate":1010,"pairIK":1011,"file":1012,"fig":1013,"sign":1014,"instance":1015,"EPK":1016,"ure":1017,"nal":1018,"info":1019,"157":1020,"Qt":1021,"unt":1022,"ED":1023,"pt":1024,"Znwm":1025,"280":1026,"156":1027,"ain":1028,"159":1029,"153":1030,"value":1031,"151":1032,"155":1033,"Sh":1034,"152":1035,"shared":1036,"268":1037,"entry":1038,"Ġto":1039,"PKS":1040,"struct":1041,"stream":1042,"ffset":1043,"write":1044,"174":1045,"deallocateEPS":1046,"ĠC":1047,"ae":1048,"GL":1049,"ith":1050,"ang":1051,"Mat":1052,"mb":1053,"eta":1054,"rm":1055,"const":1056,"To":1057,"db":1058,"ĠN":1059,"290":1060,"Tran":1061,"Ġun":1062,"ELb":1063,"Image":1064,"mul":1065,"det":1066,"que":1067,"169":1068,"QList":1069,"object":1070,"less":1071,"one":1072,"default":1073,"ity":1074,"comp":1075,"File":1076,"cpy":1077,"led":1078,"he":1079,"163":1080,"ILb":1081,"161":1082,"../":1083,"av":1084,"166":1085,"300":1086,"162":1087,"QStringD":1088,"165":1089,"278":1090,"184":1091,"func":1092,"ry":1093,"167":1094,"400":1095,"00000":1096,"PS":1097,"buf":1098,"Em":1099,"reg":1100,"Ii":1101,"Var":1102,"mk":1103,"andard":1104,"Handle":1105,"pol":1106,"rbx":1107,"aS":1108,"Un":1109,"ostreamIT":1110,"writer":1111,"traitsIcESaIcEEC":1112,"offset":1113,"fs":1114,"194":1115,"ĠG":1116,"288":1117,"Me":1118,"179":1119,"rewriter":1120,"sion":1121,"Standard":1122,"Lj":1123,"173":1124,"298":1125,"ug":1126,"177":1127,"nd":1128,"iant":1129,"Item":1130,"171":1131,"175":1132,"GLOB":1133,"176":1134,"172":1135,"face":1136,"iz":1137,"xfffffff":1138,"ger":1139,"ĠĠĠĠ":1140,"fffffff":1141,"0000000":1142,"context":1143,"224":1144,"bb":1145,"all":1146,"ERR":1147,"lect":1148,"spec":1149,"ERKNS":1150,"ass":1151,"stro":1152,"Value":1153,"sl":1154,"xmm":1155,"Text":1156,"throw":1157,"Col":1158,"OT":1159,"buffer":1160,"lags":1161,"IO":1162,"sub":1163,"Ġpthread":1164,"cf":1165,"Ġ\"/":1166,"exception":1167,"186":1168,"LE":1169,"204":1170,"223":1171,"vectorIN":1172,"stroy":1173,"185":1174,"ader":1175,"GLOBAL":1176,"Al":1177,"gen":1178,"EjE":1179,"io":1180,"181":1181,"indow":1182,"ZStls":1183,"187":1184,"9999":1185,"189":1186,"append":1187,"rue":1188,"183":1189,"Ref":1190,"ist":1191,"yte":1192,"are":1193,"dex":1194,"build":1195,"Comp":1196,"192":1197,"Pri":1198,"open":1199,"182":1200,"und":1201,"num":1202,"ule":1203,"Bo":1204,"225":1205,"Vector":1206,"insertIcSt":1207,"unpack":1208,"Ġre":1209,"Info":1210,"Ġbl":1211,"time":1212,"226":1213,"lete":1214,"vate":1215,"193":1216,"197":1217,"Ġtrue":1218,"ailed":1219,"191":1220,"memory":1221,"Di":1222,"odel":1223,"para":1224,"mbol":1225,"po":1226,"ĠâĢ¦\"":1227,"195":1228,"203":1229,"199":1230,"196":1231,"ĠB":1232,"aa":1233,"RS":1234,"ord":1235,"met":1236,"cess":1237,"ml":1238,"create":1239,"code":1240,"Ġ?":1241,"308":1242,"TA":1243,"Iw":1244,"fp":1245,"push":1246,"detail":1247,"--":1248,"par":1249,"the":1250,"256":1251,"from":1252,"206":1253,"338":1254,"uff":1255,"ize":1256,"IcT":1257,"ostreamIcT":1258,"ZStlsISt":1259,"Ġint":1260,"assert":1261,"201":1262,"lay":1263,"202":1264,"Ġget":1265,"ERS":1266,").":1267,"328":1268,"Stream":1269,"207":1270,"ton":1271,"EPNS":1272,"ific":1273,"es":1274,"stat":1275,"209":1276,"null":1277,"ber":1278,"Tpl":1279,"raph":1280,"gth":1281,"ll":1282,"205":1283,"ĠA":1284,"214":1285,"gra":1286,"ĠERR":1287,"IG":1288,"norm":1289,"348":1290,"ight":1291,"Of":1292,"EEv":1293,"tag":1294,"bus":1295,"Ġh":1296,"erence":1297,"ip":1298,"ugin":1299,"EED":1300,"normal":1301,"Variant":1302,"Ġneg":1303,"Str":1304,"lor":1305,"EEC":1306,"fe":1307,"234":1308,"rr":1309,"358":1310,"ape":1311,"ick":1312,"vel":1313,"ZNSa":1314,"iteral":1315,"msg":1316,"Inter":1317,")\"":1318,"If":1319,"fprintf":1320,"EvE":1321,"368":1322,"Ġ||":1323,"Name":1324,"330":1325,"EOS":1326,"211":1327,"Private":1328,"port":1329,"literal":1330,"theory":1331,"QObject":1332,"ward":1333,"Eb":1334,"FS":1335,"boost":1336,"isra":1337,"340":1338,"managerILb":1339,"221":1340,"uffle":1341,"212":1342,"For":1343,"Ġcpl":1344,"Ġstrlen":1345,"244":1346,"Ġsi":1347,"254":1348,"EPKcRKS":1349,"ot":1350,"ection":1351,"cope":1352,"internal":1353,"mpq":1354,"360":1355,"QVariant":1356,"dq":1357,"alog":1358,"specific":1359,"Ġex":1360,"380":1361,"dat":1362,"wrap":1363,"222":1364,"sd":1365,"tri":1366,"elper":1367,"310":1368,"Ġstrcmp":1369,"227":1370,"cle":1371,"PT":1372,"Hash":1373,"215":1374,"350":1375,"shuffle":1376,"Select":1377,"229":1378,"construct":1379,"IPN":1380,"378":1381,"lp":1382,"213":1383,"Ġ&&":1384,"216":1385,"318":1386,"Message":1387,"lessIS":1388,"370":1389,"lot":1390,"219":1391,"217":1392,"def":1393,"sr":1394,"lob":1395,"320":1396,"getspecific":1397,"ĠM":1398,"5555":1399,"delete":1400,"390":1401,"location":1402,"ath":1403,"be":1404,"249":1405,"ĠPL":1406,"Vi":1407,"EPv":1408,"tmp":1409,"ols":1410,"lose":1411,"448":1412,"vtable":1413,"forward":1414,"IJ":1415,"QMap":1416,"fst":1417,"sn":1418,"conn":1419,"thr":1420,"state":1421,"232":1422,"but":1423,"eld":1424,"ask":1425,"config":1426,"237":1427,"ok":1428,"264":1429,"au":1430,"235":1431,"438":1432,"message":1433,"231":1434,"233":1435,"cach":1436,"valid":1437,"ake":1438,"236":1439,"ZZN":1440,"emb":1441,"abel":1442,"destroy":1443,"eight":1444,"239":1445,"length":1446,"vE":1447,"ffffffff":1448,"vice":1449,"Bu":1450,"remove":1451,"255":1452,"Tree":1453,"equ":1454,"StringD":1455,"nt":1456,"symbol":1457,"ose":1458,"241":1459,"Ġmemcpy":1460,"245":1461,"count":1462,"decl":1463,"ZNSaIc":1464,"Pointer":1465,"Wr":1466,"246":1467,"State":1468,"perty":1469,"INSt":1470,"247":1471,"Pd":1472,"AS":1473,"urce":1474,"pairIKS":1475,"uti":1476,"mmand":1477,"embree":1478,"Le":1479,"ERKNSt":1480,"Op":1481,"274":1482,"BLE":1483,"243":1484,"242":1485,"allocator":1486,"388":1487,"sizeEv":1488,"ime":1489,"unpacklo":1490,"428":1491,"Transi":1492,"etaObject":1493,"Ij":1494,"implement":1495,"ZNS":1496,"line":1497,"QWidget":1498,"oc":1499,"ink":1500,"Ġ>":1501,"259":1502,"impl":1503,"disp":1504,"TABLE":1505,"251":1506,"257":1507,"Ġstderr":1508,"Ac":1509,"api":1510,"wrapper":1511,"vectorIS":1512,"408":1513,"252":1514,"Fi":1515,"1000":1516,"low":1517,"ey":1518,"Transient":1519,"array":1520,"urr":1521,"trunc":1522,"253":1523,"Ed":1524,"Ġse":1525,"local":1526,"ID":1527,"458":1528,"tmpfs":1529,"rator":1530,"=>":1531,"QF":1532,"osg":1533,"265":1534,"WIG":1535,"../../":1536,"opt":1537,"440":1538,"OFFS":1539,"OFFSET":1540,"implemented":1541,"exp":1542,"rt":1543,"acti":1544,"DS":1545,"lic":1546,"Ġ=>":1547,"269":1548,"Ġ'":1549,"263":1550,"handle":1551,"450":1552,"lection":1553,"Tri":1554,"398":1555,"262":1556,"430":1557,"Ġunimplemented":1558,"Read":1559,"egin":1560,"helper":1561,"Local":1562,"find":1563,"267":1564,"Ġftrunc":1565,"261":1566,"Line":1567,"Top":1568,"266":1569,"Ġaj":1570,"max":1571,"Ġy":1572,"traitsIcESaIcEED":1573,"lm":1574,"ers":1575,"468":1576,"load":1577,"iteratorIP":1578,"traitsIcESaIcEEE":1579,"angul":1580,"reference":1581,"arn":1582,"294":1583,"ui":1584,"raw":1585,"rix":1586,"284":1587,"min":1588,"DB":1589,"Func":1590,"Key":1591,"da":1592,"276":1593,"Is":1594,"stIS":1595,"480":1596,"273":1597,"Free":1598,"Weight":1599,"EL":1600,"rdup":1601,"ister":1602,"angulation":1603,"279":1604,"StringC":1605,"ng":1606,"277":1607,"Ptr":1608,"ont":1609,"272":1610,"Eix":1611,"275":1612,"OR":1613,"Eii":1614,"Ġdiv":1615,"271":1616,"xmmdq":1617,"sw":1618,"sat":1619,"rame":1620,"hi":1621,"erl":1622,"Option":1623,"418":1624,"Add":1625,"rbp":1626,"509":1627,"Par":1628,"Imp":1629,"478":1630,"Window":1631,"fl":1632,"Logger":1633,"Ġsl":1634,"Map":1635,"460":1636,"ark":1637,"std":1638,"334":1639,"Arc":1640,"800":1641,"Point":1642,"EPKci":1643,"cfg":1644,"Open":1645,"errno":1646,"wrapperIS":1647,"08":1648,"->":1649,"sort":1650,"nc":1651,"PN":1652,"roup":1653,"Ġcli":1654,"Vec":1655,"ptEv":1656,"arith":1657,"urrent":1658,"ĠF":1659,"Out":1660,"do":1661,"304":1662,"295":1663,"Ġlib":1664,"sol":1665,"not":1666,"af":1667,"Sc":1668,"image":1669,"ument":1670,"Ġfor":1671,"Element":1672,"utex":1673,"299":1674,"gettext":1675,"285":1676,"286":1677,"Reg":1678,"470":1679,"291":1680,"283":1681,"poly":1682,"Ġid":1683,"297":1684,"Ġ\"\\":1685,":%":1686,"296":1687,"292":1688,"281":1689,"fier":1690,"icy":1691,"289":1692,"Conn":1693,"aved":1694,"coreI":1695,"copy":1696,"Char":1697,"293":1698,"287":1699,"ting":1700,"widget":1701,"rsion":1702,"282":1703,"QS":1704,"420":1705,"col":1706,"xy":1707,"est":1708,"EEEv":1709,"bv":1710,"ume":1711,"bit":1712,"410":1713,"xx":1714,"ress":1715,"ized":1716,"Config":1717,"saved":1718,"xor":1719,"Ġmod":1720,"rl":1721,"ĠT":1722,"managerEE":1723,"EEvT":1724,"Shape":1725,".\"":1726,"488":1727,"307":1728,"_.":1729,"mapI":1730,"498":1731,"act":1732,"unk":1733,"prop":1734,"()":1735,"Ġlr":1736,"PNS":1737,"000000":1738,"Ġmalloc":1739,"EENS":1740,"Ġlog":1741,"Color":1742,"303":1743,"Ġisc":1744,"QFlags":1745,"lobal":1746,"date":1747,"302":1748,"App":1749,"datalog":1750,"net":1751,"490":1752,"uni":1753,"Default":1754,"stra":1755,"ĠE":1756,"Ġof":1757,"ZNSo":1758,"sto":1759,"ĠNlm":1760,"class":1761,"sertion":1762,"306":1763,"Exception":1764,"309":1765,"301":1766,"util":1767,"ken":1768,"sa":1769,"ler":1770,"WeightTpl":1771,"ĠX":1772,"Sy":1773,"malloc":1774,"pc":1775,"sv":1776,"Py":1777,"305":1778,"View":1779,"ene":1780,"ptrIN":1781,"314":1782,"ann":1783,"500":1784,"Byte":1785,"tain":1786,"connect":1787,"cccc":1788,"324":1789,"ZZ":1790,"IL":1791,"ong":1792,"Glib":1793,"Ġbpl":1794,"80000000":1795,"Ġmul":1796,"Ġyy":1797,"344":1798,"313":1799,"tpl":1800,"UL":1801,"Debug":1802,"pre":1803,"Triangulation":1804,"333":1805,"Ġerror":1806,"eric":1807,"Box":1808,"arch":1809,"Sub":1810,"of":1811,"Ġax":1812,"Connection":1813,"tribut":1814,"Model":1815,"eb":1816,"Ġdc":1817,"Index":1818,"QListI":1819,"Alloc":1820,"Exp":1821,"Ġro":1822,"Action":1823,"mod":1824,"sEv":1825,"Mem":1826,"wn":1827,"trans":1828,"Stat":1829,"arning":1830,"print":1831,"QL":1832,"508":1833,"form":1834,"atch":1835,"constructIP":1836,"tom":1837,"Write":1838,"df":1839,"mutex":1840,"354":1841,"ali":1842,"bl":1843,"plugin":1844,"ĠD":1845,"Ġdcgettext":1846,"Sp":1847,"vectorIP":1848,"ĠW":1849,"Ġslapi":1850,"311":1851,"Ge":1852,"enu":1853,"312":1854,"PKdS":1855,"Ġesl":1856,"337":1857,"At":1858,"tran":1859,"Iterator":1860,"QtPrivate":1861,"339":1862,"option":1863,"ition":1864,"Ġsil":1865,"SA":1866,"vo":1867,"331":1868,"go":1869,"begin":1870,"clear":1871,"316":1872,"336":1873,"346":1874,"nom":1875,"Ġdil":1876,"cli":1877,"Ġfile":1878,"335":1879,"ev":1880,"addr":1881,"Command":1882,"Ġident":1883,"347":1884,"graph":1885,"345":1886,"agick":1887,"315":1888,"317":1889,"mac":1890,"del":1891,"332":1892,"Loc":1893,"Event":1894,"ob":1895,"nomial":1896,"349":1897,"Ec":1898,"343":1899,"0000000000000":1900,"enc":1901,"RKT":1902,"323":1903,"Field":1904,"Ġ\"(":1905,"Ġpro":1906,"374":1907,"Ġco":1908,"341":1909,"Ġbfd":1910,"PdPKdS":1911,"ive":1912,"319":1913,"342":1914,"inf":1915,"359":1916,"aSERKS":1917,"xffffff":1918,"ne":1919,"comm":1920,"RKNS":1921,"364":1922,"ĠQArrayData":1923,"329":1924,"source":1925,"Ġat":1926,"parse":1927,"result":1928,"AT":1929,"cvPS":1930,"Format":1931,"As":1932,"322":1933,"AP":1934,"Fv":1935,"QMetaObject":1936,"ary":1937,"repl":1938,"ange":1939,"RSo":1940,"ios":1941,"327":1942,"538":1943,"bd":1944,"404":1945,"325":1946,"sk":1947,"cached":1948,"CC":1949,"558":1950,"Qu":1951,"ELj":1952,"326":1953,"321":1954,"ir":1955,"357":1956,"353":1957,"Gui":1958,"3333":1959,"static":1960,"ft":1961,"355":1962,"Ġfailed":1963,"tive":1964,"Ġset":1965,"Ġecl":1966,"356":1967,"Impl":1968,"352":1969,"351":1970,"365":1971,"quest":1972,"index":1973,"hod":1974,"IR":1975,"ded":1976,"369":1977,"ee":1978,"cd":1979,"PKcS":1980,"actor":1981,"run":1982,"560":1983,"AR":1984,"Level":1985,"register":1986,"580":1987,"scri":1988,"Collection":1989,"568":1990,"SL":1991,"ĠPerl":1992,"use":1993,"384":1994,"policy":1995,"nope":1996,"ULL":1997,"rel":1998,"andler":1999,"Ser":2000,"Ġad":2001,"548":2002,"url":2003,"361":2004,"Ġror":2005,"nl":2006,"367":2007,"EESt":2008,"bad":2009,"sq":2010,"ral":2011,"No":2012,"510":2013,"Count":2014,"Ġdns":2015,"exit":2016,"unref":2017,"Ab":2018,"Property":2019,"570":2020,"366":2021,"signal":2022,"540":2023,"394":2024,"Anope":2025,"strdup":2026,"header":2027,"362":2028,"QFlagsIN":2029,"363":2030,"QP":2031,"375":2032,"umn":2033,"cb":2034,"ON":2035,"real":2036,"ore":2037,"379":2038,"SWIG":2039,"yle":2040,"assertion":2041,"start":2042,"EES":2043,"ph":2044,"alg":2045,"Lock":2046,"exprS":2047,"lease":2048,"solver":2049,"Table":2050,"Iv":2051,"ero":2052,"seq":2053,"extEE":2054,"371":2055,"Output":2056,"proc":2057,"tribute":2058,"Cur":2059,"WEN":2060,"An":2061,"ire":2062,"578":2063,"xfffffffffffffff":2064,"406":2065,"Pl":2066,"373":2067,"gl":2068,"454":2069,"gr":2070,"level":2071,"377":2072,"407":2073,"cket":2074,"372":2075,"401":2076,"late":2077,"405":2078,"Ġsp":2079,"ZNSols":2080,"Input":2081,"376":2082,"464":2083,"Fil":2084,"pdata":2085,"dy":2086,"ĠScm":2087,"pOT":2088,"params":2089,"518":2090,"ust":2091,"abled":2092,"386":2093,"block":2094,"close":2095,"Buffer":2096,"550":2097,"ML":2098,"ds":2099,"flags":2100,"dcm":2101,"444":2102,"Tag":2103,"Ġen":2104,"ZNSaIcEC":2105,"Sto":2106,"tif":2107,"ĠGWEN":2108,"constprop":2109,"528":2110,"Ġread":2111,"395":2112,"399":2113,"ea":2114,"hashtable":2115,"Ġgst":2116,"Ali":2117,"RT":2118,"414":2119,"VP":2120,"Ġ\".":2121,"dispose":2122,"managerEcvPS":2123,"range":2124,"Iter":2125,"402":2126,"387":2127,"meter":2128,"jj":2129,"update":2130,"ArcTpl":2131,"396":2132,"397":2133,"endEv":2134,"uple":2135,"window":2136,"381":2137,"server":2138,"vigra":2139,"382":2140,"model":2141,"385":2142,"GV":2143,"ĠL":2144,"ca":2145,"Entry":2146,"macro":2147,"Geom":2148,"UN":2149,"dom":2150,"391":2151,"598":2152,"byte":2153,"393":2154,"409":2155,"polynomial":2156,"389":2157,"600":2158,"CT":2159,"OP":2160,"383":2161,"stringstream":2162,"wid":2163,"392":2164,"warning":2165,"coped":2166,"ERNS":2167,"EPSt":2168,"520":2169,"Cl":2170,"QMapNode":2171,"Ġsbb":2172,"lobus":2173,"stract":2174,"590":2175,"swap":2176,"utton":2177,"403":2178,"Graph":2179,"ble":2180,"src":2181,"compare":2182,"Lib":2183,"img":2184,"bound":2185,"588":2186,"Ul":2187,"tf":2188,"frame":2189,"fb":2190,"Time":2191,"sg":2192,"next":2193,"ZGV":2194,"Lay":2195,"RKNSt":2196,"Mod":2197,"Context":2198,"530":2199,"Ġprint":2200,"com":2201,"function":2202,"assign":2203,"unlock":2204,"cry":2205,"ĠNULL":2206,"Int":2207,"412":2208,"ression":2209,"tifier":2210,"mi":2211,"copeEv":2212,"455":2213,"424":2214,"Ġmemset":2215,"dep":2216,"CG":2217,"der":2218,"Function":2219,"alglib":2220,"800000":2221,"tainer":2222,"Ġ/":2223,"Para":2224,"PPv":2225,"ld":2226,"xfffffffe":2227,"QListData":2228,"Del":2229,"Manager":2230,"Ġdivs":2231,"ctor":2232,"view":2233,"Button":2234,"mark":2235,"number":2236,"Group":2237,"cat":2238,"case":2239,"lim":2240,"EixEj":2241,"434":2242,"512":2243,"Ext":2244,"680":2245,"ork":2246,"Mode":2247,"void":2248,"ĠEVP":2249,"tacti":2250,"ByteArray":2251,"ateg":2252,"Flag":2253,"Shared":2254,"bt":2255,"EEENS":2256,"Ġk":2257,"ĠWLog":2258,"608":2259,"New":2260,"Internal":2261,"QStringS":2262,"WeightTplIf":2263,"interval":2264,"Align":2265,"Abstract":2266,"tactic":2267,"QStringC":2268,"path":2269,"flag":2270,"Init":2271,"sing":2272,"box":2273,"EEix":2274,"bf":2275,"thon":2276,"ops":2277,"EEEENS":2278,"QD":2279,"ua":2280,"equal":2281,"Ġ\"../../":2282,"415":2283,"link":2284,"proto":2285,"realloc":2286,"From":2287,"stem":2288,"beginEv":2289,"Gtk":2290,"xfc":2291,"QByteArray":2292,"tings":2293,"deallocateEPv":2294,"IcE":2295,"typeinfo":2296,"umber":2297,"544":2298,"Topo":2299,"ical":2300,"Ġmulu":2301,"atexit":2302,"Size":2303,"itk":2304,"426":2305,"rary":2306,"mple":2307,"411":2308,"aSEPS":2309,"rop":2310,"ZNSaIcED":2311,"417":2312,"action":2313,"ert":2314,"equence":2315,"output":2316,"ctype":2317,"cas":2318,"413":2319,"teger":2320,"My":2321,"Struct":2322,"xu":2323,"rage":2324,"Ġadc":2325,"helperEPKci":2326,"rdp":2327,"iable":2328,"dso":2329,"ĠV":2330,"416":2331,"423":2332,"Pol":2333,"xfe":2334,"rule":2335,"648":2336,"Ġgl":2337,"427":2338,"ght":2339,"474":2340,"AM":2341,"419":2342,"429":2343,"look":2344,"457":2345,"IM":2346,"Emm":2347,"668":2348,"CGAL":2349,"gram":2350,"442":2351,"99999999":2352,"ave":2353,"nown":2354,"441":2355,"Convert":2356,"ache":2357,"446":2358,"ategory":2359,"snprintf":2360,"447":2361,"reset":2362,"item":2363,"Ġopt":2364,"445":2365,"Ġrol":2366,"unique":2367,"Ih":2368,"Ġstrn":2369,"449":2370,"QHash":2371,"Matrix":2372,"uint":2373,"670":2374,"ArcTplINS":2375,"slot":2376,"443":2377,"top":2378,"era":2379,"UT":2380,"----":2381,"ENK":2382,"part":2383,"mpf":2384,"650":2385,"ined":2386,"Trans":2387,"422":2388,"dev":2389,"ĠĠĠĠĠĠĠĠ":2390,"425":2391,"Do":2392,"ethod":2393,"484":2394,"EPKcS":2395,"He":2396,"658":2397,"gst":2398,"dbus":2399,"oney":2400,"urface":2401,"ef":2402,"gc":2403,"Rep":2404,"Ba":2405,"ESaISt":2406,"XML":2407,"OM":2408,"TypeE":2409,"TR":2410,"define":2411,"469":2412,"678":2413,"432":2414,"431":2415,"486":2416,"ek":2417,"ature":2418,"ustring":2419,"ĠBIO":2420,"Layout":2421,"437":2422,"DE":2423,"435":2424,"ics":2425,"bind":2426,"ery":2427,"ialog":2428,"TopoDS":2429,"494":2430,"421":2431,"lt":2432,"pi":2433,"459":2434,"ole":2435,"Ġglobus":2436,"Ġthe":2437,"pto":2438,"qstring":2439,"sole":2440,"504":2441,"452":2442,"466":2443,"sition":2444,"typeE":2445,"AC":2446,"ffffff":2447,"Python":2448,"vol":2449,"453":2450,"cond":2451,"Sequence":2452,"QDebug":2453,"456":2454,"cimg":2455,"451":2456,"467":2457,"848":2458,"436":2459,"match":2460,"EjEixEj":2461,"event":2462,"pdataPdPKdS":2463,"IwSt":2464,"annel":2465,"lication":2466,"process":2467,"nume":2468,"Ġso":2469,"465":2470,"chr":2471,"461":2472,"acore":2473,"EEptEv":2474,"traitsIw":2475,"wxString":2476,"433":2477,"mode":2478,"delER":2479,"fortran":2480,"clEvE":2481,"Basic":2482,"QText":2483,"vertex":2484,"462":2485,"bool":2486,"439":2487,"Ad":2488,"ZT":2489,"463":2490,"ply":2491,"can":2492,"by":2493,"label":2494,"700":2495,"ĠBN":2496,"son":2497,"airo":2498,"Ġval":2499,".âĢ¦\"":2500,"ImGui":2501,"cache":2502,"rationalD":2503,"pop":2504,"numeral":2505,"with":2506,"gfortran":2507,"55555555":2508,"casacore":2509,"make":2510,"660":2511,"own":2512,"initial":2513,"nam":2514,"empty":2515,"473":2516,"Ġch":2517,"476":2518,"Poco":2519,"flow":2520,"On":2521,"Dcm":2522,"1010":2523,"ces":2524,"Localized":2525,"698":2526,"Ġ\"<":2527,"Ġstack":2528,"test":2529,"trol":2530,"690":2531,"Ġdi":2532,"Ġtest":2533,"Destroy":2534,"489":2535,"release":2536,"cmpeq":2537,"Ġ\"_":2538,"477":2539,"failed":2540,"472":2541,"554":2542,"KLocalized":2543,"487":2544,"475":2545,"638":2546,"479":2547,"mask":2548,"etaType":2549,"version":2550,"RNSt":2551,"471":2552,"global":2553,"IC":2554,"crypto":2555,"matrix":2556,"688":2557,"496":2558,"format":2559,"Core":2560,"618":2561,"Check":2562,"EM":2563,"Path":2564,"property":2565,"Ġtype":2566,"scoped":2567,"EESaIS":2568,"564":2569,"483":2570,"ixel":2571,"Ġexp":2572,"openv":2573,"640":2574,"IK":2575,"482":2576,"610":2577,"491":2578,"524":2579,"dcmtk":2580,"Cal":2581,"DF":2582,"2000":2583,"Token":2584,"ise":2585,"layer":2586,"485":2587,"481":2588,"ssl":2589,"Make":2590,"628":2591,"relation":2592,"507":2593,"bfd":2594,"630":2595,"Ġon":2596,"Money":2597,"Ġ'%":2598,"Fst":2599,"tplIN":2600,"dir":2601,"000000000000":2602,"refEv":2603,"ĠPy":2604,"policyE":2605,"traitsIcESaIcEEESt":2606,"493":2607,"555":2608,"ĠGet":2609,"Ġac":2610,"506":2611,"atin":2612,"Len":2613,"Cli":2614,"Cont":2615,"Code":2616,"constructIPKc":2617,"strEv":2618,"497":2619,"org":2620,"zero":2621,"495":2622,"620":2623,"499":2624,"constructIPKcEEvT":2625,"Doc":2626,"501":2627,"502":2628,"Location":2629,"Interface":2630,"ency":2631,"505":2632,"ONSt":2633,"492":2634,"openvdb":2635,"503":2636,"Curve":2637,"lf":2638,"freerdp":2639,"ly":2640,"780":2641,"pdate":2642,"Arg":2643,"Ġstrto":2644,"656":2645,"PKcz":2646,"Class":2647,"Print":2648,"Res":2649,"cout":2650,"SubTree":2651,"AST":2652,"Rec":2653,"anged":2654,"word":2655,"disposeEv":2656,"cpl":2657,"managerEaSEPS":2658,"ci":2659,"netgen":2660,"color":2661,"708":2662,"ected":2663,"uble":2664,"iteratorISt":2665,"Dec":2666,"Tra":2667,"tINS":2668,"aster":2669,"lu":2670,"lotObject":2671,"Ġfprintf":2672,"Ġpad":2673,"Ġlua":2674,"Ġdo":2675,"cfgEE":2676,"traitsIcESaIcEEES":2677,"sock":2678,"unpackhi":2679,"tp":2680,"aving":2681,"IF":2682,"tls":2683,"lookup":2684,"ELi":2685,"Ġput":2686,"657":2687,"Ġmods":2688,"rst":2689,"sprintf":2690,"RKSt":2691,"545":2692,"mart":2693,"Filter":2694,"RE":2695,"section":2696,"locale":2697,"UlvE":2698,">,":2699,"QU":2700,"replace":2701,"MetaObject":2702,"514":2703,"Call":2704,"546":2705,"2020":2706,"QVariantD":2707,"xuq":2708,"ĠajStr":2709,"cerr":2710,"Allocator":2711,"ove":2712,"pos":2713,"547":2714,"dialog":2715,"send":2716,"namic":2717,"ZdlPvm":2718,"738":2719,"mix":2720,"ESaIw":2721,"arithINS":2722,"module":2723,"reco":2724,"542":2725,"runtime":2726,"552":2727,"big":2728,"541":2729,"subp":2730,"casecmp":2731,"LO":2732,"xml":2733,"ptrEv":2734,"work":2735,"549":2736,"574":2737,"entity":2738,"Attribute":2739,"emplate":2740,"upport":2741,"ĠSWIG":2742,"534":2743,"iS":2744,"Job":2745,"Locale":2746,"594":2747,"589":2748,"525":2749,"arse":2750,"ute":2751,"ssion":2752,":\"":2753,"888":2754,"scii":2755,"fer":2756,"El":2757,"Ġdivu":2758,"SC":2759,"qt":2760,"QSlotObject":2761,"QTextStream":2762,"543":2763,"ERKN":2764,"Net":2765,"subpaving":2766,"566":2767,"ies":2768,"Th":2769,"createER":2770,"551":2771,"Ġ10":2772,"traitsIwESaIw":2773,"768":2774,"557":2775,"559":2776,"556":2777,"Device":2778,"553":2779,"createERmm":2780,"Ġ(%":2781,"Find":2782,"ros":2783,"EEixEm":2784,"ILi":2785,"client":2786,"Ġcx":2787,"Rect":2788,"Ascii":2789,"565":2790,"atter":2791,"Ib":2792,"AN":2793,"ersion":2794,"priv":2795,"Ġav":2796,"567":2797,"library":2798,"720":2799,"User":2800,"ual":2801,"Ġgen":2802,"managerED":2803,"ĠCurl":2804,"Seg":2805,"584":2806,"998":2807,"cmd":2808,"511":2809,"lex":2810,"569":2811,"typeEOS":2812,"Ġcurrent":2813,"arget":2814,"EEEEEEEE":2815,"uld":2816,"561":2817,"ĠH":2818,"516":2819,"icu":2820,"Icon":2821,"mma":2822,"gt":2823,"MyMoney":2824,"646":2825,"Scene":2826,"RY":2827,"tuple":2828,"563":2829,"Ġwr":2830,"517":2831,"808":2832,"Ġfwrite":2833,"EX":2834,"Ġadd":2835,"02":2836,"tract":2837,"515":2838,"nodeIS":2839,"::__":2840,"519":2841,"vec":2842,"referenceIS":2843,"Module":2844,"verb":2845,"562":2846,"513":2847,"860":2848,"778":2849,"mEv":2850,"allocateEj":2851,"cvt":2852,"rerror":2853,"579":2854,"float":2855,"572":2856,"710":2857,"rw":2858,"818":2859,"758":2860,"CTX":2861,"649":2862,"stringIT":2863,"Ġmethod":2864,"ign":2865,"838":2866,"cpp":2867,"10000":2868,"ude":2869,"573":2870,"Magick":2871,"858":2872,"RYPT":2873,"526":2874,"user":2875,"571":2876,"Draw":2877,"referenceIT":2878,"INT":2879,"535":2880,"576":2881,"column":2882,"aun":2883,"QChar":2884,"666":2885,"Utf":2886,"529":2887,"1119":2888,"verflow":2889,"1038":2890,"527":2891,"522":2892,"ames":2893,"760":2894,"523":2895,"ause":2896,"ogle":2897,"RefCount":2898,"575":2899,"828":2900,"mon":2901,"ctx":2902,"vectorIj":2903,"Ġ@":2904,"577":2905,"Trop":2906,"ak":2907,"Segment":2908,"Ġde":2909,"Tropical":2910,"fffffffffffffff":2911,"variant":2912,"thunk":2913,"quan":2914,"flush":2915,"parameter":2916,"521":2917,"Ġsk":2918,"And":2919,"ux":2920,"595":2921,"Source":2922,"IPK":2923,"Handler":2924,"stringIwSt":2925,"opy":2926,"pthread":2927,"has":2928,"593":2929,"cur":2930,"770":2931,"596":2932,"Part":2933,"dns":2934,"532":2935,"AD":2936,"element":2937,"788":2938,"597":2939,"533":2940,"537":2941,"iteratorIS":2942,"Dialog":2943,"EndS":2944,"usr":2945,"reen":2946,"536":2947,"sor":2948,"868":2949,"$_":2950,"attr":2951,"space":2952,"Cache":2953,"539":2954,"TT":2955,"SB":2956,"cp":2957,"button":2958,"ĠĠĠ":2959,"840":2960,"599":2961,"RYPTO":2962,"592":2963,"ISa":2964,"798":2965,"ĠR":2966,"604":2967,"eqIS":2968,"entryI":2969,"destroySubTree":2970,"destroySubTreeEv":2971,"EndScopeEv":2972,"591":2973,"ves":2974,"cod":2975,"uth":2976,"IX":2977,"616":2978,"Ġmodu":2979,"stringstreamIcSt":2980,"Ġq":2981,"isc":2982,"EPKcm":2983,"fin":2984,"Pack":2985,"Std":2986,"750":2987,"1048":2988,"managerEC":2989,"store":2990,"Ġsq":2991,"ZZZN":2992,"atile":2993,"667":2994,"depend":2995,"ension":2996,"Range":2997,"quire":2998,"531":2999,"Ġinvalid":3000,"Pre":3001,"Step":3002,"790":3003,"830":3004,"583":3005,"748":3006,"setER":3007,"volatile":3008,"8000":3009,"xfff":3010,"586":3011,"enode":3012,"870":3013,"878":3014,"md":3015,"718":3016,"581":3017,"740":3018,"582":3019,"Simp":3020,"ho":3021,"aaaa":3022,"728":3023,"google":3024,"587":3025,"dP":3026,"Fo":3027,"status":3028,"Create":3029,"880":3030,"Ġ\"[":3031,"QTextStreamls":3032,"Ġar":3033,"quantifier":3034,"full":3035,"DBus":3036,"protobuf":3037,"Build":3038,"898":3039,"601":3040,"ĠIn":3041,"585":3042,"exprR":3043,"once":3044,"ĠCRYPTO":3045,"Uni":3046,"align":3047,"bin":3048,"detach":3049,"pairIP":3050,"Ġlibc":3051,"math":3052,"libd":3053,"rdata":3054,"splay":3055,"647":3056,"trace":3057,"900":3058,"Match":3059,"Ġah":3060,"vectorIi":3061,"elf":3062,"QStringE":3063,"'t":3064,"category":3065,"Err":3066,"div":3067,"jPK":3068,"730":3069,"Application":3070,"908":3071,"page":3072,"backEv":3073,"EERSo":3074,"tplI":3075,"000000000000000":3076,"inc":3077,"rc":3078,"container":3079,"TL":3080,"dbg":3081,"641":3082,"FlagEE":3083,"603":3084,"ING":3085,"EET":3086,"hashtableI":3087,"Ġisl":3088,"leton":3089,"Style":3090,"backERKS":3091,"JV":3092,"EELb":3093,"NodeINS":3094,"atal":3095,"Mesh":3096,"614":3097,"607":3098,"common":3099,"staticMetaObject":3100,"606":3101,"602":3102,"abort":3103,"Settings":3104,"Blob":3105,"nodeEP":3106,"609":3107,"param":3108,"structure":3109,"950":3110,"visi":3111,"tify":3112,"696":3113,"669":3114,"current":3115,"ĠAsn":3116,"Block":3117,"850":3118,"point":3119,"1040":3120,"Ph":3121,"multi":3122,"fil":3123,"642":3124,"Request":3125,"last":3126,"EEES":3127,"Compact":3128,"uc":3129,"vectorIPN":3130,"ENSt":3131,"EERSoT":3132,"Ġas":3133,"645":3134,"stackEv":3135,"Smart":3136,"605":3137,"Msg":3138,"890":3139,"Reference":3140,"Ġline":3141,"::~":3142,"fromUtf":3143,"JVU":3144,"EPN":3145,"show":3146,"::_":3147,"Can":3148,"706":3149,"643":3150,"Ġclose":3151,"izer":3152,"exprLb":3153,"Access":3154,"Ġme":3155,"Document":3156,"FN":3157,"Parser":3158,"erm":3159,"EEESt":3160,"ify":3161,"daPv":3162,"ZdaPv":3163,"697":3164,"vectorISt":3165,"main":3166,"errorPKc":3167,"aType":3168,"676":3169,"Ġcall":3170,"692":3171,"789":3172,"Next":3173,"atype":3174,"674":3175,"Ġvalue":3176,"617":3177,"vtk":3178,"910":3179,"rte":3180,"rg":3181,"810":3182,"just":3183,"Ġbe":3184,"820":3185,"gine":3186,"moveIR":3187,"ict":3188,"QLatin":3189,"Pdf":3190,"SN":3191,"Ġstdout":3192,"930":3193,"ĠVV":3194,"Ġsize":3195,"menu":3196,"child":3197,"sql":3198,"let":3199,"Alignment":3200,"QMapNodeI":3201,"Delaun":3202,"694":3203,"US":3204,"iii":3205,"env":3206,"mos":3207,"WeightTplIfEEEE":3208,"Plugin":3209,"=%":3210,"dk":3211,"river":3212,"Failed":3213,"BRep":3214,"allocateEm":3215,"logic":3216,"Delaunay":3217,"diff":3218,"Ġdata":3219,"unit":3220,"widen":3221,"636":3222,"acer":3223,"968":3224,"624":3225,"665":3226,"1028":3227,"amma":3228,"Ġ\"../../../":3229,"Font":3230,"693":3231,"990":3232,"dependency":3233,">\"":3234,"634":3235,"1030":3236,"Ġdx":3237,"Ġigraph":3238,"mmon":3239,"663":3240,"OpenB":3241,"Active":3242,"661":3243,"Ġstrncmp":3244,"Reader":3245,"662":3246,"625":3247,"mpty":3248,"Status":3249,"Const":3250,"ell":3251,"679":3252,"Ġfunc":3253,"Ġstrcasecmp":3254,"pv":3255,"Header":3256,"Ep":3257,"626":3258,"699":3259,"1058":3260,"622":3261,"cap":3262,"988":3263,"Ġstrchr":3264,"677":3265,"797":3266,"cplus":3267,"Ġopen":3268,"OpenBabel":3269,"EEELj":3270,"erase":3271,"QAbstract":3272,"612":3273,"MS":3274,"619":3275,"dynamic":3276,"NG":3277,"671":3278,"1070":3279,"cccccccc":3280,"QUrl":3281,"refix":3282,"cs":3283,"sigc":3284,"DJVU":3285,"672":3286,"Ġsy":3287,"managerIN":3288,"cfgE":3289,"QAction":3290,"Ġap":3291,"920":3292,"EEEC":3293,"treeINSt":3294,"PKcm":3295,"traitsIcESaIcEEESaIS":3296,"673":3297,"vectorIjLb":3298,"attern":3299,"611":3300,"input":3301,"private":3302,"637":3303,"scan":3304,"EPKS":3305,"configEE":3306,"stateE":3307,"draw":3308,"rid":3309,"clause":3310,"JS":3311,"arm":3312,"onent":3313,"parser":3314,"order":3315,"684":3316,"Parse":3317,"654":3318,"Ġscm":3319,"613":3320,"6666":3321,"Ġwh":3322,"rdi":3323,"Def":3324,"Ġrte":3325,"aSEOS":3326,"ertex":3327,"615":3328,"options":3329,"invalid":3330,"coun":3331,"NUN":3332,"1118":3333,"Ġgs":3334,"NUNET":3335,"675":3336,"deleteIS":3337,"1060":3338,"=\"":3339,"._":3340,"Surface":3341,"pointer":3342,"627":3343,"her":3344,"1068":3345,"644":3346,"695":3347,"hrr":3348,"ptor":3349,"Ġstrdup":3350,"Number":3351,"emos":3352,"sure":3353,"Store":3354,"The":3355,"memp":3356,"ender":3357,"filter":3358,"Img":3359,"691":3360,"746":3361,"Ġ\"./":3362,"918":3363,"632":3364,"EEESaIS":3365,"appendERKS":3366,"Simple":3367,"Ġwrite":3368,"round":3369,"QVector":3370,"console":3371,"704":3372,"Pixel":3373,"SH":3374,"head":3375,"635":3376,"Register":3377,"regex":3378,"system":3379,"Unit":3380,"packet":3381,"ĠMagick":3382,"etry":3383,"DOM":3384,"623":3385,"Ak":3386,"QMapData":3387,"rect":3388,"629":3389,"double":3390,"Enabled":3391,"978":3392,"verbose":3393,"726":3394,"emit":3395,"etch":3396,"handler":3397,"ENKUlvE":3398,"Gen":3399,"group":3400,"Ġpmix":3401,"SD":3402,"rand":3403,"Ġmp":3404,"707":3405,"Ġfput":3406,"Vertex":3407,"variable":3408,"Ro":3409,"GB":3410,"621":3411,"ki":3412,"1078":3413,"xsd":3414,"687":3415,"Edge":3416,"794":3417,"633":3418,"940":3419,"ZGVZN":3420,"vity":3421,"dio":3422,"631":3423,"enabled":3424,"bswap":3425,"DpOT":3426,"Ġff":3427,"664":3428,"lit":3429,"OCC":3430,"connection":3431,"exprj":3432,"toString":3433,"639":3434,"Ray":3435,"Coin":3436,"Dir":3437,"702":3438,"Symbol":3439,"clude":3440,"verse":3441,"714":3442,"angle":3443,"Edit":3444,"ErrorType":3445,"utf":3446,"Writer":3447,"PointerIN":3448,"deEv":3449,"Uti":3450,"Ġlibcerror":3451,"ĠGNUNET":3452,"04":3453,"1088":3454,"RKN":3455,"701":3456,"iosIcSt":3457,"ayer":3458,"ma":3459,"older":3460,"1018":3461,"682":3462,"681":3463,"backEPS":3464,"PP":3465,"mer":3466,"689":3467,"Identity":3468,"Menu":3469,"conf":3470,"686":3471,"OFStringD":3472,"Coord":3473,"Ġgsbase":3474,"ill":3475,"OBJ":3476,"Fe":3477,"Changed":3478,"703":3479,"709":3480,"token":3481,"Memory":3482,"Ġor":3483,"980":3484,"ensi":3485,"Ġout":3486,"938":3487,"Ġexit":3488,"685":3489,"command":3490,"dPdS":3491,"simple":3492,"NCollection":3493,"signature":3494,"683":3495,"PR":3496,"rs":3497,"948":3498,"CImg":3499,"653":3500,"724":3501,"known":3502,"659":3503,"vectorINSt":3504,"Tool":3505,"device":3506,"705":3507,"651":3508,"libdar":3509,"Znam":3510,"ense":3511,"arac":3512,"rev":3513,"Ope":3514,"xxxx":3515,"804":3516,"Math":3517,"QDBus":3518,"655":3519,"_âĢ¦\"":3520,"Ġprintf":3521,"dis":3522,"Cond":3523,"ada":3524,"Tools":3525,"Infos":3526,"fied":3527,"EEb":3528,"736":3529,"652":3530,"xac":3531,"mov":3532,"enable":3533,"Gamma":3534,"limit":3535,"defined":3536,"Builder":3537,"()\"":3538,"Frame":3539,"Update":3540,"Poly":3541,"Ġvrr":3542,"display":3543,"GS":3544,"width":3545,"PKdPdS":3546,"Perl":3547,"xfd":3548,"sed":3549,"ated":3550,"Instance":3551,"**":3552,"It":3553,"928":3554,"ĠSeq":3555,"ctypeIcE":3556,"initEv":3557,"constructIPc":3558,"805":3559,"ner":3560,"queue":3561,"Null":3562,"Pi":3563,"Typed":3564,"mit":3565,"Ġsn":3566,"Ġdio":3567,"atom":3568,"constructIPcEEvT":3569,"xfffffffc":3570,"vid":3571,"1110":3572,"assignERKS":3573,"aracter":3574,"search":3575,"Link":3576,"self":3577,"ish":3578,"lv":3579,"DoFo":3580,"PoDoFo":3581,"VTT":3582,"QSlotObjectBase":3583,"fix":3584,"mal":3585,"wxStringD":3586,"upported":3587,"select":3588,"first":3589,"851":3590,"776":3591,"Condition":3592,"Begin":3593,"Ġsh":3594,"enti":3595,"lite":3596,"right":3597,"1080":3598,"EPF":3599,"960":3600,"generic":3601,"999":3602,"Query":3603,"ConvertPtr":3604,"att":3605,"mpp":3606,"ution":3607,"save":3608,"utils":3609,"rationalS":3610,"field":3611,"779":3612,"ListIJ":3613,"SM":3614,"srli":3615,"rypt":3616,"EmmPKcm":3617,"ait":3618,"long":3619,"figu":3620,"Integer":3621,"Bit":3622,"ION":3623,"TCollection":3624,"Ġborg":3625,"Ġgettext":3626,"lower":3627,"spon":3628,"fast":3629,"PointerI":3630,"literalE":3631,"Ġcreate":3632,"refIS":3633,"771":3634,"TCol":3635,"IiEE":3636,"CP":3637,"deriv":3638,"tors":3639,"1050":3640,"4000":3641,"GammaRay":3642,"ody":3643,"773":3644,"712":3645,"lace":3646,"ERROR":3647,"sec":3648,"719":3649,"772":3650,"756":3651,"Il":3652,"958":3653,"970":3654,"lada":3655,"spacer":3656,"active":3657,"((":3658,"784":3659,"dataEE":3660,"747":3661,"775":3662,"host":3663,"777":3664,"1115":3665,"SE":3666,"tupleIJ":3667,"1020":3668,"ged":3669,"tific":3670,"Com":3671,"Tape":3672,"access":3673,"OFString":3674,"Control":3675,"streambuf":3676,"717":3677,"ECT":3678,"pb":3679,"33333333":3680,"737":3681,"711":3682,"RV":3683,"Static":3684,"sive":3685,".\\":3686,"Channel":3687,"754":3688,"qe":3689,"Client":3690,"numeric":3691,"QDom":3692,"request":3693,"font":3694,"actory":3695,"799":3696,"kind":3697,"734":3698,"Ġstring":3699,"QTyped":3700,"QTypedArrayData":3701,"795":3702,"rate":3703,"Column":3704,"Resource":3705,"727":3706,"Hashtable":3707,"Ġcalloc":3708,"793":3709,"rep":3710,"CH":3711,"ern":3712,"QMetaType":3713,"TapeInfos":3714,"():":3715,"resol":3716,"713":3717,"ConnectionD":3718,"toStringEv":3719,"Invalid":3720,"744":3721,"796":3722,"791":3723,"avi":3724,"Mask":3725,"Ġtime":3726,"ĠcurrentTapeInfos":3727,"Ġ\"--":3728,"auto":3729,"792":3730,"1098":3731,"task":3732,"RGB":3733,"715":3734,"EPKcz":3735,"Xml":3736,"GR":3737,"scriptor":3738,"acquire":3739,"716":3740,"723":3741,"flushEv":3742,"Ġbo":3743,"losure":3744,"785":3745,"Ġip":3746,"cip":3747,"PPvP":3748,"Main":3749,"gest":3750,"OFCondition":3751,"Ġcan":3752,"BasicImage":3753,"783":3754,"Body":3755,"725":3756,"una":3757,"722":3758,"Nor":3759,"764":3760,"Ġms":3761,"Load":3762,"lsEPKc":3763,"Ġ\"../":3764,"sym":3765,"ppEv":3766,"Ġconst":3767,"733":3768,"Ġgf":3769,"Compare":3770,"transfer":3771,"ffffffffffffff":3772,"ternal":3773,"pf":3774,"801":3775,"EY":3776,"786":3777,"Transl":3778,"781":3779,"802":3780,"NameERK":3781,"782":3782,"904":3783,"mapINSt":3784,"essage":3785,"729":3786,"sponse":3787,"parent":3788,"olean":3789,"include":3790,"QMessage":3791,"ative":3792,"OL":3793,"721":3794,"732":3795,"787":3796,"Ġ12":3797,"EEEEv":3798,"roto":3799,"proxy":3800,"Helper":3801,"Result":3802,"735":3803,"xfffffffd":3804,"gment":3805,"Append":3806,"ERSo":3807,"storage":3808,"Assign":3809,"999999999999":3810,"745":3811,"Ġnew":3812,"809":3813,"replaceEmmPKcm":3814,"ZGVZ":3815,"sE":3816,"apl":3817,"Ġparse":3818,"CS":3819,"expression":3820,"QListIP":3821,"cell":3822,"Ġstrerror":3823,"1006":3824,"UTF":3825,"counted":3826,"Start":3827,"ERKSt":3828,"731":3829,"integer":3830,"803":3831,"QShared":3832,"1008":3833,"774":3834,"Seq":3835,"mmove":3836,"QIcon":3837,"backEOS":3838,"quali":3839,"757":3840,"sm":3841,"resetEv":3842,"Ġversion":3843,"lear":3844,"RNS":3845,"806":3846,"741":3847,"874":3848,"symbols":3849,"putEc":3850,"libnl":3851,"749":3852,"ZStpl":3853,"endl":3854,"locate":3855,"Ios":3856,"Length":3857,"place":3858,"739":3859,">::":3860,"eckit":3861,"Delete":3862,"743":3863,"EEEEE":3864,"inst":3865,"xcc":3866,"Ġdm":3867,"KLocalizedString":3868,"scription":3869,"End":3870,"752":3871,"PSt":3872,"resize":3873,"pairIKNSt":3874,"807":3875,"Leaf":3876,"742":3877,"tivity":3878,"elp":3879,"expand":3880,"wxStringC":3881,"tered":3882,"KLocalizedStringD":3883,"755":3884,"Mo":3885,"ename":3886,"Structure":3887,"894":3888,"pool":3889,"hashIS":3890,"HER":3891,"cale":3892,"814":3893,"Ġoptarg":3894,"inte":3895,"Ġwith":3896,"753":3897,"1090":3898,"ie":3899,"rec":3900,"ZStplIcSt":3901,"766":3902,"compareEPKc":3903,"rer":3904,"RVNG":3905,"leg":3906,"ST":3907,"traitsIcESaIcEENSt":3908,"mpzRKS":3909,"Ġfrom":3910,"ptrINS":3911,"'\"":3912,"884":3913,"memdq":3914,"759":3915,"ostringstreamIcSt":3916,"bx":3917,"ĠQListData":3918,"enge":3919,"vp":3920,"sent":3921,"emptyEv":3922,"ELN":3923,"827":3924,"Unicode":3925,"ori":3926,"Server":3927,"idEv":3928,"hd":3929,"751":3930,"Process":3931,"prefix":3932,"revenge":3933,"Service":3934,"761":3935,"Ġfunction":3936,"librevenge":3937,"Pair":3938,"dup":3939,"Ġmemmove":3940,"Ġ11":3941,"Ġan":3942,"root":3943,"endar":3944,"QMessageLogger":3945,"ZNSs":3946,"pix":3947,"tools":3948,"Wrap":3949,"pdat":3950,"ties":3951,"tin":3952,"Ġfi":3953,"hw":3954,"win":3955,"ptrI":3956,"ZNSolsEi":3957,"844":3958,"hashtableIN":3959,"sport":3960,"stru":3961,"769":3962,"fatal":3963,"763":3964,"767":3965,"ending":3966,"765":3967,"Test":3968,"762":3969,"Storage":3970,"http":3971,"serial":3972,"Back":3973,"QStringList":3974,"834":3975,"824":3976,"EEEix":3977,"QVariantC":3978,"DataE":3979,"hashINS":3980,"IsLevel":3981,"emplace":3982,"RB":3983,"Collada":3984,"epu":3985,"Xn":3986,"Proxy":3987,"Ġ\",":3988,"Page":3989,"La":3990,"cairo":3991,"fromAscii":3992,"EPKNS":3993,"Player":3994,"igh":3995,"949":3996,"Root":3997,"Ġstrtol":3998,"OFStringC":3999,"EiRK":4000,"Container":4001,"arp":4002,"used":4003,"822":4004,"la":4005,"Ġname":4006,"Run":4007,"896":4008,"8080":4009,"entryE":4010,"constant":4011,"Au":4012,"ENT":4013,"neg":4014,"812":4015,"eval":4016,"With":4017,"Transform":4018,"done":4019,"perties":4020,"Options":4021,"Ġfind":4022,"EjPK":4023,"854":4024,"sync":4025,"sum":4026,"Ġfclose":4027,"upper":4028,"847":4029,"CON":4030,"unicode":4031,"report":4032,"Ġcomp":4033,"interface":4034,"EEEOT":4035,"Fl":4036,"1234":4037,"mux":4038,"Ġcairo":4039,"unknown":4040,"899":4041,"936":4042,"Normal":4043,"Copy":4044,"uce":4045,"left":4046,"ope":4047,"1100":4048,"sian":4049,"Bind":4050,"eax":4051,"826":4052,"Pool":4053,"Deque":4054,"Display":4055,"UR":4056,"dbgmsg":4057,"PE":4058,"Zls":4059,"QHashData":4060,"ents":4061,"Ġ\"#":4062,"rder":4063,"fill":4064,"Ġcheck":4065,"Grid":4066,"recogn":4067,"adata":4068,"Port":4069,"ErrorTypei":4070,"864":4071,"callback":4072,"rement":4073,"setup":4074,"xdc":4075,"lish":4076,"1128":4077,"dae":4078,"Ġmemcmp":4079,"reallocate":4080,"ups":4081,"serve":4082,"CM":4083,"osgDB":4084,"Ġdebug":4085,"Ġrt":4086,"Ġgdk":4087,"Spl":4088,"DL":4089,"Allocation":4090,"Ġwhen":4091,"ctory":4092,"Ġsnprintf":4093,"ound":4094,"Policy":4095,"Ġtop":4096,"RefINS":4097,"cmpgt":4098,"sqrt":4099,"Long":4100,"813":4101,"td":4102,"Bin":4103,"sin":4104,"Ġwx":4105,"iteratorIPS":4106,"enter":4107,"1108":4108,"Ġ13":4109,"Label":4110,"itle":4111,"ĠASN":4112,"Child":4113,"sch":4114,"track":4115,"Pc":4116,"pu":4117,"825":4118,"heap":4119,"ernel":4120,"()::":4121,"IcNS":4122,"Ġstrcpy":4123,"ĠEC":4124,"817":4125,"gg":4126,"EEN":4127,"IsLevelActive":4128,"query":4129,"memxuq":4130,"xmmxuq":4131,"903":4132,"imm":4133,"ank":4134,"816":4135,"872":4136,"Edd":4137,"984":4138,"dealloc":4139,"xygen":4140,"socket":4141,"Component":4142,"811":4143,"1024":4144,"ular":4145,"resh":4146,"Cdl":4147,"ino":4148,"815":4149,"1120":4150,"Geometry":4151,"ZTIN":4152,"keleton":4153,"Ances":4154,"PL":4155,"GAP":4156,"bar":4157,"insertIJ":4158,"1001":4159,"Ġlist":4160,"Ġnumber":4161,"MetaType":4162,"924":4163,"821":4164,"Ġ14":4165,"xbc":4166,"Expression":4167,"jPKP":4168,"andnot":4169,"ILj":4170,"871":4171,"appendEPKcm":4172,"909":4173,"Ġ\"-":4174,"Argument":4175,"873":4176,"Own":4177,"reallocateEPv":4178,"Oxygen":4179,"appP":4180,"abi":4181,"random":4182,"Ancestors":4183,"address":4184,"Ġim":4185,"Row":4186,"skip":4187,"treeIN":4188,"Mon":4189,"setObject":4190,"PKv":4191,"901":4192,"Ġexpand":4193,"902":4194,"819":4195,"non":4196,"875":4197,"OptionEE":4198,"extract":4199,"876":4200,"Save":4201,"829":4202,"882":4203,"converter":4204,"Gene":4205,"names":4206,"823":4207,"irr":4208,"deo":4209,"Ġkey":4210,"Edi":4211,"cept":4212,"885":4213,"Case":4214,"845":4215,"881":4216,"Variable":4217,"887":4218,"loop":4219,"Ġpl":4220,"883":4221,"989":4222,"905":4223,"907":4224,"906":4225,"setObjectNameERK":4226,"Atom":4227,"889":4228,"signed":4229,"body":4230,"886":4231,"getEv":4232,"KConfig":4233,"zone":4234,"ulti":4235,"sys":4236,"Constra":4237,"836":4238,"833":4239,"nodeISt":4240,"Ġlibuna":4241,"Bar":4242,"839":4243,"sen":4244,"Ġmuls":4245,"837":4246,"args":4247,"pdatai":4248,"831":4249,"fn":4250,"region":4251,"QVariantE":4252,"Overflow":4253,"832":4254,"iteratorIPK":4255,"EEEvN":4256,"LOG":4257,"EXT":4258,"835":4259,"842":4260,"EEDpOT":4261,"Ġputs":4262,"Sing":4263,"Num":4264,"bi":4265,"memq":4266,"vectorIiSa":4267,"velo":4268,"EERS":4269,"term":4270,"style":4271,"Empty":4272,"846":4273,"By":4274,"Form":4275,"ZNSolsEPF":4276,"edi":4277,"tab":4278,"SQL":4279,"Ġ15":4280,"traitsIwESaIwEE":4281,"amera":4282,"994":4283,"sERK":4284,"QDebugD":4285,"jo":4286,"OPENS":4287,"852":4288,"Ġunable":4289,"849":4290,"Compactor":4291,"ACK":4292,"attribute":4293,"843":4294,"Could":4295,"841":4296,"vio":4297,"iiii":4298,"921":4299,"OPENSSL":4300,"BoxLayout":4301,"Reply":4302,"QT":4303,"session":4304,"Sign":4305,"Ġmy":4306,"891":4307,"Real":4308,"goal":4309,"rea":4310,"0000001":4311,"datapl":4312,"Ġinit":4313,"ublish":4314,"914":4315,"Ġfd":4316,"856":4317,"897":4318,"verity":4319,"xfb":4320,"any":4321,"Ġ20":4322,"mote":4323,"fy":4324,"Rai":4325,"CD":4326,"tok":4327,"EEPKS":4328,"AlignmentFlagEE":4329,"Ġsqrt":4330,"LogWeightTpl":4331,"869":4332,"859":4333,"AB":4334,"gress":4335,"TColStd":4336,"fmt":4337,"LogMessage":4338,"ations":4339,"clean":4340,"954":4341,"Ġuse":4342,"893":4343,"Sch":4344,"OfShape":4345,"2250":4346,"dataplus":4347,"DcmTag":4348,"desc":4349,"ScopeEv":4350,"862":4351,"857":4352,"7777":4353,"initialize":4354,"WidgetEP":4355,"Unknown":4356,"(%":4357,"Global":4358,"template":4359,"allocatorEv":4360,"Ġconf":4361,"aptor":4362,"934":4363,"892":4364,"Template":4365,"emRB":4366,"895":4367,"hy":4368,"853":4369,"Ġabort":4370,"Tuple":4371,"855":4372,"SP":4373,"Engine":4374,"Ġ\"!":4375,"elim":4376,"umm":4377,"closure":4378,"1138":4379,"triangulation":4380,"1148":4381,"pybind":4382,"932":4383,"915":4384,"vider":4385,"866":4386,"entifier":4387,"/%":4388,"rationalC":4389,"countered":4390,"Ġev":4391,"Search":4392,"1200":4393,"Target":4394,"861":4395,"SceneGraph":4396,"iteratorIPN":4397,"pa":4398,"QMapI":4399,"reduce":4400,"Region":4401,"sage":4402,"Severity":4403,"Ġsend":4404,"Ġsoap":4405,"tx":4406,"863":4407,"Texture":4408,"aligned":4409,"ping":4410,"Game":4411,"1198":4412,"pairIKj":4413,"867":4414,"944":4415,",%":4416,"osi":4417,"865":4418,"tile":4419,"json":4420,"Raise":4421,"BeginScopeEv":4422,"Serial":4423,"879":4424,"Contact":4425,"992":4426,"ende":4427,"dump":4428,"omial":4429,"exceptionD":4430,"filen":4431,"CommandLine":4432,"Ġencountered":4433,"castv":4434,"995":4435,"Stack":4436,"seek":4437,"gcomm":4438,"arte":4439,"Multi":4440,"RSoS":4441,"Ġbio":4442,"qui":4443,"rdx":4444,"IST":4445,"997":4446,"ConnectionType":4447,"Ġuves":4448,"Editor":4449,"channel":4450,"ging":4451,"927":4452,"windows":4453,"bits":4454,"DataMap":4455,"Accessor":4456,"877":4457,"jit":4458,"xbf":4459,"Ġfc":4460,"996":4461,"Face":4462,"artesian":4463,"911":4464,"NTL":4465,"intr":4466,"control":4467,"sha":4468,"Ġbyte":4469,"CK":4470,"cance":4471,"IiE":4472,"Position":4473,"985":4474,"991":4475,"lin":4476,"EEcl":4477,"981":4478,"notify":4479,"Ġock":4480,"1004":4481,"919":4482,"916":4483,"ZNSolsEPFRSoS":4484,"923":4485,"activate":4486,"fffff":4487,"rush":4488,"Dire":4489,"ĠO":4490,"ization":4491,"Ġfl":4492,"zdialog":4493,"986":4494,"QMapDataBase":4495,"System":4496,"filename":4497,"codepage":4498,"MathStructure":4499,"993":4500,"8000000000000000":4501,"982":4502,"2038":4503,"cont":4504,"964":4505,"ema":4506,"983":4507,"pattern":4508,"Ġfil":4509,"EO":4510,"QPoint":4511,"QFlagsINS":4512,"omp":4513,"Ġkrb":4514,"974":4515,"ĠSet":4516,"DW":4517,"stringbuf":4518,"--------":4519,"QTextStreamlsEc":4520,"STR":4521,"912":4522,"coding":4523,"926":4524,"KDe":4525,"pL":4526,"metatype":4527,"aw":4528,"Ġxml":4529,"1130":4530,"MemFree":4531,"QPa":4532,"Bl":4533,"ted":4534,"987":4535,"TopTools":4536,"stringIS":4537,"956":4538,"Ġglobal":4539,"Combo":4540,"Ġsnd":4541,"1188":4542,"QColor":4543,"reserve":4544,"Calendar":4545,"Space":4546,"913":4547,"ject":4548,"quence":4549,"icon":4550,"kt":4551,"1158":4552,"quark":4553,"Ġzend":4554,"Network":4555,"ĠOPENSSL":4556,"Ġfield":4557,"Ġsection":4558,"]\"":4559,"Max":4560,"969":4561,"IvEEEENS":4562,"regator":4563,"trl":4564,"ended":4565,"initialized":4566,"TY":4567,"Ġconn":4568,"1168":4569,"issing":4570,"925":4571,"inition":4572,"917":4573,"ILE":4574,"Ejj":4575,"Parameter":4576,"addWidgetEP":4577,"wait":4578,"Date":4579,"method":4580,"ped":4581,"coders":4582,"exec":4583,"931":4584,"Ġand":4585,"bra":4586,"Prop":4587,"mpzS":4588,"clEv":4589,"922":4590,"transform":4591,"Visi":4592,"1044":4593,"swig":4594,"Diff":4595,"realclosure":4596,"baseIN":4597,"935":4598,"Common":4599,"1140":4600,"yy":4601,"Session":4602,"piec":4603,"clearEv":4604,"nocontext":4605,"sig":4606,"expected":4607,"Host":4608,"933":4609,"EEONSt":4610,"xmmps":4611,"prin":4612,"2048":4613,"Ġprogram":4614,"00000000000":4615,"EEED":4616,"ixmap":4617,"ĠRead":4618,"ud":4619,"ĠError":4620,"statem":4621,"):":4622,"1178":4623,"1034":4624,"Ġinput":4625,"955":4626,"Selection":4627,"traitsISa":4628,"AME":4629,"1111":4630,"976":4631,"roll":4632,"Float":4633,"929":4634,"Ġrealloc":4635,"959":4636,"1002":4637,"PrintMessage":4638,"PFv":4639,"947":4640,"1150":4641,"Proto":4642,"Socket":4643,"Ġ18":4644,"945":4645,"tOutput":4646,"941":4647,"recv":4648,"Ġvcvt":4649,"_\"":4650,"immb":4651,"939":4652,"ntax":4653,"943":4654,"srm":4655,"OD":4656,"velop":4657,"fixed":4658,"slli":4659,"01":4660,"transport":4661,"visit":4662,"Ġgap":4663,"gmp":4664,"03":4665,"man":4666,"setpv":4667,"937":4668,"aco":4669,"vw":4670,"EPKw":4671,"2260":4672,"Short":4673,"ta":4674,"OW":4675,"ewise":4676,"DEF":4677,"idth":4678,"ĠWrite":4679,"942":4680,"piecewise":4681,"Clear":4682,"fr":4683,"NameEv":4684,"izers":4685,"Factory":4686,"figuration":4687,"lessIi":4688,"asy":4689,"FstINS":4690,"946":4691,"975":4692,"1160":4693,"QDate":4694,"Ġstrncpy":4695,"Util":4696,"character":4697,"952":4698,"1003":4699,"2258":4700,"963":4701,"insertIm":4702,"953":4703,"957":4704,"dataEv":4705,"traitsIcESaIcEEEN":4706,"Ġ___":4707,"insertImEERSoT":4708,"Ġsc":4709,"roid":4710,"tory":4711,"Sync":4712,"iPK":4713,"globals":4714,"1054":4715,"Epick":4716,"pairIS":4717,"dispatch":4718,"961":4719,"Ġentry":4720,"DR":4721,"setpvf":4722,"adi":4723,"951":4724,"KDevelop":4725,"962":4726,"orr":4727,"FT":4728,"tal":4729,"Ġundefined":4730,"recognizers":4731,"asn":4732,"Ġlocal":4733,"service":4734,"Ġarb":4735,"Ġdy":4736,"HT":4737,"1015":4738,"1074":4739,"Loader":4740,"FO":4741,"1170":4742,"967":4743,"abig":4744,"Current":4745,"Generic":4746,"ts":4747,"Ġnum":4748,"abigail":4749,"auth":4750,"gno":4751,"ZSteq":4752,"Ġato":4753,"record":4754,"Zpl":4755,"965":4756,"bytes":4757,"979":4758,"Ġsa":4759,"mapIS":4760,"InternalNodeINS":4761,"Valid":4762,"isoc":4763,"Category":4764,"RaiseEPKc":4765,"TropicalWeightTplIfEEEE":4766,"966":4767,"archive":4768,"ced":4769,"tP":4770,"Ġby":4771,"Zeq":4772,"fore":4773,"meters":4774,"Fin":4775,"pow":4776,"977":4777,"971":4778,"973":4779,"my":4780,"CIP":4781,"Conf":4782,"1180":4783,"android":4784,"Content":4785,"sis":4786,"oi":4787,"down":4788,"tains":4789,"DataEv":4790,"QPainter":4791,"Ġ((":4792,"UG":4793,"Ġ>=":4794,"Expr":4795,"1014":4796,"appEii":4797,"1005":4798,"EptEv":4799,"1190":4800,"1011":4801,"imer":4802,"None":4803,"duct":4804,"972":4805,"bq":4806,"bori":4807,"Record":4808,"itpp":4809,"CIPHER":4810,"QFile":4811,"RN":4812,"1007":4813,"xec":4814,"IdE":4815,"leter":4816,"InputArray":4817,"uid":4818,"Ġhas":4819,"TypeEE":4820,"Ġmemory":4821,"LogWeightTplIfEEEE":4822,"1064":4823,"Ġargument":4824,"Tp":4825,"Param":4826,"Ġupdate":4827,"ImplINS":4828,"PAR":4829,"Ell":4830,"ĠK":4831,"40000000":4832,"mid":4833,"Idd":4834,"AndOwn":4835,"ConvertPtrAndOwn":4836,"ILm":4837,"Pnt":4838,"Close":4839,"xaa":4840,"PtrINS":4841,"EEOS":4842,"Wrapper":4843,"EOT":4844,"ĠLocale":4845,"1029":4846,"1059":4847,"usive":4848,"rdf":4849,"memps":4850,"temp":4851,"Sol":4852,"numeralI":4853,"1084":4854,"Ġ--":4855,"Ġfopen":4856,"Ġbx":4857,"iteratorIT":4858,"MA":4859,"Ġbuffer":4860,"Que":4861,"FreeEPv":4862,"traitsIcESaIcEERSt":4863,"Zero":4864,"deque":4865,"IcS":4866,"height":4867,"Any":4868,"settings":4869,"EEEb":4870,"1009":4871,"logicINS":4872,"Meta":4873,"1035":4874,"utable":4875,"Pos":4876,"IteratorINS":4877,"BaseD":4878,"Ġpix":4879,"Sensi":4880,"ERSt":4881,"ib":4882,"segment":4883,"svectorI":4884,"Ġfound":4885,"Akregator":4886,"2600":4887,"1019":4888,"1300":4889,"GemRB":4890,"ERKT":4891,"GP":4892,"HArray":4893,"ou":4894,"Ġpa":4895,"game":4896,"Ġ\"[%":4897,"cipher":4898,")\\":4899,"LA":4900,"Ġformat":4901,"mpl":4902,"Change":4903,"mpff":4904,"EjED":4905,"IdEE":4906,"ga":4907,"ComboBox":4908,"QSharedPointerIN":4909,"Ġtoo":4910,"1049":4911,"sscan":4912,"Account":4913,"Ġ\"\"":4914,"vectorINS":4915,"Ġqu":4916,"Ġmap":4917,"MainWindow":4918,"target":4919,"SF":4920,"pha":4921,"edge":4922,"QStringP":4923,"ndPKcS":4924,"auch":4925,"refIN":4926,"1039":4927,"Ġsljit":4928,"xfffffffb":4929,"Ġsqlite":4930,"oid":4931,"Ġ24":4932,"ities":4933,"concat":4934,"ExceptionC":4935,"adjust":4936,"ZTI":4937,"Ent":4938,"1041":4939,"1023":4940,"lr":4941,"pred":4942,"Ġstat":4943,"Trace":4944,"Ġext":4945,"cul":4946,"1017":4947,"1022":4948,"Ġapr":4949,"1388":4950,"1218":4951,"hashENS":4952,"Ġfputc":4953,"1012":4954,"split":4955,"Ġmust":4956,"1042":4957,"Ġra":4958,"baseD":4959,"2710":4960,"eraseEPSt":4961,"mpbq":4962,"1114":4963,"EEPT":4964,"1013":4965,"ZeqRK":4966,"Dis":4967,"ane":4968,"Ġpo":4969,"1016":4970,"Word":4971,"peek":4972,"1037":4973,"anner":4974,"gral":4975,"eve":4976,"libemos":4977,"1400":4978,"IA":4979,"1208":4980,"Sensitivity":4981,"appS":4982,"1248":4983,"rtual":4984,"wind":4985,"itor":4986,"card":4987,"1021":4988,"exi":4989,"fac":4990,"1027":4991,"erial":4992,"1025":4993,"forwardI":4994,"1258":4995,"board":4996,"Enum":4997,"EEvPT":4998,"DSR":4999,"CaseSensitivity":5000,"1210":5001,"1405":5002,"prep":5003,"Eiiii":5004,"ticle":5005,"1031":5006,"Ġ<=":5007,"BB":5008,"LC":5009,"Ġdh":5010,"emoslib":5011,"Thread":5012,"edEv":5013,"uves":5014,"vectorId":5015,"UM":5016,"ette":5017,"erra":5018,"1033":5019,"ĠLog":5020,"EDpOT":5021,"DA":5022,"Ġ23":5023,"UI":5024,"rosconsole":5025,"Ġgsl":5026,"TextERK":5027,"1094":5028,"1026":5029,"Ġskip":5030,"Fvv":5031,"ĠPyErr":5032,"Gal":5033,"Ġstrstr":5034,"ustom":5035,"EEEESt":5036,"togg":5037,"[%":5038,"Met":5039,"1036":5040,"hp":5041,"sscanf":5042,"1043":5043,"Queue":5044,"1069":5045,"QLabel":5046,"fpa":5047,"EERKS":5048,"amitk":5049,"edit":5050,"NodeE":5051,"driver":5052,"Ġ\":":5053,"doc":5054,"rehash":5055,"1056":5056,"1047":5057,"OSSL":5058,"Ġ25":5059,"ĠLocaleCompare":5060,"Descriptor":5061,"Ġfst":5062,"Ġsprintf":5063,"1032":5064,"1268":5065,"Ġspec":5066,"cision":5067,"IFF":5068,"EJ":5069,"mpfx":5070,"CO":5071,"grid":5072,"constra":5073,"domain":5074,"Usage":5075,"change":5076,"Clp":5077,"overflow":5078,"Address":5079,"QAbstractButton":5080,"simp":5081,"1066":5082,"Ġimage":5083,"Cartesian":5084,"Up":5085,"EONSt":5086,"1053":5087,"leave":5088,"Callback":5089,"abs":5090,"1228":5091,"1061":5092,"ustringD":5093,"QDebuglsEPKc":5094,"vect":5095,"1238":5096,"itch":5097,"1051":5098,">\\":5099,"here":5100,"1240":5101,"1081":5102,"MD":5103,"Gallic":5104,"Ġdbus":5105,"Ġbp":5106,"1230":5107,"alette":5108,"1045":5109,"flames":5110,"pin":5111,"iteratorINS":5112,"uf":5113,"FileName":5114,"1298":5115,"QBoxLayout":5116,"1220":5117,"Lm":5118,"1104":5119,"1085":5120,"Package":5121,"1117":5122,":\\":5123,"BaseC":5124,"1046":5125,"1082":5126,"SequenceOf":5127,"qual":5128,"2028":5129,"backend":5130,"Ġgel":5131,"Aligned":5132,"1055":5133,"topt":5134,"Unable":5135,"mount":5136,"1086":5137,"1062":5138,"1063":5139,"Cursor":5140,"ĠRe":5141,"05":5142,"1057":5143,"gtk":5144,"Pan":5145,"lem":5146,"values":5147,"EEEEvT":5148,"ZZNK":5149,"2711":5150,"Exc":5151,"ept":5152,"ingENS":5153,"gmpz":5154,"1052":5155,"iler":5156,"html":5157,"1134":5158,"baseS":5159,"interp":5160,"emon":5161,"xfffffffffffffffe":5162,"eff":5163,"1087":5164,"1067":5165,"All":5166,"onadi":5167,"merge":5168,"oo":5169,"QMetaTypeId":5170,"Ġasn":5171,"Runtime":5172,"ĠInc":5173,"solve":5174,"antlr":5175,"help":5176,"1071":5177,"tString":5178,"xdf":5179,"ertific":5180,"true":5181,"msgs":5182,"1250":5183,"Mgr":5184,"1072":5185,"1065":5186,"ctl":5187,"ImVec":5188,"lice":5189,"4010":5190,"ten":5191,"Ġbuf":5192,"EEEEEE":5193,"1075":5194,"abc":5195,"Flags":5196,"CR":5197,"1113":5198,"One":5199,"1079":5200,"First":5201,"hwf":5202,"1083":5203,"Offset":5204,"watch":5205,"fm":5206,"IdentityIS":5207,"MAd":5208,"1124":5209,"polybori":5210,"SaIcE":5211,"gebra":5212,"1260":5213,"QHashI":5214,"dn":5215,"ASM":5216,"IB":5217,"Sw":5218,"enderer":5219,"translate":5220,"literalELb":5221,"Dense":5222,"SAIL":5223,"1077":5224,"light":5225,"ZStlsIcSt":5226,"constraint":5227,"1278":5228,"bRKNSt":5229,"unsigned":5230,"Ġpar":5231,"nw":5232,"probe":5233,"Profile":5234,"dr":5235,"EPKSt":5236,"Skeleton":5237,"1076":5238,"destroyEv":5239,"iteratorC":5240,"Identifier":5241,"2608":5242,"2030":5243,"iction":5244,"1280":5245,"Ġossl":5246,"1089":5247,"07":5248,"SG":5249,"Ġfputs":5250,"ConnectionTypeE":5251,"1073":5252,"Track":5253,"achine":5254,"ĠSSL":5255,"Ġload":5256,"EiPNS":5257,"stop":5258,"1095":5259,"cancel":5260,"pairINSt":5261,"rag":5262,"amp":5263,"Import":5264,"blaster":5265,"lessIj":5266,"ĠOSSL":5267,"1144":5268,".%":5269,"ColladaDOM":5270,"1288":5271,"VER":5272,"Ġ%âĢ¦\"":5273,"Properties":5274,"QSlotObjectIM":5275,"Spec":5276,"eriv":5277,"Ret":5278,"simpli":5279,"1122":5280,"1270":5281,"Ġreg":5282,"replayer":5283,"ground":5284,"1097":5285,"CaseSensitivityE":5286,"ĠĠĠĠĠ":5287,"/âĢ¦\"":5288,"decode":5289,"false":5290,"1093":5291,"INFO":5292,"1096":5293,"managerEED":5294,"shif":5295,"demux":5296,"Colo":5297,"IiSt":5298,"camitk":5299,"1092":5300,"rdataset":5301,"1099":5302,"1105":5303,"Screen":5304,"1107":5305,"1137":5306,"1116":5307,"Version":5308,"adow":5309,"20000":5310,"vv":5311,"1154":5312,"ertificate":5313,"factor":5314,"1101":5315,"1290":5316,"Ġpara":5317,"ĠAsnRead":5318,"1091":5319,"KL":5320,"ORE":5321,"1308":5322,"over":5323,"VAL":5324,"Be":5325,"Ġ30":5326,"Min":5327,"Ġharp":5328,"baseIP":5329,"Driver":5330,"Inc":5331,"2040":5332,"1102":5333,"Akonadi":5334,"aj":5335,"SI":5336,"1123":5337,"1109":5338,"Funcs":5339,"ifIX":5340,"ZlsRSo":5341,"1103":5342,"1164":5343,"Scan":5344,"install":5345,"Graphics":5346,"Ġavio":5347,"1500":5348,"Arch":5349,"Ġrep":5350,"1948":5351,"traitsIcESaIcEEbRKNSt":5352,"ELin":5353,"xfa":5354,"Bag":5355,"Ġ26":5356,"ĠSDL":5357,"city":5358,"integral":5359,"Kexi":5360,"gebraic":5361,"2058":5362,"QRect":5363,"InputStream":5364,"depth":5365,"IvEEEEEEEE":5366,"req":5367,"join":5368,"enum":5369,"PPvPb":5370,"2050":5371,"ql":5372,"glo":5373,"ZNSi":5374,"seqan":5375,"1121":5376,"EEEvDpOT":5377,"oly":5378,"Json":5379,"1174":5380,"1460":5381,"sequence":5382,"xp":5383,"ftp":5384,"infoi":5385,"LogLocation":5386,"1135":5387,"1106":5388,"09":5389,"Ġ27":5390,"Eff":5391,"bmp":5392,"Ġwas":5393,"bufferIP":5394,"2078":5395,"pairIKi":5396,"PPvS":5397,"RuntimeError":5398,"Extended":5399,"chunk":5400,"Det":5401,"1141":5402,"increment":5403,"Adaptor":5404,"1136":5405,"ImplEPKS":5406,"connectImplEPKS":5407,"RGBValue":5408,"-âĢ¦\"":5409,"ban":5410,"Laser":5411,"DefaultCompact":5412,"EPKcRK":5413,"1184":5414,"procENS":5415,"ILN":5416,"ification":5417,"wen":5418,"Ġacd":5419,"Tab":5420,"propag":5421,"Ġepo":5422,"1133":5423,"1127":5424,"MakeSymbol":5425,"Transaction":5426,"EiE":5427,"1131":5428,"Ġdec":5429,"logtype":5430,"finish":5431,"sentation":5432,"Database":5433,"Ġoutput":5434,"1194":5435,"ranged":5436,"fits":5437,"Eiii":5438,"Ġ16":5439,"1132":5440,"ailable":5441,"1358":5442,"1139":5443,"player":5444,"tributes":5445,"zmm":5446,"IjSt":5447,"1159":5448,"QListIN":5449,"changed":5450,"pck":5451,"selection":5452,"1129":5453,"pdataiPdPKdS":5454,"IbLb":5455,"Grow":5456,"ValNode":5457,"dict":5458,"xorpd":5459,"FILE":5460,"Cannot":5461,"stent":5462,"errorC":5463,"Ġ28":5464,"Ġepoxy":5465,"PARAM":5466,"EEELb":5467,"cro":5468,"1145":5469,"1126":5470,"war":5471,"CompactorINS":5472,"QPDF":5473,"ote":5474,"QObjectPPvPb":5475,"TYPE":5476,"1320":5477,"iltin":5478,"1125":5479,"ures":5480,"Ġmo":5481,"QTree":5482,"1147":5483,"book":5484,"1428":5485,"hashingENS":5486,"1143":5487,"1318":5488,"1146":5489,"1448":5490,"Pe":5491,"warn":5492,"Boy":5493,"EPKiPK":5494,"1142":5495,"1338":5496,"1156":5497,"QSlotObjectBaseEN":5498,"SetString":5499,"inplace":5500,"ELNS":5501,"job":5502,"Ġcommand":5503,"1204":5504,"QStringRK":5505,"Ġgu":5506,"HSAIL":5507,"apply":5508,"Clip":5509,"ConnectionTypeEPKiPK":5510,"procEE":5511,"backIJ":5512,"engine":5513,"xmmpd":5514,"1186":5515,"condition":5516,"TropicalWeightTplIf":5517,"Ġxmpp":5518,"1152":5519,"LaserBoy":5520,"strerror":5521,"attach":5522,"1163":5523,"1155":5524,"Regular":5525,"ily":5526,"1169":5527,"EPFv":5528,"Ġgal":5529,"!\"":5530,"Te":5531,"script":5532,"struction":5533,"acommon":5534,"cut":5535,"1201":5536,"jE":5537,"Ġoption":5538,"1458":5539,"Inte":5540,"1181":5541,"sens":5542,"1151":5543,"1330":5544,"MAT":5545,"monomial":5546,"tool":5547,"1185":5548,"hint":5549,"1149":5550,"Ġ22":5551,"union":5552,"DefaultCompactStore":5553,"Method":5554,"2068":5555,"1468":5556,"1328":5557,"100000000":5558,"setTextERK":5559,"1408":5560,"5555555555555555":5561,"FF":5562,"(&":5563,"staticMetaObjectE":5564,"1177":5565,"Partition":5566,"SmartPointer":5567,"Pending":5568,"qualifier":5569,"Ġ29":5570,"ĠPR":5571,"1199":5572,"1202":5573,"streamv":5574,"cert":5575,"1310":5576,"SimpleList":5577,"Ġgr":5578,"1162":5579,"ĠGetLocale":5580,"1171":5581,"1340":5582,"1153":5583,"1183":5584,"builder":5585,"amily":5586,"1157":5587,"Ġ\"'":5588,"ĠTh":5589,"GtkWidget":5590,"1179":5591,"1182":5592,"Ecl":5593,"Camera":5594,"ZplRK":5595,"ummy":5596,"EEEEENS":5597,"NoneStruct":5598,"Width":5599,"1161":5600,"Ġend":5601,"Ġsignal":5602,"cent":5603,"1166":5604,"Ġgsb":5605,"Ġchar":5606,"Ġdet":5607,"reallocateEPvj":5608,"neERKS":5609,"QDomNode":5610,"nPKc":5611,"freeEv":5612,"slist":5613,"Contacts":5614,"1173":5615,"1206":5616,"Ġfail":5617,"1175":5618,"EEEvE":5619,"erb":5620,"sink":5621,"aux":5622,"Allocate":5623,"Hugin":5624,"1167":5625,"ostate":5626,"1207":5627,"Ap":5628,"Auto":5629,"position":5630,"xde":5631,"timeout":5632,"1348":5633,"Prime":5634,"Ġnl":5635,"Ġsignature":5636,"1205":5637,"1203":5638,"Ġtran":5639,"1214":5640,"GLib":5641,"MM":5642,"1165":5643,"Configuration":5644,"1189":5645,"DataPtr":5646,"Brush":5647,"1520":5648,"Over":5649,"1187":5650,"1305":5651,"EEEixERS":5652,"ĠDestroy":5653,"Asn":5654,"asi":5655,"1209":5656,"Ġhd":5657,"Iostate":5658,"EEET":5659,"containerINS":5660,"constantIbLb":5661,"PKci":5662,"EEEN":5663,"2018":5664,"1176":5665,"6613":5666,"Epeck":5667,"meta":5668,"1196":5669,"ox":5670,"1438":5671,"FromID":5672,"licit":5673,"Sort":5674,"Ġcurl":5675,"1172":5676,"Ġnet":5677,"Material":5678,"ena":5679,"1368":5680,"Ġthis":5681,"ĠGetLocaleMessage":5682,"argEj":5683,"ĠGetLocaleMessageFromID":5684,"1193":5685,"memcpy":5686,"functor":5687,"stringE":5688,"ĠValNode":5689,"algebraic":5690,"lector":5691,"stringC":5692,"SmartRef":5693,"Feature":5694,"1254":5695,"NAME":5696,"Ġcm":5697,"ALL":5698,"DefaultES":5699,"mf":5700,"safe":5701,"NodeOf":5702,"Ġstate":5703,"baseEv":5704,"rip":5705,"symbolC":5706,"boolean":5707,"olation":5708,"AllocationOptionEE":5709,"Entity":5710,"LeafNode":5711,"render":5712,"1229":5713,"hand":5714,"cleanup":5715,"1350":5716,"1191":5717,"stringbufIcSt":5718,"Cell":5719,"IPKc":5720,"UID":5721,"Ġobject":5722,"Dom":5723,"QSize":5724,"lengthEv":5725,"ustringC":5726,"Gra":5727,"traitsIcESaIcEEEE":5728,"ncase":5729,"1195":5730,"bn":5731,"1360":5732,"1244":5733,"GLOBUS":5734,"tries":5735,"1216":5736,"pad":5737,"Ġerr":5738,"Ġ\\":5739,"DataILi":5740,"QStatic":5741,"1600":5742,"Logging":5743,"Ġdisplay":5744,"final":5745,"Jo":5746,"Ġio":5747,"video":5748,"ĠQ":5749,"1558":5750,"IvEEEE":5751,"1236":5752,"encode":5753,"2060":5754,"1192":5755,"1223":5756,"1378":5757,"1197":5758,"complex":5759,"assword":5760,"PKciS":5761,"Ġop":5762,"Ġqh":5763,"dire":5764,"DP":5765,"asc":5766,"//":5767,"1418":5768,"moz":5769,"DcmTagKey":5770,"ia":5771,"equals":5772,"contains":5773,"Ġindex":5774,"ctive":5775,"1211":5776,"ublisher":5777,"Db":5778,"QStringDataPtr":5779,"StringDataILi":5780,"QStaticStringDataILi":5781,"1224":5782,"isual":5783,"1470":5784,"1241":5785,"Ġ100":5786,"Ef":5787,"1478":5788,"Utils":5789,"Ġmatch":5790,"1508":5791,"stringD":5792,"site":5793,"Converter":5794,"TH":5795,"1314":5796,"erge":5797,"1266":5798,"verify":5799,"1213":5800,"Ġdb":5801,"Initial":5802,"1221":5803,"Operation":5804,"SO":5805,"ential":5806,"Has":5807,"off":5808,"hook":5809,"cccccccccccccccc":5810,"HuginBase":5811,"eet":5812,"nls":5813,"implEiPNS":5814,"1219":5815,"1398":5816,"1212":5817,"rationalLb":5818,"1217":5819,"rowser":5820,"Conv":5821,"1215":5822,"moveIRN":5823,"1235":5824,"1430":5825,"1255":5826,"istream":5827,"IfEE":5828,"BaseINS":5829,"types":5830,"Ġmaster":5831,"Fmt":5832,"Ġtext":5833,"1231":5834,"1389":5835,"1222":5836,"aq":5837,"Indexed":5838,"1370":5839,"Coded":5840,"1232":5841,"ctrl":5842,"vmov":5843,"ron":5844,"pid":5845,"1239":5846,"traceit":5847,"1480":5848,"reverse":5849,"1390":5850,"ready":5851,"disposeEPNS":5852,"aSEPKc":5853,"pan":5854,"1538":5855,"1226":5856,"EPKciS":5857,"Eigen":5858,"vmovsd":5859,"metadata":5860,"1488":5861,"Ġevent":5862,"Not":5863,"padd":5864,"1233":5865,"1227":5866,"initEPSt":5867,"1243":5868,"nlsat":5869,"1237":5870,"fg":5871,"Progress":5872,"1440":5873,"rpc":5874,"1261":5875,"Split":5876,"calar":5877,"1450":5878,"1380":5879,"Book":5880,"1267":5881,"Exec":5882,"ĠWriteBlob":5883,"Dep":5884,"1284":5885,"conv":5886,"IGHT":5887,"Inst":5888,"sparse":5889,"`%":5890,"Extension":5891,"warf":5892,"1294":5893,"small":5894,"Down":5895,"program":5896,"xad":5897,"uri":5898,"Packet":5899,"Ġfe":5900,"20202020":5901,"stats":5902,"1256":5903,"1264":5904,"1387":5905,"1498":5906,"holder":5907,"1225":5908,"zy":5909,"1253":5910,"vectorIiLb":5911,"1289":5912,"1245":5913,"1274":5914,"1277":5915,"1249":5916,"Ġreport":5917,"QSlotObjectBaseEP":5918,"1247":5919,"1252":5920,"imum":5921,"allocatorISt":5922,"ĠI":5923,"1410":5924,"CA":5925,"nil":5926,"imal":5927,"1257":5928,"1269":5929,"Ġinf":5930,"mpqS":5931,"argument":5932,"ĠStream":5933,"Assert":5934,"mapIN":5935,"QStringED":5936,"1246":5937,"1910":5938,"pblock":5939,"1490":5940,"1304":5941,"Dp":5942,"sf":5943,"1263":5944,"2070":5945,"Ġfont":5946,"trail":5947,"scale":5948,"1242":5949,"ZStL":5950,"iso":5951,"jS":5952,"1283":5953,"wer":5954,"errmsg":5955,"AsciiString":5956,"product":5957,"3000":5958,"power":5959,"xud":5960,"ear":5961,"1265":5962,"Ġalloc":5963,"lc":5964,"1273":5965,"niter":5966,"PKcRKS":5967,"Ġfread":5968,"Ġ\"((":5969,"pk":5970,"1309":5971,"deallocateEv":5972,"strcmp":5973,"xt":5974,"1251":5975,"STRING":5976,"Ġ\"*":5977,"2248":5978,"1420":5979,"RootNodeINS":5980,"Ops":5981,"1282":5982,"ObjectES":5983,"images":5984,"1335":5985,"Warning":5986,"Report":5987,"EpickENS":5988,"XY":5989,"lan":5990,"ERN":5991,"declP":5992,"1518":5993,"1302":5994,"grow":5995,"2088":5996,"Auth":5997,"appEiiP":5998,"Remove":5999,"traitsIcESaIcEEEi":6000,"Growing":6001,"apping":6002,"tig":6003,"1272":6004,"ncasecmp":6005,"master":6006,"QScoped":6007,"nf":6008,"1262":6009,"UP":6010,"aeabi":6011,"-%":6012,"1281":6013,":âĢ¦\"":6014,"1259":6015,"1800":6016,"bderiv":6017,"istics":6018,"eEv":6019,"ĠGC":6020,"1279":6021,"1568":6022,"1285":6023,"PF":6024,"Dy":6025,"baseI":6026,"1286":6027,"pairIKN":6028,"QPixmap":6029,"Program":6030,"FstImplINS":6031,"1303":6032,"fter":6033,"surface":6034,"Ġcur":6035,"QModel":6036,"1312":6037,"1271":6038,"1315":6039,"oice":6040,"Schema":6041,"1275":6042,"PKEY":6043,"aff":6044,"vas":6045,"dht":6046,"Ġdis":6047,"IKN":6048,"Ġdino":6049,"Ġbu":6050,"1287":6051,"tore":6052,"ript":6053,"QKey":6054,"1550":6055,"1394":6056,"1276":6057,"extension":6058,"Render":6059,"Boolean":6060,"Ġboost":6061,"sktop":6062,"helpers":6063,"xfffffffffffffffc":6064,"wxStringS":6065,"Ġ\"$":6066,"precision":6067,"1307":6068,"UE":6069,"1588":6070,"sensor":6071,"scape":6072,"tSt":6073,"linear":6074,"GrowingArray":6075,"SaIh":6076,"1301":6077,"1528":6078,"toggle":6079,"2147":6080,"Ġbn":6081,"screen":6082,"1291":6083,"ĠDCM":6084,"Task":6085,"Ġ32":6086,"olume":6087,"EEEdeEv":6088,"click":6089,"title":6090,"lx":6091,"wd":6092,"croak":6093,"rationalE":6094,"Ġmessage":6095,"datatype":6096,"Ġtra":6097,"2098":6098,"1293":6099,"streambufIcS":6100,"orld":6101,"1540":6102,"Left":6103,"Assertion":6104,"1530":6105,"EjPKP":6106,"1295":6107,"note":6108,"QModelIndex":6109,"typed":6110,"1580":6111,"intrusive":6112,"oder":6113,"pixel":6114,"Ġ%.":6115,"1299":6116,"1510":6117,"1306":6118,"1560":6119,"lush":6120,"binary":6121,"1700":6122,"reat":6123,"Ġdoes":6124,"1406":6125,"wo":6126,"Or":6127,"erce":6128,"eak":6129,"unpck":6130,"1297":6131,"Bra":6132,"EEEEC":6133,"AV":6134,"PKNS":6135,"tbb":6136,"1326":6137,"description":6138,"Ġ*)":6139,"toa":6140,"SER":6141,"Ġare":6142,"1331":6143,"ifIXsr":6144,"Pattern":6145,"justification":6146,"1564":6147,"EvENKUlvE":6148,"Ġstream":6149,"xab":6150,"ictionary":6151,"STA":6152,"QDBusPending":6153,"1345":6154,"xae":6155,"xffffffe":6156,"Sk":6157,"infra":6158,"Ġge":6159,"Ġsub":6160,"2080":6161,"ther":6162,"Ġret":6163,"Url":6164,"PKw":6165,"Visitor":6166,"LNS":6167,"andpd":6168,"Ġ17":6169,"printer":6170,"Publisher":6171,"Ġatoi":6172,"Transfer":6173,"ates":6174,"Ġmax":6175,"iterIN":6176,"1860":6177,"traitsEE":6178,"cons":6179,"iteratorIN":6180,"Archive":6181,"Ġsock":6182,"infrastructure":6183,"QTextStreamlsERK":6184,"1313":6185,"1548":6186,"1292":6187,"1321":6188,"1336":6189,"Ġheader":6190,"Osi":6191,"usedEv":6192,"xbe":6193,"clearESt":6194,"Ġpack":6195,"Go":6196,"numbers":6197,"infrastructureINS":6198,"1578":6199,"2240":6200,"Ġ34":6201,"Params":6202,"Ġcups":6203,"QForm":6204,"policyENS":6205,"1344":6206,"Bool":6207,"1334":6208,"1311":6209,"sched":6210,"Tile":6211,"1401":6212,"Deleter":6213,"metac":6214,"vm":6215,"ĠajList":6216,"EPT":6217,"SetError":6218,"keyEPKSt":6219,"rink":6220,"Ġ19":6221,"step":6222,"INE":6223,"MT":6224,"1327":6225,"weight":6226,"1323":6227,"Ġgetenv":6228,"1296":6229,"1316":6230,"lation":6231,"guage":6232,"1324":6233,"Ġ40":6234,"ĠLept":6235,"strl":6236,"qualified":6237,"xio":6238,"MsgSeverity":6239,"ĠLeptMsgSeverity":6240,"1337":6241,"1342":6242,"Per":6243,"1339":6244,"QComboBox":6245,"1356":6246,"Ġmode":6247,"1319":6248,"idx":6249,"Ġempty":6250,"Send":6251,"na":6252,"Ġ21":6253,"1346":6254,"StateINS":6255,"80000":6256,"1658":6257,"debugEv":6258,"fetch":6259,"sb":6260,"1417":6261,"Libderiv":6262,"xbb":6263,"mozc":6264,"QByteArrayD":6265,"1403":6266,"1329":6267,"1359":6268,"4010000000000000":6269,"EG":6270,"clone":6271,"osition":6272,"WidgetItem":6273,"IZN":6274,"Move":6275,"QWidgeti":6276,"plot":6277,"Release":6278,"builtin":6279,"1322":6280,"Quant":6281,"Ġ#":6282,"1325":6283,"intl":6284,"1332":6285,"2008":6286,"serv":6287,"cursor":6288,"sER":6289,"band":6290,"Ġver":6291,"1317":6292,"Ġ[%":6293,"1333":6294,"Digest":6295,"gon":6296,"1970":6297,"prite":6298,"bject":6299,"Mark":6300,"1341":6301,"1354":6302,"KEY":6303,"ASSA":6304,"1347":6305,"1628":6306,"Contig":6307,"eda":6308,"rosk":6309,"Coun":6310,"1404":6311,"1618":6312,"1343":6313,"toIS":6314,"rflags":6315,"exprE":6316,"OutputArray":6317,"Ġrflags":6318,"KContacts":6319,"iterato":6320,"UnicodeString":6321,"Stats":6322,"1374":6323,"IKS":6324,"backtrace":6325,"psort":6326,"Pop":6327,"KS":6328,"Area":6329,"lessIiESaIS":6330,"response":6331,"Ġcity":6332,"AY":6333,"genera":6334,"lip":6335,"1402":6336,"1364":6337,"Pano":6338,"Last":6339,"arge":6340,"1608":6341,"EixEi":6342,"rsa":6343,"yin":6344,"1900":6345,"1349":6346,"lict":6347,"Ġguard":6348,"1598":6349,"Ġcopy":6350,"vb":6351,"1379":6352,"aaaaaaaa":6353,"refs":6354,"100000":6355,"sitive":6356,"Ġdefault":6357,"QListIPN":6358,"releaseEv":6359,"ZlsRSoRK":6360,"Raw":6361,"globus":6362,"ren":6363,"evalu":6364,"1570":6365,"encrypt":6366,"ZSteqIcSt":6367,"1353":6368,"1357":6369,"1668":6370,"1414":6371,"1590":6372,"Ġhandle":6373,"1351":6374,"application":6375,"1366":6376,"Latin":6377,"1384":6378,"ExceptionD":6379,"Functor":6380,"1355":6381,"Ġstart":6382,"1385":6383,"1367":6384,"1638":6385,"Lin":6386,"Ġfflush":6387,"imation":6388,"CL":6389,"libc":6390,"1363":6391,"1381":6392,"ses":6393,"2618":6394,"Conversion":6395,"Fail":6396,"1361":6397,"1691":6398,"MemGet":6399,"1382":6400,"mempd":6401,"AG":6402,"Work":6403,"Constrained":6404,"rot":6405,"auchy":6406,"FA":6407,"1372":6408,"Mutex":6409,"rdeEv":6410,"btVector":6411,"gm":6412,"ixEm":6413,"1554":6414,"1383":6415,"LogWeightTplIf":6416,"modules":6417,"ide":6418,"account":6419,"ĠCan":6420,"MAC":6421,"1352":6422,"1365":6423,"IRS":6424,"EEPKcRKS":6425,"eqE":6426,"xaf":6427,"1484":6428,"operation":6429,"checked":6430,"inger":6431,"1648":6432,"His":6433,"medi":6434,"Ġserver":6435,"ascii":6436,"1369":6437,"1393":6438,"inner":6439,"den":6440,"BUG":6441,"1377":6442,"IdLi":6443,"ĠThrow":6444,"1386":6445,"TopLoc":6446,"Ġmake":6447,"1375":6448,"short":6449,"uninitialized":6450,"vectorIiSaIi":6451,"WindowTypeEE":6452,"1694":6453,"2090":6454,"chain":6455,"Light":6456,"Defined":6457,"ESaISA":6458,"ĠAl":6459,"GridLayout":6460,"scm":6461,"Ġ38":6462,"mup":6463,"IPP":6464,"sample":6465,"1362":6466,"Response":6467,"Provider":6468,"1409":6469,"XT":6470,"Ġreading":6471,"1434":6472,"1435":6473,"EEOT":6474,"htex":6475,"trEPKcS":6476,"1373":6477,"Ori":6478,"Nping":6479,"coder":6480,"1407":6481,"Ġ31":6482,"1620":6483,"bio":6484,"1630":6485,"calloc":6486,"1371":6487,"tim":6488,"svectorIjj":6489,"zp":6490,"gf":6491,"ĠSy":6492,"inplaceIN":6493,"1391":6494,"Kernel":6495,"2010":6496,"mgr":6497,"Tex":6498,"QGridLayout":6499,"1454":6500,"1424":6501,"modi":6502,"acc":6503,"Cauchy":6504,"ressed":6505,"Ġbcom":6506,"IddE":6507,"Matcher":6508,"ission":6509,"Ġipmi":6510,"ww":6511,"apter":6512,"4836":6513,"QDateTime":6514,"Ġallocate":6515,"fre":6516,"Ġfget":6517,"ived":6518,"orith":6519,"resolver":6520,"QTerm":6521,"Probe":6522,"QFont":6523,"1411":6524,"Explicit":6525,"vectorIiSaIiEE":6526,"entation":6527,"1505":6528,"1610":6529,"Cap":6530,"IdEENS":6531,"1376":6532,"Ġlength":6533,"EPc":6534,"aes":6535,"dm":6536,"QVectorI":6537,"counter":6538,"1485":6539,"IPNS":6540,"family":6541,"',":6542,"bla":6543,"1441":6544,"1395":6545,"Ġmain":6546,"1412":6547,"mesh":6548,"LIST":6549,"FQTerm":6550,"timer":6551,"Single":6552,"1392":6553,"subst":6554,"1396":6555,"1426":6556,"1466":6557,"ffffffffffffffe":6558,"sra":6559,"LoggingCategory":6560,"Construct":6561,"Ġtile":6562,"traitsILb":6563,"Cast":6564,"Ġ{":6565,"peg":6566,"1688":6567,"Ġ36":6568,"roska":6569,"1419":6570,"accept":6571,"sible":6572,"Export":6573,"ZNSolsEj":6574,"avix":6575,"4240":6576,"Ġtable":6577,"ercesc":6578,"1416":6579,"Timer":6580,"EjEC":6581,"40000":6582,"Singleton":6583,"CacheStore":6584,"1698":6585,"gene":6586,"rwlock":6587,"olynomial":6588,"sheet":6589,"1421":6590,"2628":6591,"1397":6592,"treeI":6593,"1399":6594,"1444":6595,"chars":6596,"play":6597,"1431":6598,"IKNS":6599,"KConfigGroup":6600,"EEbT":6601,"Double":6602,"ĠReadBlob":6603,"1494":6604,"IjEE":6605,"IfE":6606,"Et":6607,"Console":6608,"Comm":6609,"Notify":6610,"Ġuser":6611,"1415":6612,"1459":6613,"Ġlast":6614,"baseC":6615,"refD":6616,"irc":6617,"ixEi":6618,"none":6619,"orter":6620,"fastFreeEPv":6621,"packus":6622,"Violation":6623,"ModeE":6624,"1796":6625,"blahtex":6626,"ĠajFmt":6627,"rsistent":6628,"exprSt":6629,"1868":6630,"side":6631,"TypeEv":6632,"1507":6633,"cdr":6634,"assi":6635,"ycle":6636,"inv":6637,"Look":6638,"GetLevel":6639,"licate":6640,"1429":6641,"IPv":6642,"1678":6643,"ErrorCode":6644,"Boole":6645,"vectorIdSa":6646,"1640":6647,"Ġ50":6648,"1858":6649,"instanceE":6650,"audio":6651,"1423":6652,"1797":6653,"ARN":6654,"Binary":6655,"Ġhdrl":6656,"Ġplayer":6657,"Ġbg":6658,"1437":6659,"EENK":6660,"1464":6661,"sockaddr":6662,"1425":6663,"1413":6664,"Openmode":6665,"Ġ33":6666,"Ġflag":6667,"gree":6668,"eno":6669,"Explo":6670,"fference":6671,"localeD":6672,"hashEv":6673,"iod":6674,"Section":6675,"GAPI":6676,"legal":6677,"ĠAB":6678,"1680":6679,"Kon":6680,"quare":6681,"1445":6682,"iteratorneERKS":6683,"ĠOBJ":6684,"geom":6685,"1000000":6686,"runtimecheck":6687,"QMapNodeBase":6688,"1670":6689,"Insert":6690,"insertIJRKS":6691,"://":6692,"1808":6693,"xercesc":6694,"1650":6695,"QGraphics":6696,"DU":6697,"1442":6698,"Kate":6699,"EvT":6700,"pLERKS":6701,"mpzzp":6702,"dap":6703,"sptr":6704,"countEv":6705,"1502":6706,"rieve":6707,"1745":6708,"1422":6709,"Interval":6710,"1455":6711,"ISA":6712,"1446":6713,"EEEEb":6714,"QKeySequence":6715,"1504":6716,"1474":6717,"1509":6718,"StringE":6719,"virtual":6720,"iting":6721,"1427":6722,"hex":6723,"descrs":6724,"Ġctf":6725,"1449":6726,"Modi":6727,"shift":6728,"Ġconfig":6729,"1660":6730,"xee":6731,"ATE":6732,"1452":6733,"Merge":6734,"1439":6735,"1436":6736,"Ġli":6737,"Custom":6738,"bEv":6739,"ZStne":6740,"06":6741,"1469":6742,"voke":6743,"1432":6744,"files":6745,"Davix":6746,"1443":6747,"Ġcache":6748,"Ġorc":6749,"shrink":6750,"Ġlink":6751,"1453":6752,"1451":6753,"Ġbut":6754,"Ġhash":6755,"EmptyEv":6756,"QtMetaType":6757,"QtMetaTypePrivate":6758,"VE":6759,"forwardISt":6760,"Ax":6761,"reak":6762,"ĠMagickFree":6763,"1462":6764,"RES":6765,"ZZL":6766,"GetUn":6767,"Fix":6768,"combo":6769,"lowed":6770,"Ġcannot":6771,"1433":6772,"gs":6773,"1463":6774,"1908":6775,"Ġsys":6776,"====":6777,"ram":6778,"findERS":6779,"1503":6780,"Cbc":6781,"1477":6782,"UB":6783,"Ġsin":6784,"lsERK":6785,"1479":6786,"1456":6787,"RefPtr":6788,"busb":6789,"ĠSeqLoc":6790,"trib":6791,"Mol":6792,"Ġunit":6793,"1457":6794,"ListOfShape":6795,"tcp":6796,"Ġcol":6797,"EMNS":6798,"DC":6799,"Ġ35":6800,"QXml":6801,"KCalendar":6802,"1524":6803,"1501":6804,"Constraint":6805,"xef":6806,"resource":6807,"1481":6808,"1461":6809,"Ġstrncasecmp":6810,"GAPState":6811,"1465":6812,"ecl":6813,"AsVal":6814,"Ġlo":6815,"Ġblock":6816,"1447":6817,"strcasecmp":6818,"KCalendarCore":6819,"Bad":6820,"FlagEEC":6821,"xba":6822,"Syntax":6823,"astyle":6824,"orithm":6825,"forced":6826,"insertId":6827,"trackable":6828,"dim":6829,"FIL":6830,"1482":6831,"1878":6832,"DATA":6833,"Eval":6834,"treeIP":6835,"upolynomial":6836,"Counter":6837,"now":6838,"structor":6839,"ermin":6840,"osity":6841,"Binding":6842,"1506":6843,"IPPN":6844,"1838":6845,"dt":6846,"1574":6847,"External":6848,"iteratordeEv":6849,"ListOf":6850,"compute":6851,"iE":6852,"insertIdEERSoT":6853,"Malloc":6854,"sEP":6855,"EBuffer":6856,"1473":6857,"Resume":6858,"fw":6859,"1483":6860,"argsEv":6861,"Ġ37":6862,"1690":6863,"1708":6864,"FormatString":6865,"1870":6866,"eps":6867,"Propag":6868,"phab":6869,"Ġcal":6870,"instanceEv":6871,"Ġ>,":6872,"QPointF":6873,"Ġseq":6874,"kernel":6875,"xca":6876,"1467":6877,"1738":6878,"Particle":6879,"oss":6880,"esi":6881,"Ġplugin":6882,"nsupported":6883,"mall":6884,"su":6885,"intern":6886,"ValueEv":6887,"1840":6888,"EERKNS":6889,"1848":6890,"treeIiSt":6891,"qi":6892,"1730":6893,"Ġsocket":6894,"1880":6895,"1496":6896,"Triangle":6897,"xcf":6898,"1495":6899,"rive":6900,"letion":6901,"cold":6902,"Sec":6903,"1493":6904,"verti":6905,"ntl":6906,"1471":6907,"1472":6908,"1486":6909,"1974":6910,"1475":6911,"SS":6912,"polynomialENS":6913,"CoreConfig":6914,"1489":6915,"wh":6916,"1476":6917,"CoreConfigSkeleton":6918,"2638":6919,"cor":6920,"layout":6921,"hh":6922,"ĠU":6923,"Php":6924,"PKCS":6925,"Bound":6926,"KCoreConfigSkeleton":6927,"frameELb":6928,"endlIcSt":6929,"Ebb":6930,"rece":6931,"cups":6932,"1818":6933,"1499":6934,"vels":6935,"1718":6936,"1497":6937,"PrivateEi":6938,"aded":6939,"tification":6940,"1525":6941,"ĠY":6942,"1898":6943,"Ġ39":6944,"1710":6945,"gro":6946,"bed":6947,"1514":6948,"Direction":6949,"cr":6950,"baseISt":6951,"ĠajFmtPrint":6952,"Ġjson":6953,"manag":6954,"alance":6955,"exprP":6956,"20000000":6957,"2019":6958,"tests":6959,"NextEv":6960,"matroska":6961,"IPKN":6962,"cannot":6963,"QDomElement":6964,"lom":6965,"1830":6966,"codec":6967,"Put":6968,"pB":6969,"&,":6970,"Ġ42":6971,"ĠĠĠĠĠĠĠ":6972,"Gst":6973,"1820":6974,"poll":6975,"mulps":6976,"1517":6977,"hdrl":6978,"Signal":6979,"1516":6980,"Ġsec":6981,"way":6982,"Push":6983,"1487":6984,"xcb":6985,"Ġssl":6986,"1533":6987,"1492":6988,"1512":6989,"1534":6990,"1728":6991,"1754":6992,"1536":6993,"1529":6994,"cho":6995,"1770":6996,"uch":6997,"post":6998,"1513":6999,"1491":7000,"QXmlStream":7001,"QGS":7002,"1527":7003,"1544":7004,"1850":7005,"1526":7006,"ldap":7007,"stISA":7008,"1646":7009,"definition":7010,"Definition":7011,"pret":7012,"1760":7013,"traitsIcESaIcEEENS":7014,"1768":7015,"1515":7016,"ade":7017,"pay":7018,"calc":7019,"Ġvalid":7020,"1519":7021,"Ġ60":7022,"IndexSet":7023,"1720":7024,"vance":7025,"Ġ48":7026,"mmdb":7027,"psrl":7028,"scr":7029,"EPKN":7030,"Ġbase":7031,"QCP":7032,"Ġelf":7033,"123456":7034,"1521":7035,"ERKi":7036,"Unwind":7037,"formation":7038,"daeSmartRef":7039,"commands":7040,"Ġ\"%*":7041,"1549":7042,"AssignEPK":7043,"1798":7044,"ARNING":7045,"IJEEEE":7046,"1522":7047,"1511":7048,"stESt":7049,"Gl":7050,"objectPKc":7051,"hs":7052,"Sprite":7053,"Protocol":7054,"Holder":7055,"1531":7056,"QtCurve":7057,"2100":7058,"traitsIcESaIcEEEP":7059,"DenseIndexSet":7060,"1523":7061,"resolve":7062,"1532":7063,"entryIN":7064,"1537":7065,"connectEPKS":7066,"pcm":7067,"Ġacb":7068,"cvR":7069,"Mutable":7070,"ĠGB":7071,"1928":7072,"1930":7073,"shrinkEj":7074,"Ġ41":7075,"vars":7076,"ility":7077,"1543":7078,"ValueAccessor":7079,"upt":7080,"1890":7081,"*)":7082,"Ġxmalloc":7083,"exceptionC":7084,"1980":7085,"DefaultCompactStoreISt":7086,"EEaSERKS":7087,"1616":7088,"</":7089,"Ġmsg":7090,"-\"":7091,"KGAPI":7092,"aig":7093,"pairIN":7094,"Ġ43":7095,"Buf":7096,"Ġgfarm":7097,"1778":7098,"Limit":7099,"traitsIcESaIcEEaSEOS":7100,"Ġ44":7101,"1546":7102,"1584":7103,"1547":7104,"1559":7105,"errarg":7106,"1539":7107,"ranch":7108,"loor":7109,"peer":7110,"UErrorCode":7111,"strcpy":7112,"Ġ45":7113,"Ġ\"__":7114,"FOR":7115,"DpT":7116,"1748":7117,"1561":7118,"special":7119,"Directory":7120,"1545":7121,"phabet":7122,"ified":7123,"icator":7124,"Ġbytes":7125,"Ġope":7126,"ĠĠĠĠĠĠĠĠĠĠĠĠĠĠĠĠ":7127,"Ri":7128,"ewing":7129,"NULL":7130,"Red":7131,"EEEvP":7132,"1990":7133,"rationalNS":7134,"Ver":7135,"Types":7136,"xdd":7137,"Scroll":7138,"1535":7139,"1788":7140,"VectorArray":7141,"Ġsig":7142,"Pixels":7143,"member":7144,"DataStream":7145,"1552":7146,"1602":7147,"indexed":7148,"ond":7149,"1557":7150,"streamIcSt":7151,"expect":7152,"istr":7153,"SharedData":7154,"Dim":7155,"1938":7156,"puts":7157,"Ġamp":7158,"Seek":7159,"Ġgp":7160,"1556":7161,"strcat":7162,"ECTOR":7163,"1627":7164,"midas":7165,"exist":7166,"Konsole":7167,"1542":7168,"Ġne":7169,"backIJS":7170,"Elements":7171,"mc":7172,"1551":7173,"1553":7174,"Equal":7175,"1998":7176,"Ġnext":7177,"1888":7178,"APP":7179,"1587":7180,"1634":7181,"1555":7182,"1810":7183,"allocv":7184,"100000001":7185,"1624":7186,"1562":7187,"Ġvi":7188,"Ġinternal":7189,"4000000000000000":7190,"GA":7191,"1572":7192,"Gdk":7193,"1563":7194,"1566":7195,"Gio":7196,"1828":7197,"IPSt":7198,"1541":7199,"Ġrequest":7200,"1604":7201,"1594":7202,"entryIj":7203,"1758":7204,"urnal":7205,"ERT":7206,"1575":7207,"1672":7208,"OBMol":7209,"Ġdevice":7210,"1609":7211,"1567":7212,"\"\"":7213,"Ġabi":7214,"LogLevel":7215,"1606":7216,"Ġnode":7217,"ware":7218,"ValueEi":7219,"1565":7220,"1605":7221,"Parted":7222,"iteratorppEv":7223,"appendEPKc":7224,"car":7225,"Ġprocess":7226,"Arena":7227,"1978":7228,"ĠajStrDel":7229,"Ġpre":7230,"1968":7231,"cln":7232,"constructIS":7233,"1601":7234,"cvbEv":7235,"rat":7236,"levels":7237,"Jack":7238,"Return":7239,"1569":7240,"Ġhave":7241,"Audio":7242,"vectorEv":7243,"VT":7244,"exact":7245,"ignition":7246,"rnt":7247,"Ġdire":7248,"SaIT":7249,"Ġflames":7250,"Explicitly":7251,"ensor":7252,"Ġpow":7253,"1571":7254,"LibMatrix":7255,"TN":7256,"1740":7257,"vers":7258,"partition":7259,"btAligned":7260,"SHOT":7261,"2270":7262,"Final":7263,"Theme":7264,"1579":7265,"1576":7266,"CoreApplication":7267,"TropicalWeightTpl":7268,"1920":7269,"async":7270,"propagate":7271,"perm":7272,"simplex":7273,"backends":7274,"1586":7275,"QDialog":7276,"GParted":7277,"unct":7278,"1591":7279,"1595":7280,"srai":7281,"vectorIb":7282,"ĠPyExc":7283,"1780":7284,"sINS":7285,"utor":7286,"1918":7287,"provider":7288,"]:":7289,"1950":7290,"traitsIcESaIcEEEb":7291,"dense":7292,"1940":7293,"1649":7294,"logy":7295,"invoke":7296,"DBC":7297,"1589":7298,"Ġbit":7299,"MatD":7300,"ltRK":7301,"owner":7302,"Score":7303,"LogWeightTplId":7304,"DefaultCacheStore":7305,"FTP":7306,"shell":7307,"QExplicitly":7308,"QExplicitlySharedData":7309,"Ġipatch":7310,"1573":7311,"2001":7312,"Ġ64":7313,"2108":7314,"1603":7315,"typeEv":7316,"Ġbgav":7317,"1750":7318,"1582":7319,"1599":7320,"enodeES":7321,"QJson":7322,"1614":7323,"Ġ47":7324,"1577":7325,"1583":7326,"wrong":7327,"pw":7328,"LAGS":7329,"1958":7330,"itg":7331,"isEnabled":7332,"sEi":7333,"Fill":7334,"basis":7335,"typeERS":7336,"1622":7337,"Show":7338,"fcc":7339,"ZltRK":7340,"Ġcode":7341,"uniqueIJ":7342,"Feed":7343,"1654":7344,"Ġ46":7345,"1597":7346,"content":7347,"1625":7348,"1656":7349,"digest":7350,"ISB":7351,"ACKET":7352,"1960":7353,"AllocateEm":7354,"Ġdump":7355,"clicked":7356,"Meas":7357,"1581":7358,"1607":7359,"CommandSource":7360,"GrowingArrayBase":7361,"RP":7362,"1585":7363,"&)":7364,"1626":7365,"jmp":7366,"1621":7367,"1790":7368,"GET":7369,"bufferISt":7370,"Ġinitial":7371,";\"":7372,"wj":7373,"NodeMask":7374,"1593":7375,"123456789":7376,"ĠDestroyImage":7377,"reply":7378,"Pj":7379,"reallocateEPvm":7380,"Ob":7381,"xce":7382,"2118":7383,"MagickEvent":7384,"olid":7385,"1645":7386,"1596":7387,"Imf":7388,"Glom":7389,"ĠLogMagickEvent":7390,"reader":7391,"volume":7392,"1592":7393,"gloox":7394,"1636":7395,"1623":7396,"LineEdit":7397,"EjELb":7398,"pulse":7399,"ccur":7400,"ener":7401,"SV":7402,"99999999999999":7403,"1617":7404,"BasicImageIterator":7405,"1619":7406,"EEEES":7407,"entic":7408,"Order":7409,"1611":7410,"descriptor":7411,"lsERSo":7412,"Ġ54":7413,"QAbstractItem":7414,"1632":7415,"QLoggingCategory":7416,"atures":7417,"1631":7418,"GIm":7419,"GImAllocator":7420,"Ġcfg":7421,"bigint":7422,"rationalaSERKS":7423,"1639":7424,"1657":7425,"IdLj":7426,"multiprecision":7427,"managerEv":7428,"Ġpath":7429,"js":7430,"2138":7431,"Ġglp":7432,"1615":7433,"_::":7434,"xcd":7435,"1642":7436,"Play":7437,"posi":7438,"alpha":7439,"Fetch":7440,"Ġsymbol":7441,"packets":7442,"1612":7443,"inary":7444,"Ejjj":7445,"EjP":7446,"iteratorIPKc":7447,"vectorIf":7448,"scope":7449,"gml":7450,"1652":7451,"serializer":7452,"lide":7453,"wf":7454,"0123456789":7455,"Ġcolor":7456,"QStringaSERKS":7457,"1666":7458,"umns":7459,"IDi":7460,"ValueE":7461,"1674":7462,"Ġbh":7463,"va":7464,"PKT":7465,"wxEvent":7466,"identity":7467,"1644":7468,"1664":7469,"logERKNS":7470,"day":7471,"laration":7472,"generate":7473,"Ġexec":7474,"Post":7475,"1637":7476,"FvvENS":7477,"Ġsupported":7478,"iPKcz":7479,"QCoreApplication":7480,"1629":7481,"widenEc":7482,"1633":7483,"ĠMain":7484,"nwEm":7485,"Setting":7486,"1613":7487,"extra":7488,"facet":7489,"EEEixEOS":7490,"noreturn":7491,"ossB":7492,"LoggerEiRK":7493,"OFStringPKciS":7494,"nly":7495,"1647":7496,"Ġsafe":7497,"Animation":7498,"ForEi":7499,"istry":7500,"Title":7501,"anti":7502,"plugins":7503,"1988":7504,"Ġtag":7505,"1734":7506,"vectorIfSa":7507,"PoolAllocator":7508,"Spline":7509,"1651":7510,"2054":7511,"1643":7512,"QFormInternal":7513,"xed":7514,"2064":7515,"Ġder":7516,"optionE":7517,"Ġ49":7518,"Ġ57":7519,"****":7520,"2200":7521,"1669":7522,"FunctionPointer":7523,"Ġ56":7524,"1653":7525,"Renderer":7526,"cP":7527,"URL":7528,"ineq":7529,"lean":7530,"EEEEbRKNS":7531,"1667":7532,"ece":7533,"Ġ51":7534,"zalloc":7535,"spe":7536,"spi":7537,"Unpack":7538,"Shader":7539,"intervalE":7540,"ĠFailed":7541,"Cmd":7542,"1659":7543,"verbosity":7544,"Visual":7545,"1655":7546,"entries":7547,"directory":7548,"ABC":7549,"RO":7550,"Ġai":7551,"phy":7552,"Ġgn":7553,"1687":7554,"2170":7555,"CommandLineOption":7556,"isEnabledForEi":7557,"1635":7558,"dig":7559,"pyx":7560,"2558":7561,"2158":7562,"Lazy":7563,"IME":7564,"1641":7565,"ircle":7566,"Ġ52":7567,"2464":7568,"wxWindow":7569,"QDir":7570,"1662":7571,"QIconD":7572,"Backend":7573,"propertylist":7574,"1663":7575,"Ġstrtok":7576,"Ġ55":7577,"Wh":7578,"QStringN":7579,"1676":7580,"Ass":7581,"NC":7582,"2150":7583,"Ġgrpr":7584,"1681":7585,"refEP":7586,"Metadata":7587,"anguage":7588,"1679":7589,"Bio":7590,"pairIPSt":7591,"vectIN":7592,"QTypedArrayDataIN":7593,"Dictionary":7594,"Bags":7595,"1701":7596,"mpqEE":7597,"TreeINS":7598,"1684":7599,"clip":7600,"ahead":7601,"LN":7602,"Ġurdf":7603,"avig":7604,"reallocData":7605,"Ġarchive":7606,"ĠGImGui":7607,"Explorer":7608,"WARNING":7609,"KIO":7610,"/\"":7611,"RegExp":7612,"10000000":7613,"rtp":7614,"asio":7615,"1689":7616,"TDF":7617,"2120":7618,"ric":7619,"Ġtds":7620,"1702":7621,"sensitive":7622,"numberINS":7623,"1699":7624,"Ġ%-":7625,"managerRK":7626,"2280":7627,"77777777":7628,"Rule":7629,"XMLNode":7630,"ATION":7631,"WR":7632,"mpfEE":7633,"Note":7634,"Ġite":7635,"Ġlong":7636,"tensa":7637,"OpenGl":7638,"Monitor":7639,"2110":7640,"clEP":7641,"traitsIcESaIcEEaSEPKc":7642,"QBrush":7643,"bitmap":7644,"encoding":7645,"acng":7646,"TopExp":7647,"asso":7648,"ĠPro":7649,"Height":7650,"Ġ53":7651,"ĠIs":7652,"mpffEE":7653,"1706":7654,"quired":7655,"Layer":7656,"mpfxEE":7657,"rationalELNS":7658,"Ġrtnl":7659,"GExt":7660,"1000000000":7661,"1675":7662,"Ġens":7663,"Ġ$.":7664,"nameEv":7665,"Role":7666,"NullEv":7667,"This":7668,"QFileInfo":7669,"Concat":7670,"2128":7671,"CONF":7672,"Ġ255":7673,"project":7674,"World":7675,"difference":7676,"bucket":7677,"1686":7678,"HE":7679,"kml":7680,"Ġ58":7681,"QSql":7682,"1696":7683,"1661":7684,"bounds":7685,"leng":7686,"1717":7687,"1683":7688,"whi":7689,"Chewing":7690,"hwfEE":7691,"symbolP":7692,"2148":7693,"ESaISB":7694,"XYZ":7695,"ks":7696,"Ġonly":7697,"2130":7698,"eqERKS":7699,"ason":7700,"1673":7701,"1682":7702,"1705":7703,"1695":7704,"Sep":7705,"degree":7706,"reloc":7707,"2278":7708,"balance":7709,"Ġmissing":7710,"compiler":7711,"2180":7712,"valueEv":7713,"ins":7714,"pixbuf":7715,"ELm":7716,"1704":7717,"1707":7718,"aton":7719,"validate":7720,"1727":7721,"2268":7722,"ASTRefCount":7723,"EEm":7724,"EvPT":7725,"Ġstrtod":7726,"1692":7727,"TypeC":7728,"2002":7729,"autom":7730,"Ġclient":7731,"2178":7732,"lle":7733,"hdr":7734,"ssg":7735,"Depth":7736,"Iii":7737,"Ġdup":7738,"fromLatin":7739,"Description":7740,"xda":7741,"evaluator":7742,"2044":7743,"acity":7744,"lat":7745,"Dummy":7746,"visible":7747,"1671":7748,"uration":7749,"ority":7750,"Ġ59":7751,"SERVER":7752,"ABCDEF":7753,"Ġle":7754,"1747":7755,"protocol":7756,"2648":7757,"ESS":7758,"restore":7759,"ArcINS":7760,"1665":7761,"EEEppEv":7762,"ĠTe":7763,"1746":7764,"PO":7765,"idEvE":7766,"2190":7767,"CodedEntry":7768,"movemask":7769,"2168":7770,"1685":7771,"1693":7772,"Ġpcap":7773,"2678":7774,"elem":7775,"1722":7776,"Ġmail":7777,"666666":7778,"factory":7779,"OutOf":7780,"Ġgenhash":7781,"ArrayINS":7782,"Org":7783,"1714":7784,"glp":7785,"mag":7786,"1703":7787,"desktop":7788,"pinyin":7789,"stringESt":7790,"Choice":7791,"Cut":7792,"Ġflags":7793,"Heap":7794,"1709":7795,"Ġcos":7796,"pri":7797,"Ġxn":7798,"1712":7799,"area":7800,"crypt":7801,"1677":7802,"IPS":7803,"objectPPvP":7804,"decljPKP":7805,"1864":7806,"indent":7807,"infoiPi":7808,"bpp":7809,"nome":7810,"etime":7811,"bby":7812,"ConvertPtrAndOwnP":7813,"rig":7814,"GEN":7815,"hugin":7816,"4028":7817,"QX":7818,"Shadow":7819,"EiRKNSt":7820,"Parameters":7821,"1724":7822,"ensible":7823,"nid":7824,"QPair":7825,"misc":7826,"literalES":7827,"Ġ\"&":7828,"Ui":7829,"xfffff":7830,"Done":7831,"ĠMagickX":7832,"2004":7833,"EEEESaIS":7834,"loud":7835,"@@":7836,"parray":7837,"1744":7838,"fx":7839,"DEBUG":7840,"ObjectC":7841,"1719":7842,"1711":7843,"ication":7844,"centre":7845,"2228":7846,"zsolve":7847,"gss":7848,"lap":7849,"psu":7850,"ecode":7851,"Attr":7852,"Ġintlog":7853,"scanner":7854,"2220":7855,"1697":7856,"1787":7857,"RA":7858,"kit":7859,"1726":7860,"pcre":7861,"1715":7862,"1737":7863,"ODBC":7864,"iP":7865,"ioinit":7866,"ĠluaL":7867,"traitsIwESaIwEEC":7868,"MDB":7869,"1725":7870,"Distance":7871,"Ġfir":7872,"1874":7873,"bank":7874,"ĠPrint":7875,"KNS":7876,"adc":7877,"udd":7878,"EEEEEEENS":7879,"xbd":7880,"Ġhttp":7881,"rbt":7882,"itution":7883,"1814":7884,"alf":7885,"available":7886,"2400":7887,"Ġwindow":7888,"1716":7889,"4097":7890,">%":7891,"SK":7892,"2140":7893,"STAT":7894,"reshold":7895,"gfs":7896,"Ġframe":7897,"psubusb":7898,"baseILN":7899,"EvENK":7900,"ERKj":7901,"1721":7902,"1921":7903,"lia":7904,"1739":7905,"Graphic":7906,"Compose":7907,"ERKSaIcE":7908,"caps":7909,"1742":7910,"Ġremove":7911,"1733":7912,"sets":7913,"Ġhost":7914,"FIN":7915,"Ġfailure":7916,"1713":7917,"innerFunction":7918,"cy":7919,"OfInteger":7920,"Ġbpf":7921,"Rece":7922,"2668":7923,"Sensor":7924,"ube":7925,"Alg":7926,"OG":7927,"ĠAsnReadId":7928,"Ġnon":7929,"1749":7930,"Persistent":7931,"flagEP":7932,"xffffffea":7933,"ĠAc":7934,"NodeMaskILj":7935,"ffe":7936,"Operand":7937,"General":7938,"attributes":7939,"PDF":7940,"culate":7941,"Ġ\"</":7942,"ItemE":7943,"helperEv":7944,"rdl":7945,"total":7946,"StringLen":7947,"Viewer":7948,"kindS":7949,"2688":7950,"2238":7951,"EPKv":7952,"1869":7953,"dv":7954,"END":7955,"DefaultCompactorINS":7956,"2074":7957,"agno":7958,"1804":7959,"xffffffffffffff":7960,"200000":7961,"1723":7962,"Extensible":7963,"matrixI":7964,"1729":7965,"xdb":7966,"Wire":7967,"Acti":7968,"2014":7969,"RefPtrIN":7970,"bac":7971,"EnabledEb":7972,"zstring":7973,"1774":7974,"tps":7975,"EEEED":7976,"supported":7977,"centreon":7978,"1743":7979,"1784":7980,"ostringstream":7981,"1731":7982,"2347":7983,"togram":7984,"substr":7985,"Generator":7986,"database":7987,"MN":7988,"treeIjSt":7989,"1736":7990,"1732":7991,"Ġmachine":7992,"MB":7993,"ĠMC":7994,"Ġpng":7995,"Formatting":7996,"xmpp":7997,"SET":7998,"READ":7999,"slice":8000,"2210":8001,"Sketch":8002,"daemon":8003,"1794":8004,"Ġrap":8005,"numeralERK":8006,"ograph":8007,"single":8008,"1735":8009,"1765":8010,"2160":8011,"IXT":8012,"cbc":8013,"wxPrivate":8014,"CORE":8015,"OfReal":8016,"Ġgrprscm":8017,"rp":8018,"1764":8019,"ĠĠĠĠĠĠ":8020,"2024":8021,"OFConditionD":8022,"acl":8023,"1757":8024,"1759":8025,"llel":8026,"1756":8027,"iPdPKdS":8028,"mech":8029,"1824":8030,"EW":8031,"sid":8032,"iteratorIPSt":8033,"ool":8034,"ODE":8035,"square":8036,"ĠajDebug":8037,"caler":8038,"Dynamic":8039,"1799":8040,"Volume":8041,"properties":8042,"ractive":8043,"compat":8044,"itx":8045,"ColladaModel":8046,"our":8047,"bpf":8048,"NodeEE":8049,"stamp":8050,"Ġverify":8051,"DOMElement":8052,"1779":8053,"1763":8054,"2000000":8055,"2208":8056,"1741":8057,"cvtsd":8058,"Ġnla":8059,"isEmptyEv":8060,"libp":8061,"ZNSsC":8062,"Ġsho":8063,"flat":8064,"wi":8065,"1766":8066,"NullDataEv":8067,"spn":8068,"gwen":8069,"QNetwork":8070,"Ġ63":8071,"gui":8072,"1753":8073,"ColladaModelReader":8074,"GetUntyped":8075,"GetUntypedNullDataEv":8076,"NodeERKS":8077,"1772":8078,"1767":8079,"Dat":8080,"2188":8081,"1786":8082,"VECTOR":8083,"1775":8084,"1793":8085,"export":8086,"1894":8087,"1755":8088,"2034":8089,"tip":8090,"EPKcb":8091,"1762":8092,"agnost":8093,"GF":8094,"ENEM":8095,"1813":8096,"Member":8097,"Ġ66":8098,"2658":8099,"1769":8100,"Ġinter":8101,"insertIJS":8102,"1802":8103,"1785":8104,"2218":8105,"QVectorIN":8106,"1789":8107,"2290":8108,"Ġfirst":8109,"2653":8110,"Referenced":8111,"transaction":8112,"1771":8113,"lookahead":8114,"viron":8115,"alk":8116,"1795":8117,"1777":8118,"22337":8119,"Ġstp":8120,"tio":8121,"kindEv":8122,"NpingOps":8123,"1776":8124,"1782":8125,"_%":8126,"Ġfilter":8127,"til":8128,"cxxne":8129,"1803":8130,"cfree":8131,"lessIjESaIS":8132,"ICmp":8133,"SSL":8134,"Video":8135,"ĠajStrAssign":8136,"dataIj":8137,"2308":8138,"Ġ72":8139,"1845":8140,"AX":8141,"1834":8142,"items":8143,"RVNGProperty":8144,"only":8145,"exprb":8146,"1773":8147,"zu":8148,"1806":8149,"presentation":8150,"Ġ\"%.":8151,"ĠajStrGet":8152,"QObjectData":8153,"appEP":8154,"eap":8155,"RSA":8156,";\\":8157,"1751":8158,"cred":8159,"ENEMY":8160,"traitsISaISt":8161,"Only":8162,"Ġper":8163,"1801":8164,"Browser":8165,"ĠFile":8166,"1809":8167,"2288":8168,"High":8169,"ompress":8170,"Ġ62":8171,"operator":8172,",âĢ¦\"":8173,"Chunk":8174,"sel":8175,"skeleton":8176,"1844":8177,"1752":8178,"derefEv":8179,"Ġ61":8180,"tle":8181,"hywf":8182,"hywfar":8183,"oliday":8184,"ofd":8185,"Geo":8186,"StreamWrapper":8187,"1904":8188,"1805":8189,"Ġrand":8190,"Ġcmd":8191,"Ġ70":8192,"2084":8193,"IiS":8194,"5477":8195,"Ġ90":8196,"cwidget":8197,"leep":8198,"1792":8199,"Ġoptind":8200,"pass":8201,"1807":8202,"PdfError":8203,"Ġrange":8204,"doDestroy":8205,"Ġpri":8206,"SubTreeESt":8207,"doDestroySubTreeESt":8208,"Ht":8209,"Linear":8210,"1791":8211,"Declaration":8212,"1811":8213,"finite":8214,"Polygon":8215,"1854":8216,"ListIJEEEvE":8217,"(((&":8218,"ObjectArray":8219,"automaton":8220,"stISB":8221,"gwenhywfar":8222,"1761":8223,"Ġfgets":8224,"Decode":8225,"1822":8226,"Sparse":8227,"1781":8228,"ndc":8229,"NodeEv":8230,"Ġselect":8231,"ĠFE":8232,"Acce":8233,"Ġ67":8234,"bda":8235,"Mouse":8236,"Ġfatal":8237,"Ġperror":8238,"Ġall":8239,"QUrlD":8240,"iteratorIPP":8241,"Ġos":8242,"pdataiiPdPKdS":8243,"rationalI":8244,"1884":8245,"1783":8246,"oct":8247,"share":8248,"proof":8249,"ObjectBase":8250,"1812":8251,"Quantum":8252,"2230":8253,"Ġ65":8254,"QStyle":8255,"Ast":8256,"ugh":8257,"pdu":8258,"Matri":8259,"usic":8260,"Ġoffset":8261,"import":8262,"QLay":8263,"procE":8264,"unlocked":8265,"ymm":8266,"1892":8267,"vpi":8268,"ĠSer":8269,"IhE":8270,"lua":8271,"Finish":8272,"Fast":8273,"SmartPointerINS":8274,"shufflelo":8275,"1924":8276,"Ġpacket":8277,"setopt":8278,"Ġstrcat":8279,"2198":8280,"references":8281,"typeENS":8282,"nextEv":8283,"QTypedArrayDataI":8284,"Finger":8285,"2298":8286,"Chain":8287,"Factor":8288,"dyn":8289,"rance":8290,"1867":8291,"ĠTIFF":8292,"OutOfRange":8293,"1816":8294,"...\"":8295,"1821":8296,"1819":8297,"1815":8298,"1842":8299,"EXP":8300,"spin":8301,"strlcpy":8302,"Ġldap":8303,"RVNGPropertyList":8304,"baseIPN":8305,"QStandard":8306,"IODevice":8307,"AND":8308,"1827":8309,"Navig":8310,"px":8311,"Ġind":8312,"Ġbad":8313,"Less":8314,"nsock":8315,"processor":8316,"!\\":8317,"simplify":8318,"Ġinfo":8319,"1866":8320,"mixer":8321,"XIO":8322,"hm":8323,"1836":8324,"filebuf":8325,"pairIi":8326,"Ġ68":8327,"HashTable":8328,"1825":8329,"ĠNew":8330,"ached":8331,"ENG":8332,"1837":8333,"RSaIT":8334,"uler":8335,"Ġptr":8336,"KA":8337,"Zip":8338,"Axis":8339,"this":8340,"ismt":8341,"1831":8342,"viders":8343,"3040":8344,"1839":8345,"ĠInvalid":8346,"shape":8347,"ccurred":8348,"ucene":8349,"Ġuint":8350,"Ġau":8351,"Ġargv":8352,"BL":8353,"CAF":8354,"RW":8355,"EENSt":8356,"vectorIh":8357,"1823":8358,"yph":8359,"flann":8360,"ismatch":8361,"1826":8362,"Ġraptor":8363,"transformer":8364,"ago":8365,"xfffffc":8366,"TLS":8367,"ris":8368,"Quick":8369,"000000000":8370,"EEEptEv":8371,"lg":8372,"ClearEv":8373,"%%":8374,"GallicTypeE":8375,"Ġport":8376,"Printf":8377,"clas":8378,"Logged":8379,"odo":8380,"tial":8381,"1833":8382,"foreach":8383,"numeralEPK":8384,"escape":8385,"1849":8386,"Ġrl":8387,"predic":8388,"Names":8389,"aming":8390,"rol":8391,"EEEEEENS":8392,"Translations":8393,"1861":8394,"QIODevice":8395,"xea":8396,"btt":8397,"mpqRKS":8398,"OK":8399,"1934":8400,"Ġimp":8401,"1829":8402,"Alpha":8403,"ItE":8404,"curve":8405,"1879":8406,"StringERK":8407,"Alarm":8408,"Ġ69":8409,"DataStd":8410,"PvS":8411,"delay":8412,"1856":8413,"totext":8414,"Desc":8415,"Ġunknown":8416,"1832":8417,"1903":8418,"bufferI":8419,"refresh":8420,"QPDFObject":8421,"Contract":8422,"dient":8423,"1853":8424,"1846":8425,"ient":8426,"Ġarray":8427,"Ġlock":8428,"fffc":8429,"Ġxtensa":8430,"1817":8431,"LoggedException":8432,"ĠThrowLoggedException":8433,"1905":8434,"1847":8435,"ĠajFmtPrintF":8436,"EPKcRKSaIcE":8437,"1944":8438,"qq":8439,"LeafNodeINS":8440,"vtkO":8441,"figure":8442,"eep":8443,"Packed":8444,"Lucene":8445,"lev":8446,"1877":8447,"Formatter":8448,"Translation":8449,"relocate":8450,"rationalb":8451,"conversion":8452,"allocatorIN":8453,"Logsum":8454,"1835":8455,"1841":8456,"png":8457,"byteswap":8458,"typeES":8459,"1882":8460,"1855":8461,"PTR":8462,"1872":8463,"wxGet":8464,"1843":8465,"Ind":8466,"EEdeEv":8467,"1857":8468,"Kit":8469,"rase":8470,"1852":8471,"exprjELb":8472,"itude":8473,"3030":8474,"Ġ71":8475,"statistics":8476,"1885":8477,"Ġ\"@":8478,"SDL":8479,"Setup":8480,"blem":8481,"Constant":8482,"vide":8483,"eme":8484,"pub":8485,"vectI":8486,"1933":8487,"publish":8488,"1907":8489,"Ġlogg":8490,"Ġexpected":8491,"1902":8492,"reslimit":8493,"usage":8494,"ĠLtd":8495,"typeEE":8496,"QDBusPendingReply":8497,"1875":8498,"1851":8499,"1964":8500,"2006":8501,"IfEESaIS":8502,"ĠZ":8503,"Remote":8504,"oom":8505,"ContractViolation":8506,"IPosition":8507,"ĠMainGAPState":8508,"complete":8509,"1889":8510,"eth":8511,"coreE":8512,"Ġcontext":8513,"ZStneRKSt":8514,"Reset":8515,"1871":8516,"1859":8517,"2045":8518,"1863":8519,"ogg":8520,"wxTranslations":8521,"Ġphp":8522,"ecc":8523,"trig":8524,"BOS":8525,"Encoder":8526,"spir":8527,"EPKcj":8528,"1865":8529,"1906":8530,"each":8531,"atomic":8532,"ĠUTF":8533,"1862":8534,"theme":8535,"ssh":8536,"1914":8537,"IiNS":8538,"PC":8539,"Temp":8540,"NU":8541,"disconnect":8542,"ating":8543,"prepare":8544,"400000":8545,"GRO":8546,"pm":8547,"Sample":8548,"leted":8549,"1896":8550,"ZTV":8551,"EiNS":8552,"aab":8553,"umption":8554,"lers":8555,"2003":8556,"lied":8557,"1899":8558,"1901":8559,"serialize":8560,"insertEPKc":8561,"1873":8562,"1909":8563,"IjESt":8564,"mapping":8565,"uccess":8566,"1999":8567,"rgb":8568,"1887":8569,"1929":8570,"upp":8571,"1911":8572,"1881":8573,"ographic":8574,"magick":8575,"strip":8576,"svectorIN":8577,"1932":8578,"Ġwhile":8579,"varEv":8580,"1883":8581,"normalize":8582,"nth":8583,"1897":8584,"mulERK":8585,"'\\":8586,"wxS":8587,"IteratorOf":8588,"rewriterI":8589,"vectorIhSaIh":8590,"QPDFObjectHandle":8591,"mprintf":8592,"ĠAsnReadVal":8593,"Solid":8594,"Subdiv":8595,"UV":8596,"ressive":8597,"Ġshould":8598,"2104":8599,"1954":8600,"iterINS":8601,"typeERKS":8602,"forwardIR":8603,"mar":8604,"uniqueIJRKSt":8605,"IJEEEEESt":8606,"Io":8607,"Ġdetected":8608,"Ki":8609,"mail":8610,"Medi":8611,"Flat":8612,"addAction":8613,"2007":8614,"asher":8615,"MC":8616,"irrAllocator":8617,"tt":8618,"2005":8619,"Ġputc":8620,"Ġdwarf":8621,"iteratorIPKcNSt":8622,"mpfr":8623,"Ġrdp":8624,"compile":8625,"1913":8626,"clEi":8627,"simplifier":8628,"DK":8629,"1981":8630,"words":8631,"LOGv":8632,"Ġsocks":8633,"OutputStream":8634,"1886":8635,"jump":8636,"sdn":8637,"urdf":8638,"1922":8639,"fmtPKcz":8640,"ZE":8641,"5535":8642,"coord":8643,"scene":8644,"1876":8645,"blank":8646,"Ġtrans":8647,"Decoder":8648,"2800":8649,"KLF":8650,"Ġapp":8651,"tableEv":8652,"1994":8653,"Ġpi":8654,"sex":8655,"ount":8656,"1931":8657,"selfEv":8658,"LV":8659,"Ġ`%":8660,"2330":8661,"ĠMdc":8662,"Orientation":8663,"8000000":8664,"1984":8665,"2610":8666,"chno":8667,"raction":8668,"2450":8669,"Transp":8670,"unpckl":8671,"Ġ75":8672,"Resize":8673,"appLb":8674,"0000000000":8675,"1891":8676,"EiPPv":8677,"aloo":8678,"MENT":8679,"1893":8680,"2065":8681,"Ġ73":8682,"iom":8683,"smart":8684,"termin":8685,"1949":8686,"metacall":8687,"CallEiPPv":8688,"Src":8689,"adb":8690,"eh":8691,"spirit":8692,"1917":8693,"EEEbP":8694,"innerFunctionEvE":8695,"1935":8696,"ride":8697,"Ġinet":8698,"66666667":8699,"ni":8700,"FunctionPointerIT":8701,"Ġoptions":8702,"Enter":8703,"Assoc":8704,"arator":8705,"##":8706,"1926":8707,"selected":8708,"Ġgaprnt":8709,"2094":8710,"ymmqq":8711,"QW":8712,"3333333333333333":8713,"xes":8714,"Ġ80":8715,"Ġquote":8716,"Overlay":8717,"Ġmodule":8718,"Bul":8719,"2012":8720,"Args":8721,"ango":8722,"2478":8723,"cg":8724,"rchr":8725,"OC":8726,"QTreeWidgetItem":8727,"lica":8728,"2698":8729,"Ġputchar":8730,"precond":8731,"Dict":8732,"IjE":8733,"rinter":8734,"2700":8735,"Imm":8736,"Ġta":8737,"Ġ\"+":8738,"2500":8739,"spect":8740,"syslog":8741,"gent":8742,"threa":8743,"QPointerIN":8744,"scalar":8745,"1895":8746,"mysql":8747,"Ġffffffff":8748,"InfoE":8749,"die":8750,"1915":8751,"collect":8752,"vision":8753,"ListFuncs":8754,"Ġfseek":8755,"1923":8756,"ebx":8757,"2022":8758,"cost":8759,"Ġgk":8760,"DrawElements":8761,"Representation":8762,"1919":8763,"MsgP":8764,"Ġgss":8765,"xeb":8766,"utdown":8767,"1927":8768,"Ġretrieve":8769,"1925":8770,"progress":8771,"1993":8772,"vala":8773,"1936":8774,"1957":8775,"ortal":8776,"evs":8777,"ĠAdd":8778,"anum":8779,"2013":8780,"igno":8781,"SetErrorMsgP":8782,"1942":8783,"1953":8784,"Gobby":8785,"cmpeqb":8786,"trum":8787,"Abs":8788,"CoinMessage":8789,"ture":8790,"Ġ\"%-":8791,"QStringBuilder":8792,"1955":8793,"yEv":8794,"Ġauth":8795,"1941":8796,"vc":8797,"1947":8798,"Sound":8799,"2017":8800,"EEEvT":8801,"bE":8802,"1912":8803,"LogMessageC":8804,"ASN":8805,"component":8806,"Ġwarn":8807,"Ġipp":8808,"Use":8809,"managerERS":8810,"1945":8811,"mime":8812,"Encode":8813,"1916":8814,"1937":8815,"2300":8816,"Ġup":8817,"acing":8818,"ERNSt":8819,"errors":8820,"ConfItem":8821,"Ġmxc":8822,"inode":8823,"2039":8824,"Ġ\"../../../../":8825,"IFv":8826,"1979":8827,"2009":8828,"struc":8829,"ĠreturnError":8830,"DcmItem":8831,"1952":8832,"iteratorIPKN":8833,"2053":8834,"conflict":8835,"axiom":8836,"2029":8837,"mortal":8838,"tvec":8839,"1943":8840,"DefaultCacheStoreIS":8841,"drop":8842,"parameters":8843,"dataI":8844,"rows":8845,"Rot":8846,"Ġrun":8847,"watched":8848,"Ġthat":8849,"1982":8850,"Algo":8851,"logger":8852,"2320":8853,"maining":8854,"2035":8855,"1939":8856,"inal":8857,"1977":8858,"Ġmxcsr":8859,"Geographic":8860,"TextEditor":8861,"1995":8862,"Ġ74":8863,"most":8864,"1965":8865,"Ġmeta":8866,"FP":8867,"Ġdefined":8868,"Direct":8869,"Eib":8870,"bff":8871,"1959":8872,"Ġgetpid":8873,"Compute":8874,"1987":8875,"coeff":8876,"jector":8877,"1966":8878,"SY":8879,"vectorIjSa":8880,"istory":8881,"ĠINT":8882,"iSt":8883,"1956":8884,"typ":8885,"switch":8886,"ede":8887,"Lookup":8888,"TTP":8889,"AttributeValue":8890,"cvte":8891,"binutils":8892,"psurface":8893,"1975":8894,"culator":8895,"lar":8896,"RR":8897,"translateEPKcS":8898,"winpr":8899,"1946":8900,"QRegExp":8901,"lsERSoRKNS":8902,"bout":8903,"ning":8904,"erbose":8905,"1962":8906,"21474836":8907,"1961":8908,"8000000000000":8909,"LogMessageD":8910,"1989":8911,"addERK":8912,"certificate":8913,"rewrite":8914,"JSON":8915,"points":8916,"DateTime":8917,"1973":8918,"objEj":8919,"Histogram":8920,"syntax":8921,"atform":8922,"InitC":8923,"Unlock":8924,"lam":8925,"orary":8926,"setEnabledEb":8927,"Ia":8928,"ctr":8929,"StringSave":8930,"wenview":8931,"glib":8932,"2113":8933,"1951":8934,"psub":8935,"2328":8936,"associ":8937,"agnostic":8938,"vg":8939,"2079":8940,"2026":8941,"ness":8942,"dist":8943,"2503":8944,"1969":8945,"1972":8946,"enabledEv":8947,"2490":8948,"cpu":8949,"FstIS":8950,"1976":8951,"ECK":8952,"seg":8953,"1971":8954,"Controller":8955,"1967":8956,"Sur":8957,"IFSelect":8958,"lou":8959,"imagelist":8960,"hmm":8961,"zer":8962,"ato":8963,"DSRBasic":8964,"ToString":8965,"2460":8966,"DSRBasicCodedEntry":8967,"ĠBlast":8968,"Ġ\".\"":8969,"2016":8970,"1963":8971,"buff":8972,"freeData":8973,"Ġtls":8974,"2015":8975,"ste":8976,"Ġaccess":8977,"network":8978,"rx":8979,"Baloo":8980,"Ġ\"?":8981,"2430":8982,"2458":8983,"2066":8984,"ĠFree":8985,"QDomNodeD":8986,"2468":8987,"LongDenseIndexSet":8988,"stringIcNS":8989,"monitor":8990,"Ġmag":8991,"ĠAH":8992,"Connect":8993,"POINT":8994,"2046":8995,"Ġ76":8996,"EA":8997,"2470":8998,"SW":8999,"1991":9000,"4040":9001,"ffc":9002,"tagILb":9003,"exprN":9004,"Ġ77":9005,"2071":9006,"document":9007,"2011":9008,"QHashDummy":9009,"HL":9010,"wxArray":9011,"Ġgimp":9012,"Extract":9013,"1986":9014,"XX":9015,"2042":9016,"2025":9017,"Qual":9018,"Kax":9019,"Ġclear":9020,"ORT":9021,"pcmpeqb":9022,"2420":9023,"declE":9024,"Language":9025,"1985":9026,"2033":9027,"2067":9028,"20368":9029,"foc":9030,"ava":9031,"Interpret":9032,"baseE":9033,"2062":9034,"Emmm":9035,"Online":9036,"bdd":9037,"rell":9038,"StringICmp":9039,"2041":9040,"Solver":9041,"vu":9042,"3390":9043,"contents":9044,"DeleterIS":9045,"2049":9046,"Script":9047,"EPFvPNS":9048,"2055":9049,"UUID":9050,"evp":9051,"instruction":9052,"Traits":9053,"ISC":9054,"2032":9055,"Ġstdscr":9056,"countILN":9057,"opts":9058,"cvtepi":9059,"Cycle":9060,"2056":9061,"REF":9062,"Ġstrrchr":9063,"SizeEv":9064,"Ġ79":9065,"quant":9066,"backward":9067,"Ġ78":9068,"QCharC":9069,"AlignmentFlagEEC":9070,"1997":9071,"EST":9072,"APH":9073,"1010101":9074,"smtL":9075,"PKN":9076,"rable":9077,"finalize":9078,"2023":9079,"999999":9080,"Gnome":9081,"2037":9082,"2027":9083,"PCol":9084,"2480":9085,"eapon":9086,"uffix":9087,"unix":9088,"Rj":9089,"gy":9090,"2440":9091,"2036":9092,"curr":9093,"xfffe":9094,"Bookmark":9095,"ares":9096,"Trap":9097,"exprRPS":9098,"1992":9099,"Ġbt":9100,"Serialize":9101,"GRID":9102,"Ġslot":9103,"2021":9104,"1983":9105,"ooser":9106,"Enable":9107,"Processor":9108,"2031":9109,"EEELi":9110,"ats":9111,"PKSt":9112,"Plane":9113,"2350":9114,"ugol":9115,"QMapNodeIi":9116,"4020":9117,"leb":9118,"sockopt":9119,"Bitmap":9120,"wav":9121,"ĠClose":9122,"fit":9123,"3900":9124,"stringES":9125,"2077":9126,"1996":9127,"EEixEj":9128,"Ġreco":9129,"2360":9130,"aje":9131,"Ġtoken":9132,"2114":9133,"Sink":9134,"Validator":9135,"strconcat":9136,"Paje":9137,"MetaData":9138,"Bytes":9139,"2448":9140,"2059":9141,"Ġtool":9142,"Translate":9143,"ChFi":9144,"GUTF":9145,"decrypt":9146,"optional":9147,"ier":9148,"2061":9149,"DV":9150,"disposeERKSaIcE":9151,"2318":9152,"Ġtm":9153,"ĠTechno":9154,"2124":9155,"bert":9156,"Ġgetc":9157,"3380":9158,"2047":9159,"hide":9160,"BoolePoly":9161,"2488":9162,"Att":9163,"lval":9164,"Portugol":9165,"Scale":9166,"ĠNo":9167,"Ġobj":9168,"ORD":9169,"Ġtrap":9170,"tupleIJRS":9171,"203685477":9172,"Ġstatus":9173,"Ġldns":9174,"threaded":9175,"argERKS":9176,"external":9177,"MenuItem":9178,"python":9179,"2310":9180,"standard":9181,"2498":9182,"2338":9183,"filesystem":9184,"ButtonC":9185,"QWidgetRK":9186,"blue":9187,"ConnectionTypesINS":9188,"BSpline":9189,"QScopedPointer":9190,"IfLj":9191,"2378":9192,"vtkSmart":9193,"QByteArrayC":9194,"2340":9195,"iven":9196,"Ġconnection":9197,"Lat":9198,"aca":9199,"parator":9200,"ĠERROR":9201,"ursi":9202,"Shortcut":9203,"mmx":9204,"Eh":9205,"rest":9206,"QXmpp":9207,"Power":9208,"API":9209,"Ġdvb":9210,"IdEv":9211,"memxud":9212,"xmmxud":9213,"2073":9214,"renderer":9215,"2051":9216,"adaptor":9217,"BO":9218,"ragment":9219,"TransientD":9220,"2222":9221,"IcEC":9222,"mapIP":9223,"2348":9224,"score":9225,"bsrli":9226,"22337203685477":9227,"Ġag":9228,"rolled":9229,"trip":9230,"helperEi":9231,"----------------":9232,"OFCommandLine":9233,"Reverse":9234,"cms":9235,"2418":9236,"2072":9237,"ndcPKcS":9238,"Filename":9239,"where":9240,"Ġmk":9241,"Ġcr":9242,"pkcs":9243,"Zml":9244,"SharedPointer":9245,"FIGHT":9246,"BoxC":9247,"tons":9248,"rics":9249,"Ġcount":9250,"iteratorI":9251,"2089":9252,"rama":9253,"Calc":9254,"}\"":9255,"vtkSmartPointerI":9256,"prim":9257,"2043":9258,"Background":9259,"skill":9260,"Ho":9261,"FIGHTER":9262,"Gwenview":9263,"lider":9264,"loader":9265,"shadow":9266,"Colored":9267,"ĠType":9268,"vectorIm":9269,"Presentation":9270,"argv":9271,"QPalette":9272,"Extra":9273,"AppendString":9274,"disk":9275,"allowed":9276,"2057":9277,"TypeD":9278,"strb":9279,"Ġaddress":9280,"Ġsave":9281,"2438":9282,"connectIM":9283,"deleteNode":9284,"Associ":9285,"Clipper":9286,"OpenSubdiv":9287,"2370":9288,"2233720368547758":9289,"Ġalready":9290,"FR":9291,"Slot":9292,"2134":9293,"mtp":9294,"2588":9295,"pmt":9296,"2410":9297,"2075":9298,"sortPK":9299,"ppd":9300,"nI":9301,"qh":9302,"CE":9303,"Dup":9304,"ĠSetImage":9305,"2388":9306,"ĠPoco":9307,"2153":9308,"2508":9309,"CartesianIdEENS":9310,"2052":9311,"dino":9312,"plus":9313,"2096":9314,"Prefix":9315,"Ġshow":9316,"2095":9317,"mx":9318,"vironment":9319,"dead":9320,"2144":9321,"providers":9322,"ackey":9323,"SMDS":9324,"mpi":9325,"ValueC":9326,"QStringi":9327,"pairIjj":9328,"CB":9329,"pur":9330,"QtProperty":9331,"Ġrad":9332,"30000000":9333,"2380":9334,"Ġ82":9335,"za":9336,"pLEPKc":9337,"2091":9338,"2408":9339,"MON":9340,"lld":9341,"orriso":9342,"stbtt":9343,"Ġcurr":9344,"focus":9345,"Ġmat":9346,"oreach":9347,"GetToken":9348,"2069":9349,"EENKUlvE":9350,"alt":9351,"road":9352,"money":9353,"Zone":9354,"ĠIG":9355,"eqEP":9356,"COMP":9357,"3388":9358,"rinfo":9359,"strings":9360,"compress":9361,"visitor":9362,"alignment":9363,"Ne":9364,"4024":9365,"2368":9366,"PA":9367,"2174":9368,"amares":9369,"2106":9370,"Ġlookup":9371,"2083":9372,"QScopedPointerDeleterIS":9373,"aker":9374,"oni":9375,"2620":9376,"XCAF":9377,")âĢ¦\"":9378,"ple":9379,"2164":9380,"Ġfreerdp":9381,")->":9382,"2154":9383,"hold":9384,"acro":9385,"ĠXorriso":9386,"idence":9387,"Gap":9388,"Right":9389,"Operator":9390,"Character":9391,"Ġoccurred":9392,"month":9393,"lyph":9394,"backEO":9395,"decompress":9396,"dest":9397,"Ġ84":9398,"2099":9399,"Man":9400,"Coordin":9401,"izedType":9402,"fffe":9403,"same":9404,"CCudd":9405,"closeEv":9406,"aint":9407,"2087":9408,"Unexpected":9409,"VALUE":9410,"2105":9411,"ncloud":9412,"Non":9413,"GExtEE":9414,"nwIN":9415,"Ġyytext":9416,"insertion":9417,"iss":9418,"break":9419,"2082":9420,"Addr":9421,"2085":9422,"ocation":9423,"zd":9424,"traitsIT":9425,"2076":9426,"parm":9427,"primal":9428,"Ġdgettext":9429,"Project":9430,"iteratorE":9431,"XMLWriter":9432,"too":9433,"assumption":9434,"Loop":9435,"&)::__":9436,"eded":9437,"GC":9438,"2081":9439,"children":9440,"rotate":9441,"very":9442,"comb":9443,"4568":9444,"Ġsw":9445,"2358":9446,"2122":9447,"Items":9448,"receive":9449,"wrd":9450,"TColgp":9451,"Disp":9452,"Firm":9453,"helperEPFvPNS":9454,"EEclERKS":9455,"valueEvE":9456,"olt":9457,"2063":9458,"2086":9459,"treeISt":9460,"xEv":9461,"tEv":9462,"2125":9463,"sect":9464,"MyMoneyMoney":9465,"DataMapOfShape":9466,"Ġroot":9467,"2093":9468,"Mono":9469,"Observer":9470,"clock":9471,"panic":9472,"sexpr":9473,"Inv":9474,"NodeStruct":9475,"Ġ(âĢ¦\"":9476,"IcLb":9477,"2101":9478,"reallocDataEii":9479,"vectorIdSaId":9480,"Ġ\")\"":9481,"Ġstdin":9482,"Ġbind":9483,"Ġigno":9484,"2116":9485,"Simplex":9486,"lemma":9487,"EEEPT":9488,"traitsIcESaIcEEEPKcS":9489,"2097":9490,"ĠQMapDataBase":9491,"xffffffc":9492,"Ġtv":9493,"uster":9494,"idi":9495,"Bot":9496,"lambda":9497,"Ġ\":\"":9498,"2194":9499,"Ġ83":9500,"(âĢ¦\"":9501,"Ġ81":9502,"2127":9503,"ALLY":9504,"Ġtry":9505,"Dlg":9506,"FunctionHelper":9507,"QMetaTypeFunctionHelper":9508,"Ġfr":9509,"ster":9510,"2131":9511,"mut":9512,"substitution":9513,"orig":9514,"traitsIwEE":9515,"Effect":9516,"Ġ85":9517,"Ġcould":9518,"LS":9519,"2428":9520,"EFv":9521,"2528":9522,"GE":9523,"2167":9524,"Ġvcvts":9525,"2121":9526,"ulator":9527,"Bug":9528,"DeleteEb":9529,"gbe":9530,"IND":9531,"2103":9532,"2398":9533,"2708":9534,"ensure":9535,"2580":9536,"2126":9537,"NOT":9538,"2107":9539,"vious":9540,"tice":9541,"2145":9542,"moved":9543,"contextP":9544,"ĠID":9545,"CameraInfo":9546,"Ġvector":9547,"rectangle":9548,"2767":9549,"ISaIvEEEE":9550,"2092":9551,"Hasher":9552,"FINALLY":9553,"tColored":9554,"2133":9555,"Ġconvert":9556,"Tos":9557,"Navigator":9558,"RKi":9559,"Tosrm":9560,"sortP":9561,"Ġparameter":9562,"widgets":9563,"alias":9564,"2179":9565,"Team":9566,"2112":9567,"DataC":9568,"ĠSeqId":9569,"ACC":9570,"Nick":9571,"ofday":9572,"auche":9573,"QLineEdit":9574,"matics":9575,"StateE":9576,"RAPH":9577,"rebalance":9578,"Ġffffffffffffffff":9579,"GH":9580,"OBAtom":9581,"2119":9582,"2578":9583,"Watch":9584,"timeofday":9585,"2530":9586,"EpeckENS":9587,"ved":9588,"andid":9589,"2169":9590,"prepend":9591,"cnt":9592,"2630":9593,"Glyph":9594,"2520":9595,"EEEOS":9596,"need":9597,"2117":9598,"GRIDFTP":9599,"Ġassertion":9600,"2111":9601,"anza":9602,"FL":9603,"QLabelC":9604,"RC":9605,"rename":9606,"Ġrece":9607,"QSizePolicy":9608,"2390":9609,"2538":9610,"zip":9611,"tern":9612,"ĠIGRAPH":9613,"semb":9614,"ValueD":9615,"Ġmenu":9616,"setting":9617,"2548":9618,"ison":9619,"Statement":9620,"ANAP":9621,"2137":9622,"Quit":9623,"Library":9624,"tOutputD":9625,"Ġhw":9626,"ilbert":9627,"idden":9628,"ZnwmPv":9629,"Ġdraw":9630,"2136":9631,"2165":9632,"Ġht":9633,"ccd":9634,"itten":9635,"2184":9636,"atterns":9637,"ItemEE":9638,"translation":9639,"ddc":9640,"XMLEEE":9641,"siz":9642,"2203":9643,"pairIKjN":9644,"icture":9645,"nodeEPSt":9646,"2540":9647,"nping":9648,"quires":9649,"camera":9650,"KTextEditor":9651,"aunch":9652,"StepData":9653,"2102":9654,"meth":9655,"br":9656,"BoxLayoutC":9657,"Rand":9658,"Ġone":9659,"QMessageLoggerC":9660,"Ġioctl":9661,"Ġcpu":9662,"PortugolAST":9663,"2123":9664,"osite":9665,"Marker":9666,"Ġab":9667,"Ġexpression":9668,"Card":9669,"andps":9670,"pdf":9671,"Ring":9672,"findNodeERKS":9673,"2840":9674,"txt":9675,"mitive":9676,"OBJECT":9677,"2132":9678,"filebufIcSt":9679,"idl":9680,"itical":9681,"Panorama":9682,"ItemC":9683,"ShapeSchema":9684,"EixERKS":9685,"ummary":9686,"2149":9687,"2518":9688,"RVNGInputStream":9689,"anERKS":9690,"rellm":9691,"ĠComp":9692,"linux":9693,"aarch":9694,"Detail":9695,"fS":9696,"bci":9697,"Ġfix":9698,"EEvRT":9699,"2748":9700,"Ġber":9701,"BaseAllocator":9702,"4030":9703,"OO":9704,"SaIm":9705,"2109":9706,"Algorithm":9707,"ContigNode":9708,"waita":9709,"marked":9710,"ilt":9711,"branch":9712,"Drive":9713,"EF":9714,"ListIJS":9715,"2224":9716,"2135":9717,"inematics":9718,"2143":9719,"checker":9720,"accessIN":9721,"duplicate":9722,"lengthv":9723,"Serializer":9724,"2151":9725,"2510":9726,"2162":9727,"abcdef":9728,"IRSt":9729,"ocus":9730,"2139":9731,"NUM":9732,"ĠDi":9733,"Ġ86":9734,"2163":9735,"raise":9736,"gnome":9737,"ULT":9738,"Full":9739,"strn":9740,"pairIii":9741,"CharC":9742,"2141":9743,"QHashDummyValueE":9744,"2204":9745,"Bond":9746,"decay":9747,"EEEET":9748,"keys":9749,"herit":9750,"2115":9751,"ESaISC":9752,"year":9753,"AH":9754,"ĠScaler":9755,"UND":9756,"bner":9757,"2279":9758,"Kde":9759,"ĠDe":9760,"BOSS":9761,"nlo":9762,"EEERS":9763,"Ġloaded":9764,"msa":9765,"ĠpixGet":9766,"2189":9767,"Ġ87":9768,"citygml":9769,"Ġ180":9770,"Ġ\"`%":9771,"BOP":9772,"blast":9773,"goto":9774,"quot":9775,"Pixmap":9776,"Ġgene":9777,"ĠglDrawElements":9778,"ji":9779,"2193":9780,"Precondition":9781,"tm":9782,"strB":9783,"2172":9784,"ASTRefCountI":9785,"PdfName":9786,"structi":9787,"2157":9788,"adapter":9789,"profile":9790,"Missing":9791,"2808":9792,"You":9793,"Parent":9794,"password":9795,"Ġproto":9796,"2598":9797,"tConfItem":9798,"2156":9799,"contr":9800,"ZNSaIN":9801,"Ġemit":9802,"Deco":9803,"support":9804,"KAction":9805,"!!":9806,"2175":9807,"2550":9808,"Scalar":9809,"4048":9810,"errorEiRKNSt":9811,"background":9812,"8888":9813,"2758":9814,"EPKwRKS":9815,"Windows":9816,"comment":9817,"Ġ89":9818,"errain":9819,"2146":9820,"2570":9821,"]\\":9822,"ConnectionEPKN":9823,"Ġten":9824,"Ġfloor":9825,"2142":9826,"USER":9827,"4938":9828,"4034":9829,"aring":9830,"=\"%":9831,"Couldn":9832,"00000001":9833,"quantifierP":9834,"Ġmon":9835,"Ġtmp":9836,"2728":9837,"Ġencoding":9838,"2401":9839,"Av":9840,"2176":9841,"2166":9842,"2182":9843,"Uniform":9844,"2264":9845,"TreeNode":9846,"eek":9847,"2560":9848,"2129":9849,"istreamIT":9850,"fP":9851,"FUN":9852,"zdialogPKcS":9853,"EbPKc":9854,"3038":9855,"Bits":9856,"EEERKNS":9857,"grobner":9858,"2211":9859,"stick":9860,"2192":9861,"020":9862,"2244":9863,"2848":9864,"sWith":9865,"Ġ99":9866,"assignment":9867,"2177":9868,"activateEP":9869,"Ġxf":9870,"6948":9871,"declEv":9872,"rier":9873,"Completion":9874,"2601":9875,"fication":9876,"SeverityE":9877,"managerEixEj":9878,"2161":9879,"2185":9880,"2838":9881,"QObjectPKS":9882,"vtkSmartPointer":9883,"levelv":9884,"valptrEv":9885,"QMenu":9886,"Ġbcf":9887,"2768":9888,"Ġbuild":9889,"irect":9890,"iPPv":9891,"EEEP":9892,"2152":9893,"2206":9894,"QWidgetiiii":9895,"Special":9896,"xep":9897,"GeographicLib":9898,"Ġunlink":9899,"arr":9900,"Efff":9901,"Delta":9902,"2327":9903,"unset":9904,"extend":9905,"SJ":9906,"2234":9907,"078":9908,"9999999999996":9909,"mapIj":9910,"ym":9911,"Ġref":9912,"dwarf":9913,"2201":9914,"2256":9915,"listIN":9916,"keep":9917,"2155":9918,"ValidEv":9919,"StringanERKS":9920,"dot":9921,"2214":9922,"detect":9923,"jV":9924,"QChari":9925,"2274":9926,"2186":9927,"managerEcvR":9928,"2718":9929,"exprPS":9930,"Help":9931,"Mail":9932,"ings":9933,"cca":9934,"dfs":9935,"lines":9936,"pping":9937,"2221":9938,"NetID":9939,"Ġcackey":9940,"weighted":9941,"tOutputC":9942,"etype":9943,"Notification":9944,"Ġdst":9945,"ISaISt":9946,"strto":9947,"Ġglad":9948,"Ġ88":9949,"2159":9950,"bedtls":9951,"uv":9952,"pic":9953,"Ġmbedtls":9954,"2173":9955,"KN":9956,"2195":9957,"structible":9958,"LevelE":9959,"xstring":9960,"jb":9961,"hbci":9962,"2720":9963,"CImgItE":9964,"Ġtenm":9965,"CountEv":9966,"Ġgenlist":9967,"249249":9968,"ExtendedString":9969,"Ġam":9970,"Ġgroup":9971,"TEXT":9972,"2239":9973,"localeC":9974,"ĠFc":9975,"punct":9976,"GROUP":9977,"Ġ91":9978,"Illegal":9979,"direct":9980,"we":9981,"Ġ65535":9982,"shot":9983,"utls":9984,"Ġ96":9985,"2202":9986,"3048":9987,"wEEvT":9988,"2680":9989,"Ġmai":9990,"constructible":9991,"2255":9992,"2197":9993,"2181":9994,"sP":9995,"allocated":9996,"Ġ95":9997,"001":9998,"ja":9999,"gal":10000,"oriz":10001,"ivot":10002,"7530":10003,"EEEONSt":10004,"good":10005,"Extend":10006,"ZmlRK":10007,"IcED":10008,"2226":10009,"2196":10010,"Band":10011,"Ġcharacter":10012,"2690":10013,"sortS":10014,"geometry":10015,"ptrIT":10016,"graphIN":10017,"NotifySeverityE":10018,"Ġsecfile":10019,"Music":10020,"Ġused":10021,"curity":10022,"*,":10023,"2171":10024,"frameE":10025,"Adwaita":10026,"Ġjo":10027,"Encoding":10028,"Gradient":10029,"2254":10030,"vpadd":10031,"2568":10032,"2231":10033,"ĠWriteBlobString":10034,"9989999999999996":10035,"arded":10036,"LOCK":10037,"Ġverbose":10038,"Znwj":10039,"rationalELb":10040,"Ġlogmsg":10041,"2225":10042,"2199":10043,"ination":10044,"insertERKS":10045,"Ġ92":10046,"aaaaaaaaaaaa":10047,"ObjectD":10048,"maps":10049,"QStringaSEOS":10050,"2216":10051,"KAlarm":10052,"addItem":10053,"010":10054,"EEixEi":10055,"2205":10056,"PLIST":10057,"des":10058,"2207":10059,"Ġelement":10060,"legate":10061,"2187":10062,"EB":10063,"rbtdb":10064,"2294":10065,"defaults":10066,"automatonI":10067,"Ġ93":10068,"2235":10069,"ucer":10070,"Place":10071,"IiEC":10072,"libdm":10073,"IPF":10074,"gname":10075,"dtor":10076,"GUI":10077,"Ġshort":10078,"2219":10079,"erf":10080,"marsh":10081,"oreachContainer":10082,"XCAFDoc":10083,"lockv":10084,"Ġunsupported":10085,"CompactorIS":10086,"2493":10087,"usb":10088,"threadedv":10089,"compar":10090,"3088":10091,"derived":10092,"which":10093,"Sl":10094,"dddd":10095,"0001":10096,"Virtual":10097,"2209":10098,"2183":10099,"2284":10100,"classic":10101,"2323":10102,"2304":10103,"unexpected":10104,"paint":10105,"StringCmp":10106,"patterns":10107,"Ġ94":10108,"baseINS":10109,"Ġnsock":10110,"tolower":10111,"ursive":10112,"tell":10113,"2191":10114,"execute":10115,"gi":10116,"IntEP":10117,"zeroEv":10118,"Perm":10119,"MOD":10120,"relev":10121,"DjV":10122,"2657":10123,"Pin":10124,"getline":10125,"uniq":10126,"OLL":10127,"maker":10128,"dgettext":10129,"2227":10130,"Ġpos":10131,"2223":10132,"Implement":10133,"bot":10134,"ISE":10135,"2650":10136,"FilterINS":10137,"ITEM":10138,"2251":10139,"Wall":10140,"2282":10141,"Head":10142,"2257":10143,"Ġemb":10144,"ĠajListIter":10145,"ChFiDS":10146,"HSequenceOf":10147,"tc":10148,"GetText":10149,"2590":10150,"tE":10151,"constructor":10152,"2237":10153,"polynomialE":10154,"Ġdpy":10155,"Ġcmp":10156,"MET":10157,"2261":10158,"udp":10159,"ppdc":10160,"Ġchannel":10161,"Imath":10162,"Calamares":10163,"2283":10164,"except":10165,"2241":10166,"2276":10167,"2670":10168,"allback":10169,"prob":10170,"Ġjack":10171,"7164":10172,"dda":10173,"Ġover":10174,"jpeg":10175,"Spin":10176,"ĠCreate":10177,"exprEE":10178,"delta":10179,"btAlignedObjectArray":10180,"ĠCloseBlob":10181,"2404":10182,"FX":10183,"ZNSaISt":10184,"Ġnetgen":10185,"advance":10186,"Exit":10187,"Sketcher":10188,"fv":10189,"2233":10190,"2275":10191,"KAlarmCal":10192,"vtkOStreamWrapper":10193,"Ġconnect":10194,"tl":10195,"2267":10196,"XMLLoader":10197,"cessing":10198,"palette":10199,"getc":10200,"triple":10201,"2246":10202,"results":10203,"HLR":10204,"tical":10205,"ChangedEv":10206,"idle":10207,"Acceptor":10208,"rtnl":10209,"ICMP":10210,"Pred":10211,"2277":10212,"2212":10213,"Keyboard":10214,"2232":10215,"interpret":10216,"2640":10217,"Aff":10218,"ixEj":10219,"Ġdecode":10220,"refEPNS":10221,"2236":10222,"PACKET":10223,"disable":10224,"Highlight":10225,"rationalEELb":10226,"LogWeightTplIfEEEELNS":10227,"mostEv":10228,"quick":10229,"2324":10230,"Ġvoid":10231,"2271":10232,"2213":10233,"ural":10234,"Kind":10235,"putString":10236,"PGeom":10237,"2229":10238,"4330":10239,"Dimension":10240,"2738":10241,"atomEP":10242,"dock":10243,"KD":10244,"Classi":10245,"QSlotObjectIMN":10246,"Domain":10247,"2760":10248,"rightEPSt":10249,"80808080":10250,"hb":10251,"distance":10252,"Posi":10253,"2253":10254,"ZZZNK":10255,"entryEEPT":10256,"ExternalRefCount":10257,"ObjectE":10258,"Ġspecified":10259,"2217":10260,"ian":10261,"TIME":10262,"IOD":10263,"2301":10264,"threads":10265,"stISC":10266,"2262":10267,"rgba":10268,"Ġmany":10269,"Ġmin":10270,"Measure":10271,"ElPNS":10272,"Interpreter":10273,"Ġthread":10274,"Lex":10275,"Gmm":10276,"octet":10277,"vectorIbLb":10278,"Ġmpfr":10279,"TagLib":10280,"2296":10281,"allocateEmmm":10282,"2243":10283,"unlockv":10284,"Ġsource":10285,"valueE":10286,"2259":10287,"ipher":10288,"typeIcNS":10289,"ESA":10290,"solute":10291,"MyStr":10292,"RST":10293,"aptive":10294,"infoEE":10295,"2285":10296,"scroll":10297,"ips":10298,"apd":10299,"2245":10300,"idjson":10301,"Ġdelete":10302,"2292":10303,"TER":10304,"chron":10305,"2888":10306,"mult":10307,"esl":10308,"ChangedLine":10309,"2215":10310,"Ġyou":10311,"urity":10312,"RefCounted":10313,"addressof":10314,"wb":10315,"DI":10316,"Failure":10317,"gsi":10318,"dof":10319,"wise":10320,"Ġclock":10321,"2252":10322,"coreIN":10323,"assertEbPKc":10324,"assertEbPKcPNS":10325,"2314":10326,"Ġprofile":10327,"pending":10328,"Ġ97":10329,"stateEb":10330,"2249":10331,"2242":10332,"indexOf":10333,"3090":10334,"2265":10335,"080":10336,"Scanner":10337,"mmxq":10338,"see":10339,"ddf":10340,"Printer":10341,"Ġfo":10342,"Ġ98":10343,"2293":10344,"2297":10345,"plEl":10346,"ĠFormat":10347,"owl":10348,"ASS":10349,"krb":10350,"EPKcii":10351,"2342":10352,"ensity":10353,"ImageIO":10354,"2858":10355,"spectrum":10356,"Replace":10357,"Ġregister":10358,"COM":10359,"2273":10360,"panel":10361,"Concatenable":10362,"kmldom":10363,"nn":10364,"2286":10365,"slots":10366,"2263":10367,"2247":10368,"ĠFLogsum":10369,"Incidence":10370,"2305":10371,"2424":10372,"ListIteratorOf":10373,"resizeEm":10374,"ClassLoader":10375,"alignedFreeEPv":10376,"2820":10377,"2345":10378,"hj":10379,"ollow":10380,"Ġtileset":10381,"2312":10382,"memsd":10383,"xmmsd":10384,"banking":10385,"Ġproxy":10386,"2770":10387,"Modem":10388,"3098":10389,"URE":10390,"040":10391,"dw":10392,"IRCD":10393,"ĠFF":10394,"EGER":10395,"plib":10396,"2818":10397,"Fr":10398,"2900":10399,"IhSaIh":10400,"other":10401,"BaseObj":10402,"2295":10403,"softer":10404,"like":10405,"widgetP":10406,"Ġdirectory":10407,"louder":10408,"Activ":10409,"2364":10410,"press":10411,"border":10412,"Ġgot":10413,"Zmi":10414,"Ġ\"-\"":10415,"browser":10416,"Pay":10417,"IiSa":10418,"2299":10419,"Ġffffffffffffffe":10420,"Ġ>::":10421,"forwardIRKSt":10422,"irplib":10423,"=\"\"":10424,"058":10425,"2335":10426,"deleter":10427,"2291":10428,"Binomial":10429,"NSB":10430,"2337":10431,"refC":10432,"QMapDataI":10433,"KActionCollection":10434,"Ġpango":10435,"Ġcod":10436,"2307":10437,"Ġgui":10438,"BIT":10439,"2266":10440,"2740":10441,"2272":10442,"glyph":10443,"2281":10444,"libembree":10445,"TropicalWeightTplIfEEEENS":10446,"Numeric":10447,"ByteStream":10448,"ĠFT":10449,"Misc":10450,"DestroyEv":10451,"2334":10452,"2660":10453,"Stop":10454,"2384":10455,"detachEv":10456,"commit":10457,"2414":10458,"bor":10459,"iESt":10460,"2407":10461,"Ġreference":10462,"Throw":10463,"Atomic":10464,"2354":10465,"GallicArcINS":10466,"StringBuffer":10467,"EONS":10468,"Pen":10469,"Safe":10470,"Ġtr":10471,"2371":10472,"Strings":10473,"NAM":10474,"><":10475,"2780":10476,"2287":10477,"substrEmm":10478,"ĠCor":10479,"2454":10480,"3068":10481,"could":10482,"2317":10483,"Ġdef":10484,"2303":10485,"sector":10486,"fileparser":10487,"Braid":10488,"ignore":10489,"incrementPKSt":10490,"ACE":10491,"reeze":10492,"IteratorC":10493,"asl":10494,"Ġgettimeofday":10495,"Ġirc":10496,"weak":10497,"2910":10498,"2269":10499,"DIR":10500,"MR":10501,"4000000":10502,"nstr":10503,"2357":10504,"codeEv":10505,"ADDR":10506,"sortLb":10507,"2321":10508,"2329":10509,"odofo":10510,"InfoC":10511,"2730":10512,"ONE":10513,"Ġcave":10514,"front":10515,"2778":10516,"ĠPyArg":10517,"Ġquotearg":10518,"TCP":10519,"Lower":10520,"Ġpop":10521,"23157":10522,"2750":10523,"IiLi":10524,"Ġrc":10525,"3058":10526,"Anal":10527,"2333":10528,"3148":10529,"ĠglVertex":10530,"prev":10531,"package":10532,"2828":10533,"2878":10534,"Proc":10535,"2382":10536,"utvpi":10537,"2344":10538,"aqhbci":10539,"2339":10540,"Ġholiday":10541,"2349":10542,"Ġpout":10543,"flt":10544,"2928":10545,"TagINS":10546,"Too":10547,"strlen":10548,"2336":10549,"INTEGER":10550,"EEj":10551,"Focus":10552,"EPcl":10553,"Tip":10554,"Unweighted":10555,"Weighted":10556,"TropicalWeightTplIfEEEEE":10557,"5348":10558,"SERKS":10559,"EdPNS":10560,"2352":10561,"2332":10562,"ĠEL":10563,"2302":10564,"2325":10565,"2311":10566,"disc":10567,"Ġold":10568,"IfLi":10569,"2425":10570,"2366":10571,"ĠPKCS":10572,"4014":10573,"ĠSEXP":10574,"Ġsmall":10575,"bfe":10576,"Ġargc":10577,"66666666":10578,"details":10579,"2868":10580,"69313":10581,"79769313":10582,"79769313486":10583,"Gda":10584,"2361":10585,"Ġbcomunit":10586,"baseRS":10587,"IdEC":10588,"traitsISaIN":10589,"2860":10590,"tbv":10591,"Ġcp":10592,"visitILb":10593,"sist":10594,"2309":10595,"KConfigBase":10596,"plit":10597,"gpro":10598,"axis":10599,"ppEi":10600,"2374":10601,"uuid":10602,"Ġ\"(__":10603,"2375":10604,"2362":10605,"Canvas":10606,"2316":10607,"2402":10608,"2315":10609,"nprintf":10610,"2319":10611,"oti":10612,"2313":10613,"scheduler":10614,"2389":10615,"aucheModule":10616,"icsf":10617,"Ġeval":10618,"THREAD":10619,"7976931348623157":10620,"2501":10621,"Piece":10622,"GT":10623,"Article":10624,"Expected":10625,"Ġchange":10626,"2492":10627,"2898":10628,"STORE":10629,"Attrib":10630,"Ġowl":10631,"Void":10632,"tv":10633,"Ġ\"----":10634,"2396":10635,"reason":10636,"Ġgames":10637,"2372":10638,"Ejb":10639,"IfEC":10640,"2326":10641,"Ġexist":10642,"2353":10643,"solution":10644,"setjmp":10645,"easy":10646,"Primitive":10647,"mpeg":10648,"2289":10649,"utilC":10650,"2341":10651,"riscv":10652,"IsE":10653,"QStringeqE":10654,"2788":10655,"2331":10656,"Ġ\"{":10657,"Ġclass":10658,"CY":10659,"Ġgo":10660,"SaIcEE":10661,"MatExpr":10662,"Ey":10663,"EEERKS":10664,"ugi":10665,"Ġpol":10666,"TAG":10667,"backERKj":10668,"Ġparser":10669,"ally":10670,"equalsERKS":10671,"ConfigBase":10672,"litehtml":10673,"3070":10674,"2379":10675,"nlarith":10676,"Paren":10677,"qtdemux":10678,"Comment":10679,"sAnd":10680,"Ġscreen":10681,"sfr":10682,"OBConversion":10683,"xim":10684,"traitsIcEEC":10685,"Support":10686,"edEb":10687,"xmmq":10688,"Pub":10689,"pairIPN":10690,"2343":10691,"2412":10692,"Ġreal":10693,"zeroE":10694,"ReplyEPKcz":10695,"ILin":10696,"pairIKP":10697,"5556":10698,"ĠDestroyImageList":10699,"2394":10700,"4830":10701,"Ġarguments":10702,"2369":10703,"2306":10704,"GIO":10705,"Ġallocation":10706,"2397":10707,"moveIRPN":10708,"2322":10709,"occ":10710,"unet":10711,"ulate":10712,"present":10713,"tpd":10714,"ntsr":10715,"2594":10716,"2444":10717,"QDBusPendingCall":10718,"2443":10719,"moveIRSt":10720,"cvPKc":10721,"UnpackTuple":10722,"treeIPN":10723,"2385":10724,"high":10725,"2968":10726,"Ġ101":10727,"3060":10728,"ĠAcquire":10729,"2367":10730,"IhLj":10731,"KPlugin":10732,"Feat":10733,"Ġgee":10734,"gnunet":10735,"named":10736,"QLayout":10737,"Ġword":10738,"NT":10739,"guarded":10740,"Pose":10741,"MakeExtended":10742,"MakeExtendedPair":10743,"mula":10744,"2474":10745,"Ġcap":10746,"2356":10747,"PKcP":10748,"dx":10749,"libpodofo":10750,"2798":10751,"ErrorC":10752,"4038":10753,"2455":10754,"Ġattribute":10755,"2346":10756,"Ejjjj":10757,"2399":10758,"Compress":10759,"aaaaaab":10760,"2365":10761,"miter":10762,"force":10763,"Kiki":10764,"coENS":10765,"DataD":10766,"PColgp":10767,"Breeze":10768,"Ġgitg":10769,"2461":10770,"pipe":10771,"second":10772,"regs":10773,"MemoryPool":10774,"Ġpvm":10775,"ship":10776,"Files":10777,"2381":10778,"casestr":10779,"markILj":10780,"Ġ128":10781,"avg":10782,"fiers":10783,"Ġjv":10784,"Ġdev":10785,"2679":10786,"EiPKc":10787,"Mix":10788,"Ġ102":10789,"media":10790,"ĠQAction":10791,"2920":10792,"ItemLocation":10793,"SettingsC":10794,"2421":10795,"Plot":10796,"2363":10797,"2434":10798,"Ġlogger":10799,"MAX":10800,"EPKcP":10801,"ĠajStrGetLen":10802,"streamEv":10803,"TreeModel":10804,"shader":10805,"II":10806,"Su":10807,"2405":10808,"2351":10809,"2386":10810,"ltERK":10811,"mas":10812,"Ġ107":10813,"FORMAT":10814,"2432":10815,"mpt":10816,"emalloc":10817,"2830":10818,"QScopedPointerI":10819,"Hint":10820,"2376":10821,"Ġ103":10822,"Ġplank":10823,"2383":10824,"wl":10825,"3080":10826,"2413":10827,"DrawList":10828,"2584":10829,"QRST":10830,"appE":10831,"ratio":10832,"ESC":10833,"LEMENT":10834,"2406":10835,"2377":10836,"QtSharedPointer":10837,"Ġ(\"":10838,"OFConditionaSERKS":10839,"ling":10840,"2392":10841,"ONS":10842,"2359":10843,"2504":10844,"Ġfiles":10845,"argin":10846,"2415":10847,"EEEEEC":10848,"2948":10849,"Security":10850,"ZmiRK":10851,"found":10852,"HTTP":10853,"zier":10854,"Ġmm":10855,"Propagate":10856,"2409":10857,"EEEvRS":10858,"2790":10859,"Quad":10860,"'s":10861,"EiN":10862,"Ġprog":10863,"EEEEESaIS":10864,"Dot":10865,"CCfits":10866,"QCharm":10867,"nan":10868,"pref":10869,"putStringEPK":10870,"2880":10871,"2990":10872,"mapINS":10873,"isd":10874,"ClipperLib":10875,"login":10876,"2417":10877,"widthEv":10878,"pull":10879,"ĠCo":10880,"fors":10881,"cfb":10882,"mpzEv":10883,"2403":10884,"Ġgflog":10885,"utvpiINS":10886,"Ġlibf":10887,"2355":10888,"mapper":10889,"orrent":10890,"Ġ104":10891,"Download":10892,"Pass":10893,"oggle":10894,"2539":10895,"warningEv":10896,"TRA":10897,"lvl":10898,"allocatorIS":10899,"trim":10900,"2524":10901,"2429":10902,"unded":10903,"2433":10904,"quit":10905,"istreambuf":10906,"PPh":10907,"Mime":10908,"ePlayer":10909,"spr":10910,"fde":10911,"2427":10912,"SCR":10913,"isValidEv":10914,"bjects":10915,"ISD":10916,"applet":10917,"2810":10918,"Ġcom":10919,"CoordENS":10920,"Aspect":10921,"Ġadms":10922,"2391":10923,"cvPKcEv":10924,"Slice":10925,"2456":10926,"Ġpr":10927,"2472":10928,"LogWeightTplIfEEEENS":10929,"ability":10930,"Ġmsy":10931,"14159":10932,"rfc":10933,"crc":10934,"Ġrec":10935,"jSt":10936,"EllPNS":10937,"Ġ106":10938,"3078":10939,"Agent":10940,"9999999999999995":10941,"2373":10942,"Cr":10943,"Ġ105":10944,"wxFormatString":10945,"fold":10946,"2395":10947,"ĠValNodeAdd":10948,"2870":10949,"2436":10950,"ssen":10951,"Dasher":10952,"10001":10953,"3160":10954,"TransientC":10955,"2567":10956,"Delegate":10957,"2486":10958,"Ġfits":10959,"Ġxrealloc":10960,"INHER":10961,"2525":10962,"OUT":10963,"Ġtotal":10964,"2452":10965,"Total":10966,"2534":10967,"INHERIT":10968,"history":10969,"subs":10970,"Ġrender":10971,"2505":10972,"ValueERK":10973,"jP":10974,"2423":10975,"remote":10976,"Addres":10977,"2544":10978,"Manag":10979,"2387":10980,"bg":10981,"ABCDEFGH":10982,"2426":10983,"2463":10984,"2529":10985,"2541":10986,"Ġ108":10987,"Ġsequence":10988,"2416":10989,"2604":10990,"2411":10991,"2479":10992,"Ġusage":10993,"2476":10994,"JSContext":10995,"med":10996,"ComponentFormatting":10997,"Ġitem":10998,"Blue":10999,"DAP":11000,"Alias":11001,"4018":11002,"2930":11003,"IiEESaIS":11004,"ONT":11005,"2509":11006,"2451":11007,"2393":11008,"CONTR":11009,"3378":11010,"2419":11011,"2491":11012,"vma":11013,"vs":11014,"radi":11015,"2422":11016,"2998":11017,"Libint":11018,"2441":11019,"EiP":11020,"vvvv":11021,"2447":11022,"heightEv":11023,"Opt":11024,"sph":11025,"vectorIdSaIdEE":11026,"Sys":11027,"2502":11028,"ITY":11029,"datetime":11030,"Far":11031,"GroupEv":11032,"2940":11033,"MetaProperty":11034,"2439":11035,"KLMN":11036,"Sql":11037,"blocked":11038,"Ġwcs":11039,"2467":11040,"rml":11041,"2435":11042,"2890":11043,"3020":11044,"IV":11045,"Analy":11046,"libuna":11047,"ured":11048,"2938":11049,"Kinematics":11050,"2431":11051,"EESC":11052,"2523":11053,"bbb":11054,"orizont":11055,"libcdr":11056,"Expand":11057,"2449":11058,"sound":11059,"Ġ1000":11060,"ClpSimplex":11061,"hilbert":11062,"Inde":11063,"rapidjson":11064,"Ġob":11065,"Attributes":11066,"dip":11067,"sCount":11068,"2459":11069,"QMapNodeIN":11070,"vptr":11071,"EjRK":11072,"SIG":11073,"Ġgkrellm":11074,"2473":11075,"2512":11076,"2437":11077,"2446":11078,"Term":11079,"Crypt":11080,"SIZE":11081,"2554":11082,"InfoEE":11083,"SyncFile":11084,"priority":11085,"2850":11086,"Ġgenie":11087,"2465":11088,"2495":11089,"(\"":11090,"2988":11091,"Pac":11092,"alignedMalloc":11093,"alignedMallocEmm":11094,"wxFileName":11095,"dimension":11096,"2532":11097,"2514":11098,"Web":11099,"hookEPS":11100,"CoinPacked":11101,"Ġfffffffffffffff":11102,"wxFormat":11103,"MatC":11104,"gcn":11105,"2980":11106,"Tr":11107,"2462":11108,"ERi":11109,"ĠWPACKET":11110,"2908":11111,"OpenMS":11112,"equential":11113,"MatE":11114,"cxxmi":11115,"MARK":11116,"2484":11117,"Tracker":11118,"pob":11119,"SegmentDelaunay":11120,"SegmentDelaunayGraph":11121,"lS":11122,"icies":11123,"2978":11124,"Ġsupport":11125,"Ġ109":11126,"minus":11127,"ArcIteratorINS":11128,"2475":11129,"Ġsort":11130,"pairIKm":11131,"2709":11132,"2494":11133,"Found":11134,"ASE":11135,"ICATION":11136,"ByName":11137,"XPKc":11138,"3050":11139,"2497":11140,"Ġltoa":11141,"ancel":11142,"QTable":11143,"custom":11144,"wxObject":11145,"roadcast":11146,"deallocIN":11147,"KLMNOP":11148,"Ix":11149,"2466":11150,"cer":11151,"ĠHPDF":11152,"Ġ110":11153,"2471":11154,"Ġpoint":11155,"ssenger":11156,"conds":11157,"2442":11158,"TypeFlagEE":11159,"5260":11160,"2453":11161,"REAL":11162,"insertEP":11163,"Shot":11164,"Transition":11165,"pose":11166,"MSB":11167,"schema":11168,"2445":11169,"KDb":11170,"wxConfigBase":11171,"QXmlStreamWriter":11172,"ZNSir":11173,"TypeError":11174,"Ġdir":11175,"2515":11176,"owncloud":11177,"chan":11178,"2483":11179,"EEEplEl":11180,"NoText":11181,"2482":11182,"unmap":11183,"ective":11184,"alse":11185,"aqbanking":11186,"parallel":11187,"2624":11188,"Authentic":11189,"uper":11190,"ipv":11191,"Initialize":11192,"ism":11193,"internalize":11194,"AsnRead":11195,"3897":11196,"Ġ111":11197,"sical":11198,"lision":11199,"PRO":11200,"4070":11201,"Ġpart":11202,"reater":11203,"2918":11204,"ous":11205,"PacBio":11206,"units":11207,"EEi":11208,"insn":11209,"ĠCl":11210,"sct":11211,"stanza":11212,"funcname":11213,"2734":11214,"nodes":11215,"vectorImSaIm":11216,"StringHas":11217,"OfPnt":11218,"Apply":11219,"ListC":11220,"QExplicitlySharedDataPointerI":11221,"Codec":11222,"SListOf":11223,"SListOfItemLocation":11224,"CPU":11225,"2496":11226,"OWN":11227,"EEEPPS":11228,"sep":11229,"compareERKS":11230,"TypeEEC":11231,"GU":11232,"2457":11233,"Blend":11234,"2536":11235,"ĠUn":11236,"2526":11237,"nsec":11238,"initEPNS":11239,"EmptyString":11240,"adjustment":11241,"2545":11242,"MgrGet":11243,"Nation":11244,"ErrSet":11245,"2506":11246,"2596":11247,"acq":11248,"globjects":11249,"chat":11250,"events":11251,"EEEi":11252,"ĠBio":11253,"Xa":11254,"heapIN":11255,"getInstance":11256,"okie":11257,"incrementPSt":11258,"vectorIfSaIfEE":11259,"2546":11260,"2634":11261,"Torrent":11262,"headers":11263,"IntProperty":11264,"addps":11265,"Ġ`":11266,"2477":11267,"sqal":11268,"2970":11269,"tii":11270,"2499":11271,"firm":11272,"EAM":11273,"iteration":11274,"IvN":11275,"soft":11276,"2547":11277,"2485":11278,"CID":11279,"detachEi":11280,"constructibleIS":11281,"PointerTosrm":11282,"2652":11283,"2958":11284,"Ultra":11285,"Ġstrtoul":11286,"IJKLMNOP":11287,"nameIcEE":11288,"namespace":11289,"2564":11290,"2489":11291,"ldadd":11292,"tb":11293,"TransientnwEm":11294,"TINS":11295,"2487":11296,"GetString":11297,"Ġmsyy":11298,"cos":11299,"ChannelMode":11300,"Ġappend":11301,"brush":11302,"destruct":11303,"Nb":11304,"aly":11305,"writeiPKcz":11306,"Ġ*,":11307,"patternsEv":11308,"IPKv":11309,"ENGINE":11310,"EEEvPT":11311,"prec":11312,"comparison":11313,"EERKT":11314,"zebo":11315,"ĠImage":11316,"HA":11317,"Ġhwloc":11318,"dummy":11319,"relations":11320,"asprintf":11321,"3028":11322,"hmann":11323,"LUT":11324,"VM":11325,"2507":11326,"resolution":11327,"3008":11328,"ĠBinary":11329,"StringHasNoText":11330,"Click":11331,"2481":11332,"2559":11333,"TreeEP":11334,"2616":11335,"2960":11336,"Listener":11337,"memss":11338,"xmmss":11339,"ible":11340,"030":11341,"HDF":11342,"2542":11343,"lessIjESa":11344,"registerConverter":11345,"2521":11346,"Ġ120":11347,"achable":11348,"555555555555":11349,"dataE":11350,"EEEEEEE":11351,"subpd":11352,"2566":11353,"Ġ112":11354,"gate":11355,"ingest":11356,"2647":11357,"Ġexpr":11358,"2950":11359,"anded":11360,"2614":11361,"ĠGetImage":11362,"2513":11363,"ZNSirsER":11364,"2517":11365,"2949":11366,"2511":11367,"assignable":11368,"ĠFLAGS":11369,"POS":11370,"POP":11371,"3018":11372,"addrinfo":11373,"ĠDo":11374,"2626":11375,"rdat":11376,"Convex":11377,"sC":11378,"rationalP":11379,"BasicImageIteratorINS":11380,"QWeak":11381,"Appro":11382,"lang":11383,"2522":11384,"Ġsepol":11385,"ĠInit":11386,"ome":11387,"storageE":11388,"PdS":11389,"PKcb":11390,"extensions":11391,"2549":11392,"keyword":11393,"fffffffffffff":11394,"vectorElPNS":11395,"2574":11396,"2531":11397,"2569":11398,"2602":11399,"SaIb":11400,"2527":11401,"4098":11402,"barrier":11403,"setCheck":11404,"GObject":11405,"Igno":11406,"2537":11407,"fpPKdPdS":11408,"cda":11409,"NO":11410,"2469":11411,"2516":11412,"2553":11413,"3100":11414,"LIB":11415,"duration":11416,"Ġ127":11417,"TexCoord":11418,"2543":11419,"2533":11420,"mouse":11421,"vpsrl":11422,"afc":11423,"LSP":11424,"Ġfm":11425,"Os":11426,"ABCDEFGHIJKLMNOP":11427,"nest":11428,"libmatroska":11429,"rpl":11430,"ĠQAbstractButton":11431,"journal":11432,"cipal":11433,"ments":11434,"MathStructureixEm":11435,"ATAL":11436,"0020":11437,"Ġknot":11438,"2613":11439,"Ġafter":11440,"2615":11441,"nm":11442,"3120":11443,"Ġprobe":11444,"Ġ114":11445,"Received":11446,"marshal":11447,"shu":11448,"ice":11449,"QGraphicsItem":11450,"toIntEP":11451,"3003":11452,"2643":11453,"www":11454,"newSV":11455,"ImageImport":11456,"FLAGS":11457,"Ġiso":11458,"OVE":11459,"2595":11460,"Ġ116":11461,"MaskIteratorINS":11462,"Ġ113":11463,"bPSt":11464,"magic":11465,"2557":11466,"3370":11467,"gered":11468,"Fixed":11469,"2571":11470,"ĠFormatString":11471,"Ġcertificate":11472,"ĠEx":11473,"0000000000000001":11474,"QImage":11475,"traitsIcESaIcEEESB":11476,"pugi":11477,"dcmp":11478,"bz":11479,"2519":11480,"listI":11481,"Wait":11482,"2577":11483,"gd":11484,"2535":11485,"Units":11486,"plain":11487,"pkt":11488,"QDataStream":11489,"Directed":11490,"Ġaction":11491,"injector":11492,"2555":11493,"2585":11494,"2627":11495,"dlg":11496,"Password":11497,"ActiveAllocation":11498,"GImAllocatorActiveAllocation":11499,"GImAllocatorActiveAllocationsCount":11500,"6000":11501,"Vrml":11502,"Cairo":11503,"2561":11504,"mpzLb":11505,"2612":11506,"Ġwait":11507,"Ġrequired":11508,"IiESt":11509,"2563":11510,"cccccccccccccccccccccccccccccccc":11511,"daeRefCounted":11512,"daeRefCountedObj":11513,"2552":11514,"':":11515,"3108":11516,"libq":11517,"rebalancebPSt":11518,"signals":11519,"Ġmulti":11520,"hx":11521,"4080":11522,"Ġmore":11523,"Ġbcmp":11524,"swapERS":11525,"eac":11526,"2583":11527,"ixEPKc":11528,"listIP":11529,"ccc":11530,"2664":11531,"2606":11532,"3605":11533,"Folder":11534,"mn":11535,"ltEEEEvT":11536,"declPN":11537,"Ġ115":11538,"orizontal":11539,"ABCDEFGHIJKLMNOPQRST":11540,"2631":11541,"ather":11542,"3110":11543,"Hit":11544,"ighter":11545,"blocks":11546,"triggered":11547,"StepVisual":11548,"EEEEEv":11549,"asr":11550,"Circ":11551,"Metrics":11552,"MyMoneyAccount":11553,"memoryEv":11554,"ĠChanged":11555,"ĠMenu":11556,"2727":11557,"2695":11558,"ebml":11559,"Written":11560,"2565":11561,"adab":11562,"2576":11563,"NGram":11564,"SingletonINS":11565,"QTimer":11566,"Ġquery":11567,"4050":11568,"solverI":11569,"Ġback":11570,"2556":11571,"Ġqsort":11572,"rnd":11573,"2605":11574,"Rad":11575,"AndS":11576,"2801":11577,"\"\\":11578,"Cgl":11579,"QAbstractItemModel":11580,"2625":11581,"ancy":11582,"Joint":11583,"Ġft":11584,"ised":11585,"versation":11586,"2747":11587,"CoinMessageHandler":11588,"nlohmann":11589,"2656":11590,"iterEEvT":11591,"4058":11592,"2572":11593,"fld":11594,"ZSteqRKSt":11595,"2699":11596,"stor":11597,"modify":11598,"\"âĢ¦\"":11599,"cfun":11600,"Ġunexpected":11601,"ASC":11602,"adl":11603,"2644":11604,"contextEv":11605,"ĠStr":11606,"ChannelInfo":11607,"StringPiece":11608,"ermine":11609,"XS":11610,"verage":11611,"Activities":11612,"Ġtrack":11613,"2573":11614,"xfffffe":11615,"Ġcmark":11616,"3010":11617,"2593":11618,"?\"":11619,"purify":11620,"sprite":11621,"Ġposition":11622,"erfuffle":11623,"OMP":11624,"AI":11625,"2597":11626,"iteratorIPPN":11627,"Ġwmemcpy":11628,"ĠIN":11629,"2654":11630,"bands":11631,"cXML":11632,"UNT":11633,"cartesian":11634,"likeIT":11635,"adL":11636,"libfreerdp":11637,"Ġfilename":11638,"Ġmemchr":11639,"copyEPNS":11640,"deallocI":11641,"errorD":11642,"2655":11643,"ConvertPtrP":11644,"2592":11645,"ddb":11646,"2562":11647,"ens":11648,"feature":11649,"LengthEv":11650,"3290":11651,"IncEv":11652,"2582":11653,"zz":11654,"ptrIKN":11655,"ebp":11656,"exists":11657,"2689":11658,"compareERK":11659,"daeSmartRefIN":11660,"4059":11661,"refIncEv":11662,"Registry":11663,"2609":11664,"QAbstractItemView":11665,"ppC":11666,"libwinpr":11667,"Ġlen":11668,"dh":11669,"2551":11670,"Ġit":11671,"2587":11672,"2579":11673,"ecx":11674,"Ġscan":11675,"KJob":11676,"Interactive":11677,"Ġtol":11678,"2642":11679,"allocateEmPKv":11680,"wc":11681,"bds":11682,"2632":11683,"ContractViolationls":11684,"circle":11685,"sidue":11686,"2575":11687,"StringN":11688,"Ġtarget":11689,"ĠServer":11690,"lseek":11691,"2611":11692,"Http":11693,"ngram":11694,"Ġstrspn":11695,"Ġrpl":11696,"Ġattr":11697,"2712":11698,"2879":11699,"2603":11700,"exprEP":11701,"QDebuglsERK":11702,"CCuddNavigator":11703,"BU":11704,"StateSet":11705,"GetTextPKc":11706,"VectorStateINS":11707,"Front":11708,"growEii":11709,"Ġnn":11710,"appb":11711,"ĠChangedBags":11712,"2639":11713,"obs":11714,"quency":11715,"route":11716,"toggled":11717,"nation":11718,"ImDrawList":11719,"IiED":11720,"Ġ\";":11721,"omx":11722,"2672":11723,"2581":11724,"opcode":11725,"textEv":11726,"cols":11727,"WidgetC":11728,"2586":11729,"vr":11730,"Unique":11731,",\\":11732,"ĠLoad":11733,"2684":11734,"2641":11735,"2665":11736,"NSA":11737,"cmalloc":11738,"OFStringS":11739,"ESB":11740,"DD":11741,"Ebml":11742,"Ġlarge":11743,"GetRe":11744,"constDataEv":11745,"timestamp":11746,"PixelTemplate":11747,"Ġgetopt":11748,"ĠBioseq":11749,"Ġmprintf":11750,"Ġmask":11751,"reports":11752,"Ġfai":11753,"2717":11754,"dfe":11755,"History":11756,"xabac":11757,"BACK":11758,"strlcat":11759,"2591":11760,"APPL":11761,"dcmimg":11762,"Env":11763,"Ġarv":11764,"2694":11765,"Swap":11766,"dcmimgle":11767,"Ġlin":11768,"dcmimgleLogger":11769,"scanf":11770,"4460":11771,"Ġtemplate":11772,"ImVector":11773,"4060":11774,"ExceptionObject":11775,"schedule":11776,"2745":11777,"2726":11778,"Ġtolua":11779,"2607":11780,"missing":11781,"Objects":11782,"HO":11783,"pg":11784,"2799":11785,"Upper":11786,"pairIj":11787,"Ġsqrtf":11788,"2619":11789,"2714":11790,"IhNS":11791,"2674":11792,"xabacadab":11793,"arguments":11794,"flate":11795,"aac":11796,"Ġ118":11797,"2637":11798,"Ġgame":11799,"Ġlevel":11800,"Nav":11801,"sections":11802,"features":11803,"based":11804,"ObjectPtr":11805,"ln":11806,"7931":11807,"2874":11808,"Ġ117":11809,"luid":11810,"QStyleOption":11811,"astR":11812,"EEEixERSE":11813,"sharing":11814,"Ġoperation":11815,"ifier":11816,"2682":11817,"etc":11818,"propagator":11819,"finished":11820,"served":11821,"Selector":11822,"Prim":11823,"dependencyE":11824,"2702":11825,"Ġqlite":11826,"Selected":11827,"ErrSetContext":11828,"identifier":11829,"ĠIS":11830,"abstract":11831,"2589":11832,"Ġvalues":11833,"imize":11834,"TranslationRK":11835,"2836":11836,"gearm":11837,"PolicyE":11838,"scrolled":11839,"quote":11840,"KScreen":11841,"2686":11842,"2599":11843,"Ġrotr":11844,"EPKcmm":11845,"wxGetTranslationRK":11846,"gpPKdPdS":11847,"2636":11848,"Ġtri":11849,"snd":11850,"SU":11851,"2804":11852,"QPointerI":11853,"posix":11854,"curl":11855,"Bank":11856,"ĠajStrNew":11857,"2617":11858,"2697":11859,"ErrorD":11860,"2841":11861,"posERS":11862,"Ġthan":11863,"LVL":11864,"2706":11865,"implementations":11866,"2692":11867,"ĠXSet":11868,"EiiP":11869,"ngle":11870,"Ġdiagnostic":11871,"enodeELb":11872,"Ġsetup":11873,"2754":11874,"Cmp":11875,"havi":11876,"svPPvP":11877,"astEPKc":11878,"ighbor":11879,"metacastEPKc":11880,"AsnWrite":11881,"nullE":11882,"EdeEv":11883,"2704":11884,"TreeView":11885,"2774":11886,"cvtps":11887,"comisd":11888,"2649":11889,"NodeType":11890,"Rectangle":11891,"canvas":11892,"2756":11893,"Win":11894,"appendEv":11895,"2623":11896,"2669":11897,"Ġui":11898,"QXmlStreamReader":11899,"stand":11900,"UST":11901,"Used":11902,"QWeakPointerI":11903,"insertIPKv":11904,"dle":11905,"Spe":11906,"insertIPKvEERSoT":11907,"galera":11908,"ifIXsrSt":11909,"tArray":11910,"QMetaTypeIdI":11911,"ofPK":11912,"ESaISD":11913,"structS":11914,"GPINS":11915,"Ġcms":11916,"GNU":11917,"2703":11918,"Messenger":11919,"freehand":11920,"Cd":11921,"2645":11922,"2661":11923,"Owner":11924,"decoder":11925,"6610":11926,"ĠAsnWrite":11927,"TDataStd":11928,"DT":11929,"Ġ119":11930,"istered":11931,"DN":11932,"QSqlQuery":11933,"Ġdisallowed":11934,"3320":11935,"2666":11936,"writ":11937,"EELi":11938,"2662":11939,"allow":11940,"vectorIfSaIf":11941,"PointILi":11942,"Ġdae":11943,"opo":11944,"2651":11945,"6612":11946,"2735":11947,"Kerfuffle":11948,"2715":11949,"2629":11950,"2635":11951,"iltIn":11952,"beta":11953,"...":11954,"cre":11955,"2707":11956,"Ġqueue":11957,"nMessage":11958,"libfreehand":11959,"libqxp":11960,"shufflehi":11961,"WM":11962,"IbLj":11963,"TextEdit":11964,"2766":11965,"ĠajStrAssignS":11966,"ĠState":11967,"DjVu":11968,"gazebo":11969,"CF":11970,"lon":11971,"3180":11972,"2701":11973,"3338":11974,"AttributeERK":11975,"2681":11976,"dst":11977,"2744":11978,"2667":11979,"DataMapNodeOf":11980,"Ġyyleng":11981,"getEj":11982,"2685":11983,"ImageExport":11984,"2646":11985,"2687":11986,"PIX":11987,"2802":11988,"2716":11989,"payload":11990,"2659":11991,"IPFb":11992,"2719":11993,"policies":11994,"2713":11995,"ifstreamIcSt":11996,"terminal":11997,"cclosure":11998,"2803":11999,"3128":12000,"DataEE":12001,"Ġatof":12002,"2622":12003,"Ġ123":12004,"Ġgiven":12005,"BR":12006,"2683":12007,"2746":12008,"tStringC":12009,"EEEEOT":12010,"EUl":12011,"psll":12012,"Values":12013,"2621":12014,"BS":12015,"3118":12016,"admin":12017,"Ġpluginlib":12018,"deallocateERS":12019,"delt":12020,"Cat":12021,"ĠActive":12022,"traitsIcESaIcEEEPN":12023,"SrcPano":12024,"emonic":12025,"YPE":12026,"QMapIi":12027,"pository":12028,"2806":12029,"Ġwarning":12030,"uninit":12031,"Exist":12032,"orrect":12033,"abe":12034,"2633":12035,"ans":12036,"Platform":12037,"3138":12038,"ingle":12039,"ĠQHashData":12040,"Ġsystem":12041,"notebook":12042,"2696":12043,"2786":12044,"2705":12045,"collection":12046,"Ġrpc":12047,"2676":12048,"3779":12049,"EPKcSt":12050,"IES":12051,"ISF":12052,"MeshNode":12053,"timeval":12054,"general":12055,"2725":12056,"Ġ126":12057,"2854":12058,"aybe":12059,"Two":12060,"ĠValNodeAddPointer":12061,"ededc":12062,"Drag":12063,"masq":12064,"2763":12065,"fopen":12066,"rules":12067,"Ġdoc":12068,"managerELj":12069,"MakeBinding":12070,"5000":12071,"2671":12072,"lectr":12073,"2824":12074,"Ġgnutls":12075,"Ġba":12076,"2691":12077,"2722":12078,"cEERS":12079,"IjLj":12080,"EmRKS":12081,"FONT":12082,"Ġinsert":12083,"Propagator":12084,"2693":12085,"Iterable":12086,"lerance":12087,"failf":12088,"ToolTip":12089,"2724":12090,"SrcPanoImage":12091,"2677":12092,"EiPKv":12093,"Emit":12094,"gstr":12095,"OFList":12096,"Pix":12097,"uation":12098,"Ġ121":12099,"contain":12100,"APPLICATION":12101,"accessor":12102,"MagickException":12103,"Addressee":12104,"Ġlibcdata":12105,"DomProperty":12106,"6680":12107,"3140":12108,"Ġfluid":12109,"under":12110,"Ġtrace":12111,"ESH":12112,"lra":12113,"2765":12114,"mullo":12115,"6470":12116,"QTreeWidget":12117,"3200":12118,"Ġ124":12119,"varP":12120,"Rel":12121,".*":12122,"LeafNodeIbLj":12123,"jjPKc":12124,"4700":12125,"MatcherINS":12126,"2675":12127,"Act":12128,"Toggle":12129,"DNS":12130,"rib":12131,"ecb":12132,"stringB":12133,"EESB":12134,"ĠxnOS":12135,"poco":12136,"spell":12137,"cvflann":12138,"RVNGString":12139,"EmPKc":12140,"Ġ#%":12141,"xfree":12142,"quish":12143,"implILm":12144,"3210":12145,"),":12146,"Eddd":12147,"dSet":12148,"dget":12149,"3636":12150,"2736":12151,"dab":12152,"illa":12153,"more":12154,"daeElement":12155,"Ġsetting":12156,"Hop":12157,"2752":12158,"2729":12159,"Transport":12160,"Eiiiii":12161,"Sched":12162,"StandardConst":12163,"Disable":12164,"Product":12165,"reducer":12166,"symbolPKc":12167,"2755":12168,"2733":12169,"Ġrasqal":12170,"Ġus":12171,"Ġ125":12172,"black":12173,"fields":12174,"ĠSET":12175,"scal":12176,"Ġaes":12177,"Ġrtc":12178,"QConcatenable":12179,"Ġdnsmasq":12180,"rdn":12181,"chooser":12182,"rationalED":12183,"Ġfp":12184,"Ġglib":12185,"uit":12186,"jid":12187,"wxArrayString":12188,"ePlayerNetID":12189,"tisa":12190,"IsNullEv":12191,"cvttps":12192,"2781":12193,"HDR":12194,"Ġauto":12195,"Ġxtisa":12196,"Ġtree":12197,"2894":12198,"LoggerEE":12199,"objEv":12200,"Ġ'\"":12201,"funcs":12202,"unguarded":12203,"2776":12204,"2723":12205,"Unsupported":12206,"4068":12207,"White":12208,"dll":12209,"fresh":12210,"uintIS":12211,"GraphI":12212,"vpaddd":12213,"Ġhe":12214,"2749":12215,"2663":12216,"ranap":12217,"STATE":12218,"Ġbcm":12219,"vectorIdLb":12220,"dee":12221,"].":12222,"Plan":12223,"ustringE":12224,"Ġ122":12225,"handlers":12226,"2757":12227,"valueEi":12228,"Ġslotvec":12229,"nodeEE":12230,"2844":12231,"implL":12232,"3168":12233,"traitsIS":12234,"3278":12235,"2673":12236,"apps":12237,"copyILb":12238,"2817":12239,"LEB":12240,"3150":12241,"udy":12242,"Wrong":12243,"ere":12244,"ĠGemRB":12245,"addEP":12246,"stringEP":12247,"chor":12248,"Ctrl":12249,"QPen":12250,"80008000":12251,"2762":12252,"Moni":12253,"2751":12254,"2764":12255,"vectorIbSaIb":12256,"blk":12257,"markI":12258,"leanup":12259,"iterI":12260,"Small":12261,"gP":12262,"3130":12263,"2739":12264,"peat":12265,"ReferenceI":12266,"FH":12267,"2753":12268,"ElementSaIS":12269,"assignableIS":12270,"QExplicitlySharedDataPointerIN":12271,"ImGuiWindow":12272,"IfED":12273,"EEPS":12274,"copyEP":12275,"replica":12276,"mempool":12277,"EVT":12278,"bErr":12279,"PosibErr":12280,"2791":12281,"destroyIS":12282,"NodeEPv":12283,"orders":12284,"Annot":12285,"EndEv":12286,"PI":12287,"IndexEv":12288,"Pm":12289,"replacer":12290,"negER":12291,"ingestion":12292,"parameterD":12293,"ARCH":12294,"linquish":12295,"Ġsession":12296,"ategor":12297,"ERSi":12298,"2772":12299,"TNaming":12300,"EPKcRKNS":12301,"nocheck":12302,"vectorIPK":12303,"Cost":12304,"xccccc":12305,"2867":12306,"ImageRegion":12307,"gmpq":12308,"Ġmodi":12309,"00000002":12310,"2737":12311,"2759":12312,"quad":12313,"2834":12314,"3178":12315,"pairIKjSt":12316,"Ġhelp":12317,"entials":12318,"2789":12319,"2805":12320,"ĠDecode":12321,"FATAL":12322,"QDialogButton":12323,"4088":12324,"2812":12325,"xn":12326,"QSharedPointerI":12327,"4100":12328,"IhPPh":12329,"XM":12330,"3004":12331,"NET":12332,"xffffffffffff":12333,"2784":12334,"QTab":12335,"ĠRelinquish":12336,"Ġrecord":12337,"Ġ\"**":12338,"17013":12339,"2822":12340,"DO":12341,"Paths":12342,"2785":12343,"security":12344,"iiS":12345,"Ġvariable":12346,"Subscri":12347,"ATH":12348,"lessIm":12349,"ĠAlphabet":12350,"Pt":12351,"2741":12352,"xstat":12353,"Ġrepl":12354,"ĠThrowMagickException":12355,"2849":12356,"2807":12357,"notEP":12358,"digit":12359,"ĠdaeSmartRef":12360,"2721":12361,"2779":12362,"MagickInfo":12363,"TopAbs":12364,"2814":12365,"loadu":12366,"strtab":12367,"wt":12368,"TypeB":12369,"2775":12370,"setIS":12371,"2796":12372,"displayERSo":12373,"2797":12374,"ThemeERK":12375,"4090":12376,"2795":12377,"uffer":12378,"calculate":12379,"ĠMCOperand":12380,"2769":12381,"NEW":12382,"elements":12383,"andidate":12384,"afe":12385,"2809":12386,"2773":12387,"Dr":12388,"SQ":12389,"gb":12390,"strbcasestr":12391,"2761":12392,"Ġwcslen":12393,"eqEE":12394,"InAssert":12395,"ĠwxTrap":12396,"ĠwxTrapInAssert":12397,"kic":12398,"EnabledEv":12399,"gproc":12400,"Exporter":12401,"ĠcupsFile":12402,"ffffffe":12403,"cessible":12404,"selector":12405,"2895":12406,"dem":12407,"extent":12408,"MEM":12409,"Random":12410,"adaptive":12411,"bde":12412,"Fatal":12413,"Ġ\"('":12414,"sieve":12415,"ParticleSystem":12416,"2847":12417,"ĠMy":12418,"3400":12419,"anon":12420,"2731":12421,"2913":12422,"half":12423,"2742":12424,"leveldb":12425,"ĠajSeq":12426,"aste":12427,"QDomDocument":12428,"nilES":12429,"2787":12430,"NormalizedType":12431,"registerNormalizedType":12432,"2783":12433,"gap":12434,"2743":12435,"QPairI":12436,"ĠCurrent":12437,"mulpd":12438,"========":12439,"eds":12440,"cmdl":12441,"SymbolTable":12442,"declLb":12443,"cfc":12444,"2957":12445,"PNG":12446,"IRCDMessage":12447,"Preview":12448,"3158":12449,"LDOM":12450,"Ġ129":12451,"Acc":12452,"3606":12453,"GeoMap":12454,"ElementERK":12455,"acy":12456,"oneEv":12457,"Ġextract":12458,"PointerObj":12459,"pairISt":12460,"MatESaIS":12461,"=âĢ¦\"":12462,"ListNode":12463,"OnLine":12464,"2901":12465,"Ġspace":12466,"radio":12467,"StepF":12468,"2782":12469,"Ġ\"/\"":12470,"ItemD":12471,"ImERKT":12472,"indicator":12473,"Ġsearch":12474,"Ġresponse":12475,"Ġ%*":12476,"QStringPN":12477,"ICMPv":12478,"Coordinate":12479,"TropicalWeightTplIfE":12480,"Ġwin":12481,"2815":12482,"cade":12483,"ximgproc":12484,"KB":12485,"NewPointerObj":12486,"traverse":12487,"2821":12488,"ĠBUG":12489,"2859":12490,"QPush":12491,"Timeout":12492,"amd":12493,"fact":12494,"OnlineSearch":12495,"2902":12496,"ExceptionE":12497,"Fields":12498,"ĠNsock":12499,"KGeoMap":12500,"QRectF":12501,"2827":12502,"3188":12503,"Ġ130":12504,"2794":12505,"pcap":12506,"ISaIv":12507,"Trig":12508,"1010000":12509,"QStringPKc":12510,"2732":12511,"2829":12512,"QIconC":12513,"dC":12514,"ĠOCC":12515,"3504":12516,"QV":12517,"hape":12518,"ListIJEEEv":12519,"Ġ\"(%":12520,"Media":12521,"Manage":12522,"Importer":12523,"3600":12524,"ĠElm":12525,"2904":12526,"tags":12527,"acb":12528,"3470":12529,"GetError":12530,"3330":12531,"107100":12532,"rationalj":12533,"EbE":12534,"Cred":12535,"Contents":12536,"10102464":12537,"infof":12538,"ImSt":12539,"2923":12540,"2832":12541,"absolute":12542,"Ġbtf":12543,"leftEPSt":12544,"JRKS":12545,"forwardIRKN":12546,"Ġpas":12547,"2835":12548,"Matrixd":12549,"3300":12550,"2864":12551,"sint":12552,"fromThemeERK":12553,"bul":12554,"Ġzone":12555,"tupleIJDpT":12556,"Ġextra":12557,"2793":12558,"ĠPr":12559,"entities":12560,"2819":12561,"Ġjd":12562,"implINS":12563,"ĠRSA":12564,"3398":12565,"freedesktop":12566,"libk":12567,"Period":12568,"POPMARK":12569,"Rename":12570,"2811":12571,"NodeES":12572,"gbigint":12573,"Ġda":12574,"managerjjPKc":12575,"pairINS":12576,"managed":12577,"vals":12578,"ccccd":12579,"Ġroar":12580,"Ġuti":12581,"2777":12582,"ĠJim":12583,"fefffffffffffff":12584,"Columns":12585,"LSB":12586,"ZNSolsEd":12587,"shutdown":12588,"isNullEv":12589,"Ġjpeg":12590,"gobjEv":12591,"2771":12592,"declERK":12593,"FileInfo":12594,"3218":12595,"2823":12596,"cmpgtb":12597,"istic":12598,"uture":12599,"Scheme":12600,"kicad":12601,"helperERKS":12602,"___":12603,"UInt":12604,"Ġnation":12605,"ĠUnable":12606,"dEv":12607,"StyleE":12608,"managerINS":12609,"moneypunct":12610,"Ġgrid":12611,"2876":12612,"True":12613,"PtrI":12614,"ofstreamIcSt":12615,"machine":12616,"2813":12617,"gh":12618,"Ġ134":12619,"ĠThe":12620,"nothrow":12621,"DES":12622,"2826":12623,"Colors":12624,"PropertyManager":12625,"2843":12626,"2857":12627,"hsail":12628,"AddERK":12629,"3064":12630,"appendEm":12631,"2842":12632,"Ġ360":12633,"pulsecore":12634,"Switch":12635,"dcc":12636,"Ġraw":12637,"2792":12638,"StepFEA":12639,"Ġdest":12640,"Swig":12641,"manip":12642,"macros":12643,"Ġpgm":12644,"IbE":12645,"decayIT":12646,"Ġ131":12647,"2865":12648,"KH":12649,"RF":12650,"ListE":12651,"Ġmove":12652,"Soft":12653,"FAIL":12654,"Encrypt":12655,"Ġsettings":12656,"2994":12657,"Topology":12658,"KConfigSkeleton":12659,"2875":12660,"2884":12661,"appPK":12662,"ĠCheck":12663,"trusive":12664,"3039":12665,"consi":12666,"QLocale":12667,"Ġparsing":12668,"traitsIcESaIcEEERKNS":12669,"dataPdPKdS":12670,"Commands":12671,"cw":12672,"Circle":12673,"dataC":12674,"Ġ132":12675,"DownCast":12676,"2882":12677,"QForeachContainer":12678,"ncat":12679,"ĠFormatLocale":12680,"trackableC":12681,"Decoration":12682,"intP":12683,"transp":12684,"Ġwork":12685,"genie":12686,"constructIPK":12687,"Ġmd":12688,"rk":12689,"QObjectN":12690,"2833":12691,"Border":12692,"MatrixIdLi":12693,"pas":12694,"2839":12695,"PathEv":12696,"2845":12697,"Ġfcntl":12698,"unlink":12699,"arc":12700,"comms":12701,"libf":12702,"2855":12703,"vtkOStreamWrapperlsEPKc":12704,"BuiltIn":12705,"tpm":12706,"Ġregion":12707,"rem":12708,"stderr":12709,"home":12710,"StringB":12711,"ARB":12712,"refE":12713,"2831":12714,"Upload":12715,"pdb":12716,"capacity":12717,"COL":12718,"Delay":12719,"Ġ135":12720,"Ġ133":12721,"2853":12722,"predicate":12723,"statement":12724,"PTRI":12725,"2851":12726,"longP":12727,"eced":12728,"plan":12729,"2907":12730,"2881":12731,"3348":12732,"DSA":12733,"exprIA":12734,"2873":12735,"Ġavailable":12736,"SyncIo":12737,"2852":12738,"3258":12739,"Ġuni":12740,"2914":12741,"IcSaIcEE":12742,"EEcvbEv":12743,"URI":12744,"fmcomms":12745,"SharedPtrINS":12746,"exprii":12747,"arrow":12748,"2837":12749,"PFvPv":12750,"ĠajStrMatch":12751,"Chart":12752,"2877":12753,"ĠCopy":12754,"Named":12755,"rootEv":12756,"2866":12757,"FromLong":12758,"ImRect":12759,"decrement":12760,"Ġflush":12761,"orrupt":12762,"2893":12763,"ISaIvEEEEEv":12764,"binding":12765,"IvEEEEEEEEEEEEEENS":12766,"noexcept":12767,"Ġssh":12768,"QStringNS":12769,"Conflict":12770,"DEV":12771,"Ġoverflow":12772,"2816":12773,"Ġnuma":12774,"ffffffffffffffc":12775,"2974":12776,"Cantor":12777,"lbool":12778,"nofld":12779,"Ġjdnofld":12780,"glfw":12781,"3540":12782,"invocation":12783,"2927":12784,"gitg":12785,"Ġcolumn":12786,"qRegister":12787,"asket":12788,"calendar":12789,"0560":12790,"2905":12791,"Fighter":12792,"sqlite":12793,"2861":12794,"2863":12795,"hu":12796,"Ġfill":12797,"11248":12798,"3230":12799,"BitStream":12800,"caster":12801,"OnMaskIteratorINS":12802,"IZ":12803,"Ġsetsockopt":12804,"2906":12805,"KW":12806,"IvEEEEEEEEEENS":12807,"memm":12808,"setIP":12809,"trackableENS":12810,"STL":12811,"Ġlv":12812,"ICE":12813,"channels":12814,"Ġimap":12815,"4078":12816,"2825":12817,"2871":12818,"Collision":12819,"sago":12820,"More":12821,"ErrPost":12822,"EEvRS":12823,"mnemonic":12824,"Ġ136":12825,"2909":12826,"cefc":12827,"Ġmng":12828,"Bullet":12829,"Ġtestnum":12830,"3170":12831,"Dealloc":12832,"CommandLineParser":12833,"Ġaddr":12834,"xffe":12835,"oint":12836,"vlv":12837,"3198":12838,"decls":12839,"QSet":12840,"fdelt":12841,"after":12842,"ToolBar":12843,"2899":12844,"2896":12845,"orph":12846,"svectorIjjEC":12847,"ĠwxDefault":12848,"psubsb":12849,"3418":12850,"Prev":12851,"EESF":12852,"EESD":12853,"stroke":12854,"ntILb":12855,"moveIRP":12856,"byt":12857,"2924":12858,"2891":12859,"CompactFstImplINS":12860,"QStringRef":12861,"GetTokenOnLine":12862,"llu":12863,"thing":12864,"Ġcont":12865,"Behavi":12866,"dsa":12867,"4654":12868,"3033":12869,"transi":12870,"Proj":12871,"Insp":12872,"3044":12873,"mmEv":12874,"2933":12875,"xfffffffffffff":12876,"Colour":12877,"2020202020202020":12878,"hl":12879,"depay":12880,"typename":12881,"3034":12882,"inator":12883,"2967":12884,"ccl":12885,"10624":12886,"valueES":12887,"Ġix":12888,"Dht":12889,"ComponentFormattingOptionEE":12890,"NECT":12891,"2936":12892,"3190":12893,"SharedConfig":12894,"svect":12895,"lessIiESaISt":12896,"OptionEEC":12897,"3220":12898,"Ġpan":12899,"\\\\":12900,"lipse":12901,"2889":12902,"restart":12903,"3099":12904,"2984":12905,"QStandardItem":12906,"bufferIN":12907,"resultILb":12908,"LINE":12909,"race":12910,"Ġexecutor":12911,"ving":12912,"stISD":12913,"eCoord":12914,"Events":12915,"maskz":12916,"appEiijPKP":12917,"ĠPEM":12918,"FileWriter":12919,"Ġsmprintf":12920,"2846":12921,"errorEb":12922,"Ġbtd":12923,"traitsIcESaIcEEaSERKS":12924,"Ġ150":12925,"addir":12926,"Termin":12927,"coreEP":12928,"IvNS":12929,"gcs":12930,"WriteConfig":12931,"ĠPACKET":12932,"Ġ139":12933,"2897":12934,"cfed":12935,"dmr":12936,"anteced":12937,"5126":12938,"2942":12939,"Cube":12940,"2911":12941,"cel":12942,"ĠCP":12943,"Qml":12944,"54442":12945,"Separator":12946,"msafile":12947,"BER":12948,"3001":12949,"QDateTimeD":12950,"088":12951,"Ġwriting":12952,"stringIcS":12953,"2932":12954,"EEEELb":12955,"grade":12956,"Ġ137":12957,"2921":12958,"ah":12959,"2929":12960,"DeleteEbb":12961,"prefs":12962,"Ġenc":12963,"Keys":12964,"ĠQtCurve":12965,"2931":12966,"3270":12967,"analy":12968,"3228":12969,"signalObserver":12970,"sAndDeleteEbb":12971,"signalObserversAndDeleteEbb":12972,"EVP":12973,"setCurrent":12974,"DEFA":12975,"Fod":12976,"dynamicMetaObject":12977,"3054":12978,"markup":12979,"typesEvE":12980,"KSharedConfig":12981,"dataEEONSt":12982,"2944":12983,"*\"":12984,"Ġoptget":12985,"boundEPSt":12986,"Ġusing":12987,"Ġnow":12988,"QTextStreamlsEPKc":12989,"3658":12990,"ContentTransp":12991,"2892":12992,"amel":12993,"FilterState":12994,"RVNGStringD":12995,"2903":12996,"Ġdatabase":12997,"rated":12998,"Statistics":12999,"ebook":13000,"Basket":13001,"Fodder":13002,"stringESaIS":13003,"reserveEm":13004,"QSpin":13005,"Slider":13006,"ĠreturnErrorPtr":13007,"2883":13008,"utation":13009,"lmd":13010,"2862":13011,"ipe":13012,"Ġtfp":13013,"2887":13014,"TS":13015,"MagickCore":13016,"AsciiStringC":13017,"ocl":13018,"2915":13019,"ddd":13020,"svectorIi":13021,"DownCastERK":13022,"2886":13023,"shake":13024,"Ġcat":13025,"iff":13026,"3036":13027,"iteratorINSt":13028,"Ġencode":13029,"ndup":13030,"Weapon":13031,"_$":13032,"IdEEE":13033,"failure":13034,"tacticR":13035,"2955":13036,"logging":13037,"StandardConstValueAccessor":13038,"initializer":13039,"freeDataEPS":13040,"2885":13041,"EESA":13042,"dataIS":13043,"2653589":13044,"090":13045,"ategories":13046,"2869":13047,"Information":13048,"ReadOnly":13049,"lmdSa":13050,"ccdf":13051,"ImageVariable":13052,"QMapNodeBasei":13053,"3350":13054,"ONENT":13055,"valueERK":13056,"freeTreeEP":13057,"2954":13058,"2997":13059,"Ġ140":13060,"Clipboard":13061,"3091":13062,"Ġcrc":13063,"ĠENGINE":13064,"3440":13065,"ASTRef":13066,"3448":13067,"sqr":13068,"memmem":13069,"Locker":13070,"3450":13071,"unable":13072,"PKcRK":13073,"3014":13074,"retch":13075,"ancestor":13076,"SequenceNodeOf":13077,"getInstanceEv":13078,"FileAccess":13079,"arity":13080,"Sim":13081,"Phrase":13082,"sdf":13083,"2934":13084,"3280":13085,"2872":13086,"Quali":13087,"Ġcontrol":13088,"PoolAllocatorIS":13089,"ws":13090,"Activity":13091,"'âĢ¦\"":13092,"UnitConversion":13093,"EEP":13094,"2939":13095,"Fiel":13096,"eter":13097,"3009":13098,"KUnitConversion":13099,"EV":13100,"Ġxccdf":13101,"Ġround":13102,"QTypedArrayDataIS":13103,"3208":13104,"xaaaaaaab":13105,"lmdSaNS":13106,"ĠMEM":13107,"3025":13108,"3077":13109,"DOS":13110,"hbox":13111,"Ġlibbpf":13112,"speed":13113,"3031":13114,"iteratorIPNSt":13115,"4140":13116,"2973":13117,"3005":13118,"2925":13119,"mmed":13120,"2996":13121,"exe":13122,"cn":13123,"direction":13124,"LayoutEP":13125,"Surf":13126,"CDF":13127,"3490":13128,"filters":13129,"constructIPKwEEvT":13130,"26535897931":13131,"Ġlseek":13132,"Ġ138":13133,"tColoredString":13134,"Eiib":13135,"2912":13136,"3024":13137,"2985":13138,"lexer":13139,"ĠĠĠĠĠĠĠĠĠ":13140,"Linf":13141,"center":13142,"2935":13143,"2956":13144,"2856":13145,"CImgIhE":13146,"2917":13147,"2922":13148,"DataEEE":13149,"consistent":13150,"recognized":13151,"OFPair":13152,"2937":13153,"Ġhex":13154,"pdataP":13155,"PPc":13156,"epMC":13157,"4150":13158,"2010000":13159,"ItemBase":13160,"ĠObj":13161,"eba":13162,"Ġfb":13163,"Apoll":13164,"2964":13165,"DEFAULT":13166,"EiijPK":13167,"DUChain":13168,"iiiii":13169,"Ġdynamic":13170,"EEvRKT":13171,"3500":13172,"Ġfileno":13173,"FieldReader":13174,"MakeIdentifier":13175,"QObjectE":13176,"ĠELM":13177,"onius":13178,"libbpf":13179,"2966":13180,"Apollonius":13181,"OutputArrayE":13182,"Actual":13183,"libebook":13184,"2916":13185,"Precision":13186,"Ġty":13187,"limits":13188,"exprjE":13189,"Ġsupp":13190,"3006":13191,"Ġ141":13192,"2943":13193,"sD":13194,"Ġred":13195,"EERK":13196,"1415926535897931":13197,"2963":13198,"2992":13199,"PreconditionViolation":13200,"BSplineCurve":13201,"ReferenceCounter":13202,"3800":13203,"2945":13204,"3488":13205,"icmp":13206,"plERKS":13207,"2969":13208,"2986":13209,"EPKcl":13210,"mapIi":13211,"conversation":13212,"vrr":13213,"3074":13214,"etric":13215,"jsonISt":13216,"WindowTypeEEC":13217,"3240":13218,"Si":13219,"2965":13220,"FieldReaderIterator":13221,"Ġreceived":13222,"2959":13223,"GetEv":13224,"3368":13225,"2989":13226,"Please":13227,"ColorRole":13228,"sci":13229,"SQLite":13230,"Ġ143":13231,"Permission":13232,"RangeError":13233,"Subscriber":13234,"QTypedArrayDataIP":13235,"Ġ144":13236,"Relation":13237,"Ġctx":13238,"Ebug":13239,"atEi":13240,"3094":13241,"ATTR":13242,"ErrorMessage":13243,"2971":13244,"jEE":13245,"ĠTcl":13246,"AGE":13247,"cu":13248,"ĠĠĠĠĠĠĠĠĠĠĠĠĠĠĠ":13249,"Ġ145":13250,"2976":13251,"fish":13252,"3310":13253,"Certificate":13254,"Ġer":13255,"2972":13256,"QProcess":13257,"Ġmodel":13258,"xaaaaaaaaaaaaa":13259,"Ġixgbe":13260,"afddc":13261,"ToolTipERK":13262,"QVariantED":13263,"ilities":13264,"Actor":13265,"2919":13266,"Ġprotocol":13267,"2962":13268,"2946":13269,"3035":13270,"metacallEP":13271,"recursive":13272,"IjSa":13273,"Ġdate":13274,"ĠDES":13275,"dbm":13276,"Join":13277,"DX":13278,"reground":13279,"activity":13280,"SaIl":13281,"IndexedMap":13282,"Ġsyscall":13283,"2982":13284,"3318":13285,"Watcher":13286,"DEX":13287,"kunit":13288,"kunitconversion":13289,"SHAD":13290,"ceeded":13291,"Bezier":13292,"3248":13293,"ench":13294,"2979":13295,"3125":13296,"forwardIRK":13297,"ewf":13298,"KAbout":13299,"cofactor":13300,"3250":13301,"RegularExpression":13302,"Emb":13303,"3017":13304,"3007":13305,"threshold":13306,"3022":13307,"3079":13308,"TeX":13309,"OSD":13310,"2961":13311,"ScanStats":13312,"generator":13313,"connected":13314,"ConstructParams":13315,"xpath":13316,"unn":13317,"2953":13318,"Wrapped":13319,"metic":13320,"charset":13321,"Ġactive":13322,"Ġsch":13323,"hood":13324,"SEC":13325,"separator":13326,"addActionERK":13327,"pairIKNS":13328,"Blx":13329,"usion":13330,"subr":13331,"JSObject":13332,"4024000000000000":13333,"DataMapOf":13334,"3124":13335,"3012":13336,"Pci":13337,"3021":13338,"3510":13339,"rbuf":13340,"2987":13341,"Ġ\"./../../":13342,"EEEcvR":13343,"vectorIjSaIj":13344,"DataSet":13345,"QPixmapD":13346,"Ġ142":13347,"ReleasePolicy":13348,"Popup":13349,"ruleset":13350,"Parsing":13351,"SaISA":13352,"3084":13353,"Visible":13354,"helperEPK":13355,"3002":13356,"Ġacl":13357,"2981":13358,"sls":13359,"vfs":13360,"libopenvdb":13361,"dirs":13362,"2926":13363,"EEELm":13364,"Appender":13365,"osort":13366,"ither":13367,"IdED":13368,"Ġwindows":13369,"3043":13370,"UINT":13371,"grab":13372,"Ġcdw":13373,"QSequential":13374,"edgeIN":13375,"psrlqi":13376,"kill":13377,"Ġquick":13378,"Terrain":13379,"3029":13380,"sizeof":13381,"traitsIcEELb":13382,"3298":13383,"eqEPKc":13384,"3238":13385,"Ġet":13386,"och":13387,"pairIKiS":13388,"City":13389,"pluginEv":13390,"Ġalign":13391,"Ġinteger":13392,"ZTVN":13393,"typeEEOS":13394,"OFConditionC":13395,"3340":13396,"Sago":13397,"inference":13398,"rash":13399,"ĠxmlNew":13400,"ENTR":13401,"Native":13402,"ĠSnprintf":13403,"Ġsdp":13404,"Points":13405,"Associative":13406,"fec":13407,"valueENS":13408,"Features":13409,"3638":13410,"introsort":13411,"Ġ\"\"\"":13412,"Ġzero":13413,"Ġmpd":13414,"DEC":13415,"ERP":13416,"atio":13417,"2993":13418,"columns":13419,"toph":13420,"Ġwidth":13421,"tic":13422,"ĠFEwrong":13423,"coreERKS":13424,"emy":13425,"posEv":13426,"Mag":13427,"OFConditionConst":13428,"Ġ147":13429,"Mismatch":13430,"2941":13431,"colo":13432,"osgUtil":13433,"Plain":13434,"4118":13435,"oku":13436,"white":13437,"2983":13438,"Same":13439,"FieldDescriptor":13440,"literalEP":13441,"EiPK":13442,"4110":13443,"QVectorIP":13444,"4044":13445,"Destruct":13446,"Ecm":13447,"Execution":13448,"tagE":13449,"9820":13450,"iN":13451,"FvvEEEN":13452,"pcrecpp":13453,"intEi":13454,"Ġparent":13455,"3408":13456,"gli":13457,"Ġcontains":13458,"naco":13459,"3328":13460,"2947":13461,"varEP":13462,"voie":13463,"MagickMemory":13464,"faENS":13465,"amellia":13466,"indexEv":13467,"subERK":13468,"nameIcEC":13469,"Ġbound":13470,"Composite":13471,"Echo":13472,"drive":13473,"Regex":13474,"vectorIiSaIiEEixEm":13475,"Ġnto":13476,"2952":13477,"Ġ149":13478,"legro":13479,"CAL":13480,"visual":13481,"precondition":13482,"Highlighting":13483,"CdlInterpreter":13484,"3055":13485,"IPNSt":13486,"pem":13487,"cvttpd":13488,"infoC":13489,"2975":13490,"Rende":13491,"managerELb":13492,"ZNSaIw":13493,"ĠCorpo":13494,"2999":13495,"mP":13496,"gre":13497,"headend":13498,"Ġ\"+\"":13499,"HOT":13500,"XnSensor":13501,"3428":13502,"LogWeightTplIfEEEEE":13503,"MakeString":13504,"3013":13505,"2951":13506,"FORM":13507,"2147483648":13508,"HF":13509,"ĠCannot":13510,"walk":13511,"VCard":13512,"glGet":13513,"ĠClone":13514,"/../":13515,"3460":13516,"stock":13517,"tophits":13518,"abb":13519,"Checker":13520,"Unlink":13521,"star":13522,"2977":13523,"PointESaIS":13524,"Disco":13525,"QTabWidget":13526,"2995":13527,"mutate":13528,"Compressor":13529,"3135":13530,"cupt":13531,"BasicImageINS":13532,"Ġfors":13533,"Intel":13534,"goalEptEv":13535,"istringstream":13536,"Cm":13537,"3026":13538,"ebc":13539,"Ġast":13540,"SHADOW":13541,"ĠOpen":13542,"metacallEN":13543,"Vga":13544,"([":13545,"3081":13546,"Ġns":13547,"3075":13548,"AddString":13549,"istri":13550,"dpi":13551,"3104":13552,"Cluster":13553,"REL":13554,"Ġstrl":13555,"mini":13556,"addItemEP":13557,"3478":13558,"logies":13559,"pmsg":13560,"baseINSt":13561,"ĠImGui":13562,"CSP":13563,"IVE":13564,"ElementEv":13565,"equalsERK":13566,"prv":13567,"IconERK":13568,"3049":13569,"icsftok":13570,"3051":13571,"Ġ148":13572,"3680":13573,"negEv":13574,"fwrite":13575,"3027":13576,"(!!":13577,"apt":13578,"allocateERS":13579,"3438":13580,"ĠAS":13581,"Shell":13582,"4008":13583,"tdl":13584,"3019":13585,"arena":13586,"3011":13587,"registerEP":13588,"UVW":13589,"(!!((":13590,"ĠMake":13591,"Ls":13592,"Threshold":13593,"sB":13594,"Ġmsyystring":13595,"AccessorIS":13596,"mont":13597,"Half":13598,"Ġxfree":13599,"3056":13600,"3430":13601,"cSt":13602,"sibl":13603,"ARD":13604,"bp":13605,"seed":13606,"CImgIsE":13607,"IdEET":13608,"vt":13609,"3360":13610,"3364":13611,"traitsIcE":13612,"3057":13613,"3037":13614,"3114":13615,"4160":13616,"3016":13617,"Ġ151":13618,"ij":13619,"3117":13620,"SettingItem":13621,"Ġgd":13622,"Off":13623,"3308":13624,"rops":13625,"HB":13626,"gearman":13627,"pmix":13628,"EjRKS":13629,"3410":13630,"3648":13631,"tex":13632,"functionIFv":13633,"Ġlocaltime":13634,"TE":13635,"Ġ146":13636,"ANN":13637,"gjs":13638,"atEm":13639,"traitsIcESaIcEEixEm":13640,"Ġul":13641,"ChangedLineIndex":13642,"3260":13643,"setToolTipERK":13644,"EPKciiPvS":13645,"errorEbPKcS":13646,"eol":13647,"ButtonCustom":13648,"pixmap":13649,"Approx":13650,"********":13651,"3023":13652,"Ġdat":13653,"proccl":13654,"setree":13655,"Modifier":13656,"prog":13657,"ĠwxEmptyString":13658,"3061":13659,"IdSa":13660,"ConstBasicImageIterator":13661,"QVBoxLayoutC":13662,"4138":13663,"3062":13664,"preview":13665,"mapISt":13666,"AppendERK":13667,"ways":13668,"3106":13669,"COMPONENT":13670,"pq":13671,"CacheStateINS":13672,"3288":13673,"pat":13674,"2991":13675,"Libr":13676,"ĠSeqMgrGet":13677,"3142":13678,"3067":13679,"3358":13680,"Ġqfits":13681,"008":13682,"iterIPFb":13683,"PEG":13684,"SolverInterface":13685,"5208":13686,"symbolS":13687,"Ġcmpwrd":13688,"3066":13689,"Ġmi":13690,"3089":13691,"MetaTypeI":13692,"KcSaIS":13693,"toIj":13694,"ĠTerm":13695,"ĠFDK":13696,"ung":13697,"Ġtrying":13698,"obex":13699,"rategy":13700,"umbn":13701,"matrixIddE":13702,"editor":13703,"availablelength":13704,"matic":13705,"3268":13706,"3116":13707,"limitint":13708,"Payload":13709,"TimeZone":13710,"ieve":13711,"ift":13712,"QRegularExpression":13713,"lsEi":13714,"3041":13715,"3069":13716,"toupper":13717,"Ġ153":13718,"Ġ\"./../../../":13719,"3045":13720,"prod":13721,"EvRT":13722,"reating":13723,"frames":13724,"Ġsha":13725,"bility":13726,"Ġros":13727,"sctput":13728,"dcmim":13729,"tEOT":13730,"lineno":13731,"apvlv":13732,"3042":13733,"iRK":13734,"dime":13735,"3628":13736,"3065":13737,"3212":13738,"download":13739,"3164":13740,"3063":13741,"FodderElementSaIS":13742,"ecf":13743,"tooltip":13744,"awn":13745,"QDBusArgument":13746,"Minimum":13747,"Ġreturned":13748,"Ġpage":13749,"GM":13750,"nist":13751,"Ġpool":13752,"3458":13753,"RdS":13754,"fread":13755,"tiff":13756,"PY":13757,"Cre":13758,"UnitTest":13759,"tracker":13760,"3105":13761,"Macro":13762,"BN":13763,"3251":13764,"dbe":13765,"markedEP":13766,"3093":13767,"vucomisd":13768,"3608":13769,"Ġice":13770,"ShapeD":13771,"StandardValueAccessor":13772,"Affine":13773,"mlERKNS":13774,"ingEv":13775,"Trigger":13776,"inz":13777,"Dev":13778,"KG":13779,"isk":13780,"umbnail":13781,"blend":13782,"3103":13783,"3705":13784,"stmt":13785,"3085":13786,"https":13787,"LocationE":13788,"games":13789,"Ġnames":13790,"Ġ200":13791,"Phy":13792,"3047":13793,"4148":13794,"buffers":13795,"3214":13796,"setCheckedEb":13797,"3185":13798,"cube":13799,"ĠReadBlobByte":13800,"pkey":13801,"traitsIcESaIcEEEm":13802,"vertible":13803,"3046":13804,"punpckl":13805,"(&_":13806,"55555556":13807,"mcounter":13808,"Ġdbg":13809,"3132":13810,"Ġinte":13811,"Ġpam":13812,"4108":13813,"3640":13814,"InfoD":13815,"compiled":13816,"Ġatan":13817,"sizeERKS":13818,"Optim":13819,"BoolePolyRing":13820,"Ġcompile":13821,"QStringENKUlvE":13822,"lient":13823,"upsd":13824,"Ġxdr":13825,"3334":13826,"GOT":13827,"erson":13828,"Try":13829,"CUR":13830,"resultEP":13831,"ridge":13832,"3153":13833,"3206":13834,"erical":13835,"Maximum":13836,"wxLogger":13837,"iteEP":13838,"3219":13839,"oneE":13840,"QDialogButtonBox":13841,"Finished":13842,"demangle":13843,"unnel":13844,"EEcv":13845,"4168":13846,"icro":13847,"mapSt":13848,"tagEEENS":13849,"BaseDiff":13850,"ĠMEMBaseDiff":13851,"functionIF":13852,"dg":13853,"3095":13854,"4130":13855,"satL":13856,"setC":13857,"3015":13858,"Ġtimeout":13859,"typeESt":13860,"Feedback":13861,"language":13862,"Ġyylval":13863,"3656":13864,"EEh":13865,"Peer":13866,"Html":13867,"Ġres":13868,"MessageBox":13869,"peated":13870,"lstring":13871,"Repository":13872,"GPU":13873,"ListD":13874,"attrs":13875,"3096":13876,"promote":13877,"labels":13878,"050":13879,"80000001":13880,"valEv":13881,"3171":13882,"ZZZ":13883,"3169":13884,"Brainz":13885,"ominator":13886,"two":13887,"ifstream":13888,"Ġitk":13889,"xpressive":13890,"QByteArrayE":13891,"6564":13892,"baseILm":13893,"ĠRelinquishMagickMemory":13894,"3076":13895,"IsKind":13896,"completion":13897,"3129":13898,"tempt":13899,"RL":13900,"hpmcounter":13901,"enume":13902,"SyntaxHighlighting":13903,"Ġreset":13904,"ERAL":13905,"PM":13906,"3083":13907,"ptrISaISt":13908,"ASResource":13909,"3072":13910,"3059":13911,"invalidate":13912,"3269":13913,"basename":13914,"Indent":13915,"4120":13916,"3189":13917,"3111":13918,"GetChar":13919,"3294":13920,"Ġmount":13921,"ListEv":13922,"EiPKvj":13923,"amount":13924,"traitsIcESaIcEEEPNS":13925,"RGBValueIdLj":13926,"3052":13927,"3650":13928,"hidden":13929,"Bus":13930,"ĠTechnologies":13931,"3146":13932,"atoms":13933,"EPvNS":13934,"3073":13935,"3109":13936,"3053":13937,"ĠFL":13938,"ISaINS":13939,"3177":13940,"translated":13941,"sip":13942,"ITK":13943,"EESE":13944,"QSequentialIterable":13945,"configure":13946,"fun":13947,"REG":13948,"QTreeView":13949,"DigestUpdate":13950,"Ġsetlocale":13951,"30000":13952,"ĠCMS":13953,"Ġfin":13954,"5218":13955,"setSize":13956,"MusicBrainz":13957,"launch":13958,"3668":13959,"Fon":13960,"traitsIcESaIcEEpLEPKc":13961,"Undo":13962,"ReferenceCounterENS":13963,"3149":13964,"strfree":13965,"3141":13966,"Ġutils":13967,"Disk":13968,"Ġgts":13969,"3119":13970,"Ġdestroy":13971,"Arrow":13972,"TRANS":13973,"udoku":13974,"3196":13975,"3092":13976,"dynamicMetaObjectEv":13977,"listISt":13978,"3032":13979,"Clone":13980,"matcher":13981,"060":13982,"folder":13983,"Dw":13984,"3112":13985,"managerP":13986,"raid":13987,"divERK":13988,"valueEP":13989,"4200":13990,"3144":13991,"Dfs":13992,"fallback":13993,"nex":13994,"PFvRS":13995,"Ġplay":13996,"3134":13997,"Ġmet":13998,"EEvE":13999,"Uint":14000,"Ġ*âĢ¦\"":14001,"sur":14002,"xfffffffa":14003,"fmpz":14004,"codeE":14005,"median":14006,"bdb":14007,"exprjS":14008,"correct":14009,"xcccccccd":14010,"4170":14011,"updt":14012,"3737":14013,"10008":14014,"nodeISA":14015,"Ġ155":14016,"blt":14017,"attemp":14018,"3071":14019,"KSyntaxHighlighting":14020,"3176":14021,"idf":14022,"span":14023,"3087":14024,"3139":14025,"Got":14026,"undle":14027,"inti":14028,"Ġccp":14029,"400000000":14030,"NodeC":14031,"3115":14032,"efree":14033,"3480":14034,"exprPN":14035,"EPKcNS":14036,"3152":14037,"hashEj":14038,"3151":14039,"Kill":14040,"ĠCorporation":14041,"iface":14042,"DY":14043,"kmp":14044,"RowCut":14045,"3101":14046,"3224":14047,"3590":14048,"multiply":14049,"argE":14050,"Cwise":14051,"listen":14052,"Ġrfc":14053,"4002":14054,"ĠCould":14055,"3184":14056,"3498":14057,"readEPcl":14058,"Ett":14059,"objects":14060,"Ġ152":14061,"stb":14062,"traitsIcESaIcEEEblmdSaNS":14063,"3420":14064,"AUT":14065,"3161":14066,"gmpn":14067,"idE":14068,"AndSize":14069,"QSettings":14070,"Artin":14071,"3113":14072,"ArtinPresentation":14073,"3121":14074,"Ġgrl":14075,"IiLj":14076,"relocateEPS":14077,"hP":14078,"instanti":14079,"3878":14080,"ĠValid":14081,"VS":14082,"vbox":14083,"lick":14084,"3630":14085,"MSG":14086,"3249":14087,"DataType":14088,"ErrPostEx":14089,"3192":14090,"EventE":14091,"Immutable":14092,"3468":14093,"3102":14094,"Ġbeen":14095,"ĠExiting":14096,"autofs":14097,"dataIN":14098,"Resolution":14099,"3126":14100,"3086":14101,"2147483647":14102,"3174":14103,"nodeIJ":14104,"Ġdialog":14105,"4248":14106,"undo":14107,"ListIteratorOfListOfShape":14108,"CBraid":14109,"3097":14110,"3594":14111,"vectorIhSaIhEE":14112,"3123":14113,"ĠwxLOG":14114,"ShortDenseIndexSet":14115,"fat":14116,"fdc":14117,"3225":14118,"parameterlist":14119,"rowse":14120,"Dd":14121,"OpenMode":14122,"3122":14123,"3167":14124,"10000000000000001":14125,"3610":14126,"ruleE":14127,"Fontii":14128,"before":14129,"aaa":14130,"3082":14131,"3154":14132,"Linked":14133,"Ġ154":14134,"Prob":14135,"Ġcompare":14136,"3244":14137,"4062":14138,"zoom":14139,"hoc":14140,"4190":14141,"4041":14142,"ĠParse":14143,"3159":14144,"UserData":14145,"rank":14146,"perl":14147,"Ġmark":14148,"Branch":14149,"3226":14150,"traitsIcEEE":14151,"3147":14152,"QKeySequenceD":14153,"3199":14154,"rationalEv":14155,"vectorIjSaIjEE":14156,"gk":14157,"atern":14158,"rain":14159,"gcd":14160,"iostream":14161,"StateDatabase":14162,"HLRBRep":14163,"Classification":14164,"Ġ156":14165,"KFile":14166,"4158":14167,"3107":14168,"Cor":14169,"179692":14170,"Jreen":14171,"REC":14172,"1711248":14173,"LF":14174,"enodeEP":14175,"pP":14176,"3312":14177,"3233":14178,"mes":14179,"Ġignore":14180,"enodeE":14181,"4074":14182,"PIXEL":14183,"sEE":14184,"strfreev":14185,"createNode":14186,"Ġfeof":14187,"colors":14188,"ĠDraw":14189,"Ġsample":14190,"dcmnet":14191,"Ġrequires":14192,"GWEN":14193,"devices":14194,"smtfd":14195,"nick":14196,"5210":14197,"Tolerance":14198,"3254":14199,"raSERKS":14200,"4004":14201,"3287":14202,"WRECK":14203,"3136":14204,"psi":14205,"3156":14206,"MIN":14207,"compatible":14208,"Prefs":14209,"3204":14210,"3305":14211,"3155":14212,"nodeE":14213,"STREAM":14214,"QUrlC":14215,"QMapIN":14216,"}\\":14217,"ĠErrorQuit":14218,"ntop":14219,"FormatE":14220,"DSRTypes":14221,"gid":14222,"OpINS":14223,"NV":14224,"lvname":14225,"ĠGF":14226,"3173":14227,"3172":14228,"swer":14229,"3262":14230,"ISH":14231,"ĠActiveGAPState":14232,"ListItem":14233,"Ġinst":14234,"3194":14235,"Filtered":14236,"defun":14237,"Ġpixel":14238,"4039":14239,"ArrayIiLi":14240,"sz":14241,"IPKcEERS":14242,"HistogramArc":14243,"tupleIJEEEOT":14244,"Preferences":14245,"3143":14246,"3397":14247,"Dump":14248,"Ġrecv":14249,"intro":14250,"LIN":14251,"4128":14252,"3131":14253,"3229":14254,"hmac":14255,"tpmtok":14256,"3341":14257,"3205":14258,"plink":14259,"INTOBJ":14260,"UnicodeStringD":14261,"3678":14262,"Formatted":14263,"Utility":14264,"Drum":14265,"ParseTuple":14266,"ANTL":14267,"VO":14268,"using":14269,"ccatok":14270,"3133":14271,"Ġnotify":14272,"texture":14273,"ICK":14274,"Implementation":14275,"ITS":14276,"3137":14277,"pea":14278,"ĠMT":14279,"3157":14280,"iRT":14281,"Ġ157":14282,"ItemERK":14283,"4021":14284,"ĠAln":14285,"pairIKjS":14286,"fffffffPKcz":14287,"DrawFontii":14288,"DrawFontiifffffffPKcz":14289,"traitsIcEED":14290,"EiR":14291,"KNOWN":14292,"public":14293,"Bulk":14294,"3163":14295,"cfdd":14296,"Frontend":14297,"3560":14298,"HP":14299,"ossl":14300,"3145":14301,"xlan":14302,"Fre":14303,"Ġprogname":14304,"ciph":14305,"iterIZN":14306,"without":14307,"3222":14308,"cript":14309,"3232":14310,"3197":14311,"3808":14312,"EPFS":14313,"gig":14314,"ANTLR":14315,"3195":14316,"secure":14317,"3216":14318,"predicates":14319,"3165":14320,"Ġlabel":14321,"ObjectPath":14322,"deallocEPN":14323,"deref":14324,"imate":14325,"3162":14326,"3366":14327,"partial":14328,"PTopo":14329,"PTopoDS":14330,"3221":14331,"ĠXt":14332,"Machine":14333,"VID":14334,"traitsIcNS":14335,"fcitx":14336,"3245":14337,"CKET":14338,"Complex":14339,"ItemSelection":14340,"SignalProxy":14341,"ObjectEv":14342,"actions":14343,"tices":14344,"forge":14345,"membe":14346,"xffffffd":14347,"eof":14348,"sdsl":14349,"origin":14350,"rough":14351,"QIconRK":14352,"Ġ:\\":14353,"QCommandLineOption":14354,"Prep":14355,"ĠreturnErrorInt":14356,"EEEEES":14357,"Keyword":14358,"Ġgx":14359,"StandardButton":14360,"mapIcE":14361,"EnumTypeE":14362,"@@@@":14363,"containsERK":14364,"3234":14365,"3564":14366,"Hook":14367,"Ġpt":14368,"AVal":14369,"srl":14370,"3279":14371,"ursion":14372,"Ġreplace":14373,"Lang":14374,"ntIN":14375,"cac":14376,"BotInfo":14377,"3127":14378,"Ġ158":14379,"3700":14380,"limap":14381,"Inf":14382,"3558":14383,"Mapping":14384,"TC":14385,"take":14386,"Rotate":14387,"3736":14388,"3182":14389,"bpm":14390,"Ġce":14391,"readEntry":14392,"3276":14393,"ĠOpenBabel":14394,"polygon":14395,"LIGHT":14396,"Ġhere":14397,"3193":14398,"LocalFile":14399,"ErrorHandler":14400,"xcl":14401,"Ġmailimap":14402,"inder":14403,"ZNSirsERi":14404,"Inverse":14405,"eParticleSystem":14406,"Ġxstrdup":14407,"3183":14408,"3202":14409,"listINS":14410,"Ġsu":14411,"mpzj":14412,"IDEv":14413,"3207":14414,"Than":14415,"StyleContext":14416,"3175":14417,"3166":14418,"3550":14419,"OFIterator":14420,"categoryNameEv":14421,"3692":14422,"lenEmPKc":14423,"ĠDT":14424,"mz":14425,"3227":14426,"wxSizer":14427,"Ġcoda":14428,"cppdb":14429,"Quantity":14430,"Cancel":14431,"exprEC":14432,"Slave":14433,"SimpleType":14434,"Ġph":14435,"drag":14436,"Generate":14437,"Adapter":14438,"slow":14439,"Stock":14440,"cascade":14441,"Attach":14442,"adds":14443,"3518":14444,"contact":14445,"LocationC":14446,"Ġ\"^":14447,"pci":14448,"pairIKiN":14449,"entryILin":14450,"harp":14451,"3217":14452,"3259":14453,"ĠSync":14454,"jobscheduler":14455,"nump":14456,"flagsEPS":14457,"STUB":14458,"ME":14459,"Ġ160":14460,"ReadLine":14461,"ĠXFree":14462,"parmERKNSt":14463,"eptEv":14464,"3256":14465,"NameB":14466,"cnf":14467,"resizeEj":14468,"trailIN":14469,"ĠMem":14470,"assumptionEE":14471,"4163":14472,"cmpnum":14473,"ZlsR":14474,"3454":14475,"MatExprD":14476,"nested":14477,"Dna":14478,"varray":14479,"Day":14480,"elfl":14481,"33333":14482,"ĠEnter":14483,"preferences":14484,"3950":14485,"algorithm":14486,"ĠajStrAppend":14487,"Tick":14488,"EEEvRKT":14489,"3213":14490,"MMgt":14491,"hashIj":14492,"3223":14493,"3179":14494,"sdp":14495,"pointEv":14496,"ĠFFAdd":14497,"3191":14498,"3670":14499,"cNSt":14500,"Verify":14501,"3243":14502,"IsLj":14503,"FingerTest":14504,"newmortal":14505,"Ġ159":14506,"umb":14507,"Ġftell":14508,"3336":14509,"3257":14510,"floor":14511,"Configure":14512,"equation":14513,"3267":14514,"3304":14515,"managerEEaSEPS":14516,"3508":14517,"3186":14518,"Hand":14519,"strncpy":14520,"3323":14521,"Ġ167":14522,"3396":14523,"3548":14524,"3578":14525,"Reuse":14526,"Ġ...":14527,"4228":14528,"managerb":14529,"Ġlat":14530,"sortIN":14531,"Ġorder":14532,"3187":14533,"ĠVersion":14534,"UltraProbe":14535,"SimpleListD":14536,"Pressed":14537,"ĠLLC":14538,"UNKNOWN":14539,"canon":14540,"REQ":14541,"allet":14542,"ĠSt":14543,"printi":14544,"castEP":14545,"Unary":14546,"3445":14547,"insertERK":14548,"embreeL":14549,"Sock":14550,"tiny":14551,"Ġnp":14552,"Ġbet":14553,"Ġmow":14554,"Spacing":14555,"Ġmowgli":14556,"spline":14557,"posESt":14558,"3291":14559,"ield":14560,"cec":14561,"pearance":14562,"Ġrta":14563,"Mess":14564,"lies":14565,"membuf":14566,"rypto":14567,"uction":14568,"edata":14569,"CheckedEv":14570,"Based":14571,"3181":14572,"AVL":14573,".,":14574,"VTK":14575,"ĠTime":14576,"3307":14577,"4180":14578,"3274":14579,"3255":14580,"QStringListD":14581,"3580":14582,"relative":14583,"3660":14584,"OFF":14585,"4778":14586,"3264":14587,"rightmostEv":14588,"printiPKcz":14589,"ZTVSt":14590,"Journal":14591,"StringCat":14592,"521974":14593,"3201":14594,"Mapper":14595,"3235":14596,"bbc":14597,"QCommandLineParser":14598,"ipt":14599,"ĠIO":14600,"dequeIN":14601,"3344":14602,"ToERKNS":14603,"*)\"":14604,"vpshu":14605,"WidthEv":14606,"Ġresult":14607,"impEE":14608,"rationalEC":14609,"linker":14610,"Ġfmpz":14611,"ArrayOf":14612,"Ġfgetc":14613,"Contin":14614,"Person":14615,"ould":14616,"3688":14617,"madd":14618,"encies":14619,"nodeEEEPSt":14620,"3528":14621,"3247":14622,"3285":14623,"KConfigSkeletonItem":14624,"Black":14625,"formed":14626,"3840":14627,"findEcm":14628,"3211":14629,"rout":14630,"3314":14631,"traitsIcESaIcEEEESt":14632,"3698":14633,"3265":14634,"3237":14635,"3295":14636,"CLE":14637,"ReverseArcINS":14638,"fork":14639,"3538":14640,"sortEPK":14641,"QHashIN":14642,"AssignERKS":14643,"QMapDataIS":14644,"IPush":14645,"Rate":14646,"QMetaTypeIdIN":14647,"4069":14648,"Collector":14649,"Ġcf":14650,"vectorIcSaIcEE":14651,"QObjectPKc":14652,"IjLb":14653,"MAP":14654,"PointerINS":14655,"Ġ161":14656,"atomELb":14657,"4001":14658,"Crt":14659,"elflink":14660,"KActivities":14661,"GaucheModule":14662,"cartesianINS":14663,"Nc":14664,"stable":14665,"Ġradlog":14666,"MyStrC":14667,"3242":14668,"3253":14669,"3277":14670,"hz":14671,"3342":14672,"ImplTo":14673,"4250":14674,"Pdt":14675,"3810":14676,"optim":14677,"Ġwattr":14678,"ĠDay":14679,"uncnstr":14680,"3582":14681,"IsKindERK":14682,"Ġbnx":14683,"IntegerFilterState":14684,"Ġdp":14685,"Drawable":14686,"gio":14687,"CHECK":14688,"3634":14689,"xnl":14690,"Ġoff":14691,"3620":14692,"3588":14693,"ĠcupsArray":14694,"LogC":14695,"decrementPSt":14696,"previous":14697,"3598":14698,"wxEventFunctor":14699,"ColorGroup":14700,"arb":14701,"ĠPyLong":14702,"LinkType":14703,"got":14704,"4031":14705,"3241":14706,"3203":14707,"3272":14708,"Expanded":14709,"3306":14710,"Java":14711,"listener":14712,"3444":14713,"ĠajStrToken":14714,"3870":14715,"principal":14716,"GBase":14717,"ptrIS":14718,"3324":14719,"SyncFileItem":14720,"QSpinBox":14721,"3354":14722,"OrClp":14723,"Ġclosedir":14724,"8859":14725,"Disc":14726,"iteratorIcSt":14727,"3424":14728,"clERKS":14729,"ĠPl":14730,"eTeam":14731,"vectorNSt":14732,"spl":14733,"Ġwill":14734,"ĠConfig":14735,"Ġsegment":14736,"ABCDEFGHIJKLMNOPQRSTUVW":14737,"unmanaged":14738,"Ġlarg":14739,"Ġ163":14740,"xs":14741,"pLE":14742,"toUtf":14743,"3376":14744,"Ġproperty":14745,"intEv":14746,"bfrops":14747,"Brig":14748,"ĠĠĠĠĠĠĠĠĠĠĠĠĠ":14749,"Lite":14750,"3570":14751,"QMapNodeIP":14752,"3252":14753,"3236":14754,"Async":14755,"QObjectD":14756,"Ġparams":14757,"CharPtr":14758,"uring":14759,"3434":14760,"stk":14761,"writeEPKcl":14762,"pairIKiSt":14763,"limitintIm":14764,"3275":14765,"contin":14766,"3888":14767,"SequenceNodeOfSequenceOf":14768,"3321":14769,"3530":14770,"ĠajReg":14771,"3209":14772,"punpck":14773,"deleted":14774,"MonoOutput":14775,"3534":14776,"ImageIORegion":14777,"KGui":14778,"fclose":14779,"SHA":14780,"3263":14781,"Ġisns":14782,"3910":14783,"EERKN":14784,"Desktop":14785,"LAG":14786,"3355":14787,"Rak":14788,"pen":14789,"Props":14790,"suffix":14791,"vf":14792,"3303":14793,"3436":14794,"3292":14795,"Trim":14796,"3293":14797,"XnProperty":14798,"QKeySequenceC":14799,"QDBusObjectPath":14800,"Tmp":14801,"3289":14802,"submit":14803,"Flow":14804,"QColorC":14805,"san":14806,"LSPClient":14807,"denominator":14808,"hostname":14809,"3283":14810,"hpPKdPdS":14811,"Ġdict":14812,"3730":14813,"3231":14814,"3215":14815,"Environment":14816,"Rd":14817,"vectorIPKcSaIS":14818,"3384":14819,"XnDevice":14820,"Ġinitialize":14821,"4054":14822,"Formula":14823,"Compiler":14824,"managerEaSEOS":14825,"tConsole":14826,"3750":14827,"OpenRaw":14828,"initializeEv":14829,"VertexAttrib":14830,"MO":14831,"IntTools":14832,"Ġ165":14833,"3302":14834,"managerES":14835,"Ġhtml":14836,"3286":14837,"3990":14838,"Ġpush":14839,"ChangedERK":14840,"ĠTypemaker":14841,"ĠGEN":14842,"swtok":14843,"vertical":14844,"success":14845,"Tags":14846,"NodeEEESt":14847,"Center":14848,"KeyValue":14849,"FileStorage":14850,"ĠSS":14851,"AIL":14852,"EPvPKv":14853,"Ġarf":14854,"3299":14855,"HTML":14856,"ScrollArea":14857,"='":14858,"Ġinc":14859,"Charset":14860,"UnlinkType":14861,"ISO":14862,"QListIiE":14863,"Ġ162":14864,"ĠAsnUnlinkType":14865,"permission":14866,"CrtAllocator":14867,"ini":14868,"Ġbig":14869,"ibTeX":14870,"Ġvec":14871,"3261":14872,"paddd":14873,"ORY":14874,"TitleERK":14875,"ContigProperties":14876,"3311":14877,"entryEEvPT":14878,"calib":14879,"adhoc":14880,"3740":14881,"ExtensibleItem":14882,"3273":14883,"Subscription":14884,"SaIt":14885,"EEaSEOS":14886,"Ġchunk":14887,"gpr":14888,"3389":14889,"3387":14890,"Tutor":14891,"managerER":14892,"ĠBU":14893,"IhPPhEENS":14894,"cdc":14895,"4208":14896,"lessINSt":14897,"8048":14898,"3568":14899,"blob":14900,"Ġallowed":14901,"GetCurrent":14902,"lapse":14903,"QDBusPendingReplyData":14904,"3520":14905,"Glide":14906,"3297":14907,"3353":14908,"3331":14909,"Board":14910,"Linux":14911,"IsBuiltIn":14912,"3778":14913,"fifo":14914,"3494":14915,"XnActual":14916,"unbind":14917,"RefEv":14918,"Ġ1000000":14919,"addActionEP":14920,"Ġsrc":14921,"CodedInputStream":14922,"Ġsafefree":14923,"upperLeft":14924,"InstValidator":14925,"clERK":14926,"Fvb":14927,"EjPNS":14928,"yled":14929,"Xaasr":14930,"3309":14931,"QVectorIPN":14932,"TShared":14933,"MetaTypeDefined":14934,"DefinedTypeE":14935,"Definedntsr":14936,"MetaTypeDefinedHelper":14937,"4064":14938,"IsBuiltInEE":14939,"entr":14940,"3459":14941,"refaSEPS":14942,"hashIjESt":14943,"3760":14944,"Ġbefore":14945,"ESSION":14946,"minc":14947,"Ġ\")":14948,"ImageRegionILj":14949,"ftime":14950,"bfc":14951,"3361":14952,"GlideRoot":14953,"MetaTypeDefinedHelperIS":14954,"Ġmouse":14955,"3385":14956,"llPS":14957,"3271":14958,"ĠData":14959,"3359":14960,"4084":14961,"3352":14962,"ReferenceBase":14963,"3332":14964,"OPER":14965,"ĠFind":14966,"Ġutil":14967,"4008000000000000":14968,"3301":14969,"Ġecp":14970,"ordered":14971,"3544":14972,"svectorINS":14973,"spacing":14974,"QMime":14975,"3284":14976,"17896":14977,"ivGraphic":14978,"implIN":14979,"Ġedit":14980,"wave":14981,"3246":14982,"contextE":14983,"4374":14984,"objectPKcllPS":14985,"UnpackTupleP":14986,"Ġ164":14987,"Ġmismatch":14988,"Force":14989,"dea":14990,"mulhi":14991,"OrgKde":14992,"3697":14993,"Ġbinary":14994,"3339":14995,
[...]
