#version: 0.2 - Trained by `huggingface/tokenizers`
r a
a r
ra x
Ġ rax
Ġ )
Ġ (
Ġ 0
Ġ .
M P
Ġ J
U MP
ĠJ UMP
r d
Ġ rd
Ġ v
Ġv ar
Ġ ,
Ġ [
Ġ ]
Ġrd i
Ġ +
Ġ e
Ġ x
Ġ t
s e
e n
Ġ z
1 0
Ġ i
s i
t o
l se
Ġt h
Ġth en
Ġe lse
Ġi f
r b
Ġ rb
m m
1 2
Ġ g
c x
Ġrd x
Ġ _
r si
o to
Ġ rsi
Ġg oto
Ġz mm
1 1
r cx
Ġ rcx
1 4
1 3
1 5
Ġ $
ar g
f f
Ġ arg
Ġrb x
r e
2 0
Ġ &
1 8
Z N
= =
Ġ ==
s t
o n
Ġ 1
i n
1 6
m p
e r
S t
2 8
1 9
E E
1 7
Ġrb p
3 0
a t
Ġ "
a l
Ġ !
Ġ! =
e mp
0 0
Ġt emp
Ġ f
2 4
Ġz x
Ġ -
3 8
c on
Ġ s
Ġ :
4 0
2 5
2 3
a x
Ġ 8
i t
2 6
4 8
E v
Ġe ax
l e
Ġ <
2 2
ff ff
Ġ< <
u r
c h
I c
2 7
5 0
r in
b a
2 1
e t
5 8
re t
l o
ur n
ret urn
2 9
e c
a n
n o
Ġ 2
6 8
6 0
d e
3 4
rin g
Ġ con
o r
Ġ u
Ġcon d
Ġ 4
Ġ 3
7 8
7 0
a c
3 3
Ġ_ _
t i
3 9
3 5
4 4
a g
Ġ return
3 6
N S
t r
3 7
_ _
e x
E P
R K
3 2
u l
to r
8 0
Ġ c
a i
E S
9 8
ZN K
9 0
r o
Ġe d
p e
Ġs x
a d
3 1
8 8
t ra
5 4
g et
6 4
m e
5 5
Ġ no
ba se
ch ar
lo c
I S
u n
it s
o l
at e
4 7
si c
00 00
4 6
v er
ti on
st ring
4 5
4 9
ba sic
tra its
c e
a p
l i
e d
cx x
re e
St ring
Ġ |
c o
ai l
y pe
p tr
ES a
Ic EE
Ġ n
a s
5 6
se t
5 7
E RK
¦ "
â Ģ
âĢ ¦"
ac k
4 1
5 9
4 2
4 3
s base
a b
u t
en t
Ġf sbase
6 6
ul l
K c
ver t
Ic St
Ġ al
x ffff
ZN St
x c
9 9
Ġ st
Ġed x
at a
b j
ch k
Ġno return
con vert
6 7
Ġe b
Ġf convert
6 9
Ġe cx
s p
5 1
> >
5 2
5 3
: :
Ġ d
I N
< =
ec tor
t h
11 12
Ġn ull
traits Ic
a m
an ag
ESa IcEE
traitsIc ESaIcEE
a st
Ġ p
i d
7 4
10 0
Ġnull ptr
anag er
it e
b u
v e
7 7
al loc
i c
m anager
Ġe si
t e
st ack
t er
string IcSt
r or
7 9
6 1
xffff ffff
an d
s s
re f
ec t
6 3
ab le
6 2
se r
6 5
t ype
v ector
I NS
s h
f ail
p r
u e
re am
p l
ex t
Ġi s
10 8
v ar
E R
I n
Ġ *
x a
8 7
> =
Q String
re d
f i
7 2
8 4
Ġed i
i on
9 4
7 3
R e
7 1
Ġ ^
7 5
i s
o de
o st
D ata
7 6
o p
Ġeb x
Z St
A r
L i
1 10
rin t
I P
11 8
ag e
c t
e l
EP Kc
12 0
in g
x f
12 8
o bj
E i
ex pr
Ġ b
Ġ m
ra y
8 9
L o
Ġ 5
e red
L b
Ġ %
u p
rd ered
r i
u no
uno rdered
g n
C o
13 0
E j
ar d
ad d
EE EE
c al
8 6
at ion
li b
14 0
9 7
9 6
C on
ite ra
Ġno t
9 5
a me
9 2
9 3
9 1
13 8
f or
P v
c k
lo g
i l
st r
e w
8 1
me m
8 2
P K
8 3
u m
Ar ray
t able
8 5
15 0
Ġ w
en d
x b
er ror
S a
rint f
ERK S
Ġst r
g p
k e
P Kc
O bj
v al
ost ream
Li st
Ġ Ġ
14 8
d l
e p
re ad
p d
ser t
c c
in d
as h
16 0
alloc ate
T ype
EE E
d i
z e
x d
Obj ect
m o
p er
Ġ 6
ap p
t ext
17 0
15 8
x e
l s
I T
un c
p rintf
c l
a se
I St
ff f
m ent
f o
D e
t k
18 0
1 12
16 8
in t
f ree
itera tor
ai r
b o
20 0
t ree
dl Pv
Z dlPv
Ġi n
Ġeb p
10 4
N St
ec k
in ter
or t
w r
m ap
in e
Ġ 7
cal l
p ro
a y
ol d
19 0
00 0
I m
17 8
p air
or y
ul t
v i
i f
11 4
Ġ j
e q
p s
traits IcEE
ra tion
p tion
u mp
0000 0000
Ġ- >
f a
Ġc l
EP S
ra n
g e
u b
G et
p ut
10 1
e m
c mp
Ġ" %
P o
18 8
E NS
R St
E St
ac e
10 3
10 2
10 6
i le
Ġ P
i mp
Z L
10 7
10 5
Lo g
r ror
19 8
ep i
N ode
10 9
t ail
c v
o w
h ash
ke y
l en
p y
tail call
ch eck
m t
12 4
Ġst d
E x
Ġj ump
manager E
e g
ra p
11 6
traitsIcEE RSt
bu g
id get
in sert
d ata
c m
u s
11 3
R b
Ġ S
an ce
si ze
11 1
11 5
11 7
er r
Array Data
Ġ a
i x
11 9
o s
it er
o d
and le
ESa IS
13 4
tr y
ration al
m at
A L
2 28
i g
Ġf ree
C h
n ew
l ag
in it
ro w
loc k
m s
E N
g u
lo at
i al
Ġ l
2 18
c tion
I d
Q ArrayData
24 0
fa ult
de allocate
2 38
b c
12 5
u ct
12 6
12 2
12 1
o ut
RK S
no de
s o
co re
12 3
20 8
i m
12 7
Ġg tk
li st
a ch
pair I
12 9
a ra
h t
25 0
ar ed
ss age
B ase
14 4
ZNK St
Q M
E C
2 30
cx a
i i
2 20
Ġx mm
I te
d p
mp z
n s
st ance
d d
ba ck
E n
an t
s mt
26 0
s c
25 8
il d
q u
n ame
le ment
13 3
i v
24 8
13 1
d S
ce ption
Z n
O B
13 6
S o
13 2
ff er
O F
13 5
Ġe sp
13 7
13 9
Ġf a
15 4
ar t
S et
a tor
2 10
u sh
14 7
Ġfa lse
mo ve
o g
P ro
s y
vector I
Sa IS
d c
o m
f c
p ack
V al
re s
en ce
ro m
r sp
de bug
gn u
E T
th read
t y
27 0
Ġf loat
d ec
14 3
Ġ rsp
14 1
W idget
w x
. .
p p
16 4
14 6
ref I
f d
14 2
c ast
14 5
E rror
Ġ 9
Ġ o
14 9
Ġ mem
x ff
O S
Ġd l
w m
gu ard
S e
re ate
pairI K
fi le
fi g
si gn
in stance
EP K
u re
n al
in fo
15 7
Q t
un t
E D
p t
Zn wm
28 0
15 6
a in
15 9
15 3
val ue
15 1
15 5
S h
15 2
sh ared
26 8
en try
Ġt o
PK S
str uct
st ream
ff set
wr ite
17 4
deallocate EPS
Ġ C
a e
G L
it h
an g
M at
m b
et a
r m
con st
T o
d b
Ġ N
29 0
T ran
Ġu n
E Lb
Im age
m ul
d et
q ue
16 9
Q List
obj ect
le ss
on e
de fault
it y
co mp
F ile
c py
le d
h e
16 3
I Lb
16 1
.. /
a v
16 6
30 0
16 2
QString D
16 5
27 8
18 4
f unc
r y
16 7
4 00
0000 0
P S
bu f
E m
re g
I i
V ar
m k
and ard
H andle
p ol
rb x
a S
U n
ostream IT
wr iter
traitsIcESaIcEE C
o ffset
f s
19 4
Ġ G
28 8
M e
17 9
re writer
si on
St andard
L j
17 3
29 8
u g
17 7
n d
i ant
Ite m
17 1
17 5
GL OB
17 6
17 2
f ace
i z
xffff fff
g er
ĠĠ ĠĠ
ffff fff
0000 000
con text
2 24
b b
al l
ER R
le ct
sp ec
ERK NS
as s
st ro
Val ue
s l
x mm
T ext
th row
C ol
O T
bu ffer
lag s
I O
s ub
Ġp thread
c f
Ġ" /
ex ception
18 6
L E
20 4
2 23
vector IN
stro y
18 5
ad er
GLOB AL
A l
g en
Ej E
i o
18 1
ind ow
ZSt ls
18 7
99 99
18 9
app end
r ue
18 3
Re f
i st
y te
ar e
de x
bu ild
Co mp
19 2
P ri
op en
18 2
un d
n um
u le
B o
2 25
V ector
insert IcSt
un pack
Ġ re
In fo
Ġb l
ti me
2 26
le te
v ate
19 3
19 7
Ġt rue
ai led
19 1
mem ory
D i
ode l
p ara
mb ol
p o
Ġ âĢ¦"
19 5
20 3
19 9
19 6
Ġ B
a a
R S
o rd
m et
ce ss
m l
c reate
co de
Ġ ?
30 8
T A
I w
f p
p ush
det ail
- -
p ar
th e
25 6
f rom
20 6
3 38
u ff
i ze
Ic T
ostream IcT
ZStls ISt
Ġin t
as sert
20 1
l ay
20 2
Ġg et
ER S
) .
3 28
St ream
20 7
to n
EP NS
if ic
e s
st at
20 9
n ull
b er
T pl
rap h
g th
l l
20 5
Ġ A
2 14
g ra
Ġ ERR
I G
no rm
3 48
ig ht
O f
EE v
t ag
bu s
Ġ h
er ence
i p
ug in
EE D
norm al
Var iant
Ġn eg
St r
lo r
EE C
f e
23 4
r r
3 58
a pe
ic k
ve l
ZN Sa
itera l
ms g
In ter
) "
I f
f printf
Ev E
3 68
Ġ| |
N ame
3 30
E OS
2 11
Pri vate
p ort
l iteral
the ory
Q Object
w ard
E b
F S
bo ost
is ra
3 40
manager ILb
22 1
uff le
2 12
F or
Ġc pl
Ġstr len
24 4
Ġ si
25 4
EPKc RKS
o t
ec tion
co pe
inter nal
mp q
3 60
Q Variant
d q
al og
spec ific
Ġe x
38 0
d at
w rap
22 2
s d
tr i
el per
3 10
Ġstr cmp
22 7
c le
P T
H ash
2 15
3 50
sh uffle
Se lect
22 9
con struct
IP N
3 78
l p
2 13
Ġ& &
2 16
3 18
Me ssage
less IS
3 70
lo t
2 19
2 17
de f
s r
lo b
3 20
get specific
Ġ M
55 55
de lete
39 0
loc ation
at h
b e
24 9
ĠP L
V i
EP v
t mp
ol s
lo se
4 48
v table
for ward
I J
QM ap
f st
s n
con n
th r
st ate
23 2
b ut
el d
as k
con fig
23 7
o k
26 4
a u
23 5
4 38
me ssage
23 1
23 3
c ach
val id
a ke
23 6
Z ZN
em b
ab el
de stroy
e ight
23 9
len gth
v E
ffff ffff
vi ce
B u
re move
25 5
T ree
eq u
String D
n t
sy mbol
o se
24 1
Ġmem cpy
24 5
co unt
dec l
ZNSa Ic
Po inter
W r
24 6
St ate
per ty
IN St
24 7
P d
A S
ur ce
pairIK S
u ti
mm and
emb ree
L e
ERK NSt
O p
27 4
B LE
24 3
24 2
alloc ator
38 8
size Ev
i me
unpack lo
4 28
Tran si
eta Object
I j
imp lement
ZN S
l ine
Q Widget
o c
in k
Ġ >
25 9
imp l
di sp
TA BLE
25 1
25 7
Ġstd err
A c
ap i
wrap per
vector IS
40 8
25 2
F i
10 00
lo w
e y
Transi ent
ar ray
ur r
tr unc
25 3
E d
Ġ se
loc al
I D
4 58
tmp fs
ra tor
= >
Q F
os g
26 5
W IG
../ ../
op t
4 40
OF FS
OFFS ET
implement ed
ex p
r t
ac ti
D S
li c
Ġ =>
26 9
Ġ '
26 3
h andle
4 50
le ction
T ri
39 8
26 2
4 30
Ġun implemented
Re ad
eg in
h elper
Lo cal
f ind
26 7
Ġf trunc
26 1
L ine
T op
26 6
Ġa j
m ax
Ġ y
traitsIcESaIcEE D
l m
er s
4 68
lo ad
iterator IP
traitsIcESaIcEE E
ang ul
ref erence
ar n
29 4
u i
ra w
ri x
28 4
m in
D B
F unc
K ey
d a
27 6
I s
st IS
48 0
27 3
F ree
W eight
E L
rd up
ist er
angul ation
27 9
String C
n g
27 7
P tr
on t
27 2
Ei x
27 5
O R
Ei i
Ġd iv
27 1
xmm dq
s w
s at
ra me
h i
er l
O ption
4 18
A dd
rb p
50 9
P ar
I mp
4 78
W indow
f l
Log ger
Ġs l
M ap
4 60
ar k
st d
3 34
Ar c
8 00
Po int
EPKc i
cf g
Op en
err no
wrapper IS
0 8
- >
s ort
n c
P N
ro up
Ġc li
V ec
pt Ev
ar ith
urr ent
Ġ F
O ut
d o
30 4
29 5
Ġ lib
s ol
no t
a f
S c
im age
um ent
Ġf or
E lement
ut ex
29 9
get text
28 5
28 6
Re g
4 70
29 1
28 3
pol y
Ġi d
29 7
Ġ" \
: %
29 6
29 2
28 1
fi er
ic y
28 9
Con n
av ed
core I
co py
Ch ar
29 3
28 7
t ing
w idget
rsi on
28 2
Q S
4 20
c ol
x y
e st
EE Ev
b v
u me
b it
4 10
x x
re ss
iz ed
Con fig
s aved
x or
Ġm od
r l
Ġ T
manager EE
EEv T
Sh ape
. "
48 8
30 7
_ .
map I
4 98
ac t
un k
pro p
( )
Ġl r
P NS
0000 00
Ġm alloc
EE NS
Ġ log
Co lor
30 3
Ġis c
QF lags
lob al
d ate
30 2
A pp
dat alog
n et
4 90
un i
De fault
st ra
Ġ E
Ġo f
ZN So
s to
ĠN lm
cl ass
ser tion
30 6
Ex ception
30 9
30 1
uti l
k en
s a
l er
Weight Tpl
Ġ X
S y
m alloc
p c
s v
P y
30 5
Vi ew
en e
ptr IN
3 14
an n
5 00
B yte
t ain
conn ect
cc cc
3 24
Z Z
I L
on g
G lib
Ġb pl
8 0000000
Ġm ul
Ġy y
34 4
3 13
t pl
U L
De bug
p re
Tri angulation
33 3
Ġe rror
er ic
Bo x
ar ch
S ub
o f
Ġ ax
Conn ection
tri but
M odel
e b
Ġd c
In dex
QList I
Al loc
Ex p
Ġ ro
A ction
mo d
s Ev
M em
w n
tra ns
St at
arn ing
p rint
Q L
50 8
for m
at ch
construct IP
to m
Wr ite
d f
m utex
35 4
al i
b l
pl ugin
Ġ D
Ġdc gettext
S p
vector IP
Ġ W
Ġsl api
3 11
G e
en u
3 12
PK dS
Ġe sl
33 7
A t
tra n
Ite rator
Qt Private
33 9
op tion
it ion
Ġsi l
S A
v o
33 1
g o
b egin
cle ar
3 16
33 6
34 6
no m
Ġd il
c li
Ġf ile
33 5
e v
add r
Co mmand
Ġid ent
34 7
g raph
34 5
ag ick
3 15
3 17
m ac
de l
33 2
Lo c
Ev ent
o b
nom ial
34 9
E c
34 3
00000000 00000
en c
RK T
3 23
Fi eld
Ġ" (
Ġp ro
37 4
Ġc o
34 1
Ġb fd
Pd PKdS
i ve
3 19
34 2
in f
35 9
aS ERKS
xffff ff
n e
co mm
RK NS
36 4
Ġ QArrayData
3 29
so urce
Ġ at
par se
res ult
A T
cv PS
For mat
A s
3 22
A P
F v
QM etaObject
ar y
re pl
an ge
R So
i os
3 27
5 38
b d
40 4
3 25
s k
cach ed
C C
5 58
Q u
E Lj
3 26
3 21
i r
35 7
35 3
G ui
33 33
stat ic
f t
35 5
Ġf ailed
ti ve
Ġ set
Ġe cl
35 6
Imp l
35 2
35 1
36 5
que st
in dex
h od
I R
de d
36 9
e e
c d
PKc S
ac tor
r un
5 60
A R
Le vel
reg ister
58 0
sc ri
Col lection
5 68
S L
ĠP erl
u se
38 4
pol icy
no pe
UL L
re l
and ler
S er
Ġ ad
5 48
ur l
36 1
Ġ ror
n l
36 7
EE St
ba d
s q
ra l
N o
5 10
Co unt
Ġd ns
ex it
un ref
A b
Pro perty
5 70
36 6
sign al
5 40
39 4
A nope
st rdup
he ader
36 2
QFlags IN
36 3
Q P
37 5
um n
c b
O N
re al
o re
37 9
S WIG
y le
as sertion
st art
EE S
p h
al g
Lo ck
expr S
le ase
sol ver
T able
I v
er o
se q
ext EE
37 1
Out put
pro c
tribut e
C ur
W EN
A n
i re
5 78
xffffffff fffffff
40 6
P l
37 3
g l
4 54
g r
le vel
37 7
40 7
ck et
37 2
40 1
l ate
40 5
Ġs p
ZNS ols
In put
37 6
4 64
F il
pd ata
d y
ĠS cm
p OT
para ms
5 18
u st
able d
38 6
b lock
c lose
Bu ffer
5 50
M L
d s
f lags
d cm
44 4
T ag
Ġe n
ZNSaIc EC
S to
ti f
ĠG WEN
const prop
5 28
Ġ read
39 5
39 9
e a
hash table
Ġg st
A li
R T
4 14
V P
Ġ" .
disp ose
managerE cvPS
ran ge
I ter
40 2
38 7
met er
j j
up date
Arc Tpl
39 6
39 7
end Ev
up le
w indow
38 1
ser ver
vi gra
38 2
m odel
38 5
G V
Ġ L
c a
En try
mac ro
Ge om
U N
d om
39 1
5 98
b yte
39 3
40 9
poly nomial
38 9
6 00
C T
O P
38 3
string stream
w id
39 2
w arning
cope d
ER NS
EP St
5 20
C l
QMap Node
Ġs bb
lo bus
stra ct
5 90
sw ap
ut ton
40 3
G raph
b le
sr c
comp are
Li b
im g
bo und
58 8
U l
t f
f rame
f b
T ime
s g
n ext
Z GV
L ay
RK NSt
M od
Con text
5 30
Ġp rint
co m
func tion
as sign
un lock
c ry
ĠN ULL
In t
4 12
res sion
ti fier
m i
cope Ev
4 55
4 24
Ġmem set
de p
C G
d er
Func tion
alg lib
8 00000
tain er
Ġ /
P ara
P Pv
l d
xfffffff e
QList Data
D el
M anager
Ġdiv s
c tor
vi ew
B utton
m ark
num ber
G roup
c at
c ase
li m
Eix Ej
4 34
5 12
Ex t
68 0
or k
M ode
vo id
ĠE VP
t acti
Byte Array
ate g
F lag
Sh ared
b t
EEE NS
Ġ k
ĠW Log
60 8
N ew
Inter nal
QString S
WeightTpl If
inter val
Ali gn
Ab stract
tacti c
QString C
p ath
f lag
In it
si ng
bo x
EE ix
b f
th on
op s
EEEE NS
Q D
u a
equ al
Ġ" ../../
4 15
l ink
pr oto
re alloc
F rom
st em
begin Ev
G tk
xf c
Q ByteArray
ting s
deallocate EPv
Ic E
type info
um ber
5 44
Top o
ic al
Ġmul u
at exit
S ize
it k
4 26
ra ry
mp le
4 11
aS EPS
ro p
ZNSaIc ED
4 17
ac tion
er t
equ ence
out put
c type
c as
4 13
te ger
M y
Str uct
x u
ra ge
Ġad c
helper EPKci
rd p
i able
d so
Ġ V
4 16
4 23
P ol
xf e
r ule
6 48
Ġg l
4 27
g ht
47 4
A M
4 19
4 29
lo ok
45 7
I M
E mm
6 68
CG AL
gra m
44 2
9999 9999
a ve
no wn
44 1
Con vert
ach e
44 6
ateg ory
sn printf
44 7
re set
ite m
Ġ opt
44 5
Ġro l
uni que
I h
Ġstr n
44 9
Q Hash
Mat rix
u int
6 70
ArcTpl INS
s lot
44 3
to p
e ra
U T
-- --
EN K
p art
mp f
6 50
in ed
Tran s
4 22
de v
ĠĠĠĠ ĠĠĠĠ
4 25
D o
et hod
48 4
EPKc S
H e
6 58
g st
d bus
one y
ur face
e f
g c
Re p
B a
ESa ISt
X ML
O M
Type E
T R
def ine
46 9
6 78
4 32
4 31
48 6
e k
at ure
u string
ĠB IO
Lay out
4 37
D E
4 35
ic s
b ind
er y
ial og
Topo DS
49 4
4 21
l t
p i
45 9
o le
Ġg lobus
Ġth e
p to
q string
so le
50 4
45 2
46 6
si tion
type E
A C
ffff ff
Py thon
v ol
45 3
con d
S equence
Q Debug
45 6
c img
45 1
46 7
8 48
4 36
mat ch
Ej EixEj
ev ent
pdata PdPKdS
Iw St
ann el
lic ation
pro cess
n ume
Ġs o
46 5
ch r
46 1
ac ore
EE ptEv
traits Iw
wx String
4 33
m ode
del ER
for tran
cl EvE
Ba sic
Q Text
vert ex
46 2
bo ol
4 39
A d
Z T
46 3
pl y
c an
b y
l abel
7 00
ĠB N
s on
ai ro
Ġv al
. âĢ¦"
Im Gui
cach e
rational D
p op
nume ral
w ith
g fortran
5555 5555
cas acore
m ake
6 60
ow n
init ial
n am
emp ty
47 3
Ġ ch
47 6
Po co
f low
O n
D cm
10 10
ce s
Local ized
6 98
Ġ" <
Ġst ack
te st
tr ol
6 90
Ġd i
Ġt est
De stroy
48 9
re lease
cmp eq
Ġ" _
47 7
f ailed
47 2
5 54
K Localized
48 7
47 5
6 38
47 9
m ask
eta Type
ve rsion
R NSt
47 1
g lobal
I C
cry pto
mat rix
68 8
49 6
for mat
Co re
6 18
Ch eck
E M
P ath
pro perty
Ġt ype
s coped
EE SaIS
5 64
48 3
ix el
Ġex p
open v
6 40
I K
48 2
6 10
49 1
5 24
dcm tk
C al
D F
20 00
To ken
i se
lay er
48 5
48 1
ss l
M ake
6 28
rel ation
50 7
b fd
6 30
Ġ on
M oney
Ġ' %
F st
tpl IN
di r
00000000 0000
ref Ev
ĠP y
policy E
traitsIcESaIcEE ESt
49 3
55 5
Ġ Get
Ġ ac
50 6
at in
L en
C li
Con t
C ode
constructIP Kc
str Ev
49 7
or g
z ero
49 5
6 20
49 9
constructIPKc EEvT
D oc
50 1
50 2
Loc ation
Inter face
enc y
50 5
O NSt
49 2
openv db
50 3
Cur ve
l f
free rdp
l y
78 0
pd ate
Ar g
Ġstr to
6 56
PKc z
Cl ass
P rint
Re s
co ut
Sub Tree
AS T
R ec
ang ed
w ord
dispose Ev
c pl
managerE aSEPS
c i
net gen
co lor
70 8
ect ed
ub le
iterator ISt
D ec
T ra
t INS
ast er
l u
lot Object
Ġf printf
Ġp ad
Ġl ua
Ġd o
cfg EE
traitsIcESaIcEE ES
so ck
unpack hi
t p
av ing
I F
t ls
look up
E Li
Ġp ut
6 57
Ġmod s
r st
sp rintf
RK St
54 5
m art
Fil ter
R E
se ction
local e
Ul vE
> ,
Q U
repl ace
M etaObject
5 14
C all
54 6
20 20
QVariant D
xu q
Ġaj Str
c err
Alloc ator
o ve
p os
54 7
di alog
se nd
nam ic
ZdlPv m
7 38
m ix
ESa Iw
arith INS
mod ule
re co
54 2
run time
55 2
b ig
54 1
sub p
case cmp
L O
x ml
ptr Ev
w ork
54 9
57 4
ent ity
At tribute
emp late
up port
ĠS WIG
5 34
i S
J ob
Local e
59 4
58 9
5 25
ar se
ut e
s sion
: "
88 8
sc ii
f er
E l
Ġdiv u
S C
q t
QS lotObject
QText Stream
54 3
ERK N
N et
subp aving
56 6
i es
T h
create ER
55 1
Ġ 10
traitsIw ESaIw
7 68
55 7
55 9
55 6
De vice
55 3
createER mm
Ġ( %
F ind
ro s
EEix Em
I Li
cli ent
Ġ cx
R ect
A scii
56 5
at ter
I b
A N
e rsion
pr iv
Ġa v
56 7
lib rary
7 20
U ser
u al
Ġg en
managerE D
ĠC url
S eg
58 4
9 98
cm d
5 11
le x
56 9
type EOS
Ġc urrent
arg et
EEEE EEEE
ul d
56 1
Ġ H
5 16
ic u
I con
mm a
g t
My Money
64 6
Sc ene
R Y
t uple
56 3
Ġw r
5 17
80 8
Ġf write
E X
Ġ add
0 2
tra ct
5 15
node IS
:: __
5 19
v ec
reference IS
Mod ule
ve rb
56 2
5 13
8 60
7 78
m Ev
allocate Ej
cv t
re rror
57 9
f loat
57 2
7 10
r w
8 18
7 58
CT X
64 9
string IT
Ġm ethod
i gn
8 38
c pp
10 000
u de
57 3
M agick
8 58
RY PT
5 26
u ser
57 1
D raw
reference IT
IN T
5 35
57 6
col umn
a un
Q Char
66 6
U tf
5 29
11 19
ver flow
10 38
5 27
5 22
ame s
7 60
5 23
au se
og le
Ref Count
57 5
8 28
m on
ct x
vectorI j
Ġ @
57 7
T rop
a k
Seg ment
Ġ de
Trop ical
ffffffff fffffff
var iant
th unk
qu an
fl ush
para meter
5 21
Ġs k
A nd
u x
59 5
So urce
IP K
H andler
string IwSt
op y
p thread
h as
59 3
c ur
7 70
59 6
P art
d ns
5 32
A D
e lement
78 8
59 7
5 33
5 37
iterator IS
D ialog
En dS
us r
re en
5 36
s or
8 68
$ _
at tr
sp ace
C ache
5 39
T T
S B
c p
but ton
ĠĠ Ġ
8 40
59 9
RYPT O
59 2
IS a
7 98
Ġ R
60 4
eq IS
entry I
destroy SubTree
destroySubTree Ev
EndS copeEv
59 1
ve s
co d
ut h
I X
6 16
Ġmod u
stringstream IcSt
Ġ q
is c
EPKc m
f in
P ack
St d
7 50
10 48
managerE C
sto re
Ġs q
Z ZZN
at ile
66 7
dep end
en sion
R ange
qu ire
5 31
Ġin valid
P re
St ep
7 90
8 30
58 3
7 48
set ER
vol atile
8 000
x fff
58 6
en ode
8 70
8 78
m d
7 18
58 1
7 40
58 2
S imp
h o
aa aa
7 28
go ogle
58 7
d P
F o
stat us
C reate
8 80
Ġ" [
QTextStream ls
Ġ ar
quan tifier
f ull
DB us
proto buf
Bu ild
8 98
60 1
Ġ In
58 5
expr R
on ce
ĠC RYPTO
Un i
ali gn
b in
det ach
pair IP
Ġlib c
mat h
lib d
rd ata
sp lay
64 7
tra ce
9 00
Mat ch
Ġa h
vectorI i
el f
QString E
' t
c ategory
E rr
di v
j PK
7 30
App lication
90 8
p age
back Ev
EE RSo
tpl I
00000000 0000000
in c
r c
con tainer
T L
db g
64 1
Flag EE
60 3
IN G
EE T
hashtable I
Ġis l
le ton
St yle
back ERKS
J V
EE Lb
Node INS
at al
Me sh
6 14
60 7
comm on
static MetaObject
60 6
60 2
ab ort
Set tings
B lob
node EP
60 9
para m
struct ure
9 50
vi si
tif y
69 6
66 9
c urrent
ĠA sn
B lock
8 50
po int
10 40
P h
mul ti
fi l
64 2
Re quest
l ast
EE ES
Comp act
u c
vector IPN
E NSt
EERSo T
Ġ as
64 5
stack Ev
S mart
60 5
M sg
8 90
Ref erence
Ġl ine
:: ~
from Utf
JV U
EP N
sh ow
:: _
C an
70 6
64 3
Ġc lose
iz er
expr Lb
Ac cess
Ġ me
Doc ument
F N
Par ser
er m
EEE St
if y
da Pv
Z daPv
69 7
vector ISt
m ain
error PKc
a Type
67 6
Ġc all
69 2
78 9
N ext
at ype
67 4
Ġval ue
6 17
v tk
9 10
r te
r g
8 10
j ust
Ġb e
8 20
g ine
move IR
ic t
QL atin
Pd f
S N
Ġstd out
9 30
ĠV V
Ġ size
m enu
ch ild
sq l
le t
Align ment
QMapNode I
Del aun
69 4
U S
ii i
en v
mo s
WeightTplIf EEEE
Pl ugin
= %
d k
ri ver
F ailed
B Rep
allocate Em
log ic
Delaun ay
di ff
Ġd ata
un it
wid en
6 36
ac er
9 68
6 24
66 5
10 28
a mma
Ġ"../../ ../
F ont
69 3
9 90
depend ency
> "
6 34
10 30
Ġd x
Ġi graph
mm on
66 3
Open B
Ac tive
66 1
Ġstrn cmp
Re ader
66 2
6 25
mp ty
Stat us
Con st
el l
67 9
Ġf unc
Ġstr casecmp
p v
He ader
E p
6 26
6 99
10 58
6 22
c ap
98 8
Ġstr chr
67 7
79 7
cpl us
Ġ open
OpenB abel
EEE Lj
era se
Q Abstract
6 12
M S
6 19
dy namic
N G
67 1
10 70
cccc cccc
QU rl
ref ix
c s
si gc
D JVU
67 2
Ġs y
manager IN
cfg E
Q Action
Ġ ap
9 20
EEE C
tree INSt
PKc m
traitsIcESaIcEE ESaIS
67 3
vectorIj Lb
atter n
6 11
in put
priv ate
6 37
sc an
EPK S
config EE
state E
d raw
r id
cl ause
J S
ar m
on ent
par ser
ord er
68 4
Par se
6 54
Ġs cm
6 13
66 66
Ġw h
rd i
De f
Ġ rte
aS EOS
ert ex
6 15
option s
in valid
co un
N UN
11 18
Ġg s
NUN ET
67 5
delete IS
10 60
= "
. _
S urface
po inter
6 27
h er
10 68
6 44
69 5
h rr
p tor
Ġst rdup
N umber
e mos
s ure
Sto re
T he
m emp
end er
fil ter
Im g
69 1
7 46
Ġ". /
9 18
6 32
EE ESaIS
append ERKS
Simp le
Ġwr ite
ro und
Q Vector
con sole
70 4
P ixel
S H
he ad
6 35
Reg ister
reg ex
sy stem
Un it
pack et
ĠM agick
et ry
D OM
6 23
A k
QMap Data
re ct
6 29
do uble
En abled
9 78
verb ose
7 26
em it
et ch
h andler
ENK UlvE
G en
g roup
Ġp mix
S D
ran d
Ġ mp
70 7
Ġf put
V ertex
var iable
R o
G B
6 21
k i
10 78
x sd
68 7
Ed ge
79 4
6 33
9 40
ZGV ZN
v ity
di o
6 31
en abled
b swap
D pOT
Ġ ff
6 64
l it
O CC
conn ection
expr j
to String
6 39
R ay
Co in
Di r
70 2
Sy mbol
cl ude
ver se
7 14
ang le
Ed it
Error Type
ut f
Wr iter
Pointer IN
de Ev
U ti
Ġlibc error
ĠG NUNET
0 4
10 88
RK N
70 1
ios IcSt
ay er
m a
old er
10 18
68 2
68 1
back EPS
P P
m er
68 9
Id entity
M enu
con f
68 6
OF StringD
Co ord
Ġg sbase
il l
OB J
F e
Ch anged
70 3
70 9
to ken
Mem ory
Ġ or
9 80
en si
Ġ out
9 38
Ġex it
68 5
co mmand
dP dS
si mple
N Collection
sign ature
68 3
P R
r s
9 48
C Img
6 53
7 24
k nown
6 59
vectorIN St
To ol
de vice
70 5
6 51
libd ar
Zn am
en se
ara c
re v
O pe
xx xx
80 4
Mat h
Q DBus
6 55
_ âĢ¦"
Ġp rintf
d is
Con d
ad a
To ols
Info s
fi ed
EE b
7 36
6 52
x ac
mo v
en able
G amma
lim it
def ined
Build er
( )"
F rame
U pdate
Pol y
Ġv rr
disp lay
G S
wid th
PK dPdS
P erl
xf d
se d
ate d
In stance
* *
I t
9 28
ĠS eq
ctype IcE
init Ev
constructIP c
80 5
n er
que ue
N ull
P i
Type d
m it
Ġs n
Ġd io
a tom
constructIPc EEvT
xfffffff c
v id
11 10
assign ERKS
arac ter
se arch
L ink
se lf
i sh
l v
Do Fo
Po DoFo
V TT
QSlotObject Base
fi x
m al
wx StringD
upport ed
se lect
fi rst
8 51
77 6
Cond ition
B egin
Ġs h
en ti
l ite
ri ght
10 80
EP F
9 60
gen eric
99 9
Qu ery
Convert Ptr
at t
mp p
u tion
sa ve
uti ls
rational S
fi eld
77 9
List IJ
S M
sr li
ry pt
Emm PKcm
a it
l ong
fi gu
In teger
B it
IO N
T Collection
Ġb org
Ġget text
low er
sp on
f ast
Pointer I
literal E
Ġc reate
ref IS
77 1
T Col
Ii EE
C P
der iv
tor s
10 50
4 000
Gamma Ray
od y
77 3
7 12
l ace
ERR OR
se c
7 19
77 2
7 56
I l
9 58
9 70
l ada
sp acer
acti ve
( (
78 4
data EE
7 47
77 5
h ost
77 7
11 15
S E
tuple IJ
10 20
g ed
tif ic
Co m
T ape
ac cess
OF String
Con trol
stream buf
7 17
EC T
p b
3333 3333
7 37
7 11
R V
Stat ic
si ve
. \
Ch annel
7 54
q e
Cli ent
num eric
QD om
re quest
f ont
actor y
7 99
k ind
7 34
Ġ string
Q Typed
QTyped ArrayData
79 5
ra te
Col umn
Re source
7 27
Hash table
Ġc alloc
79 3
re p
C H
er n
QM etaType
Tape Infos
() :
res ol
7 13
Connection D
toString Ev
In valid
7 44
79 6
79 1
a vi
M ask
Ġt ime
Ġcurrent TapeInfos
Ġ" --
au to
79 2
10 98
t ask
R GB
7 15
EPKc z
X ml
G R
scri ptor
ac quire
7 16
7 23
flush Ev
Ġb o
lo sure
78 5
Ġi p
c ip
PPv P
M ain
ge st
OF Condition
Ġc an
Basic Image
78 3
B ody
7 25
un a
7 22
N or
7 64
Ġm s
Lo ad
ls EPKc
Ġ" ../
sy m
pp Ev
Ġcon st
7 33
Ġg f
Comp are
trans fer
ffffffff ffffff
ter nal
p f
80 1
E Y
78 6
Tran sl
78 1
80 2
Name ERK
78 2
90 4
map INSt
e ssage
7 29
spon se
par ent
ole an
in clude
QM essage
at ive
O L
7 21
7 32
78 7
Ġ 12
EEEE v
r oto
pro xy
H elper
Res ult
7 35
xfffffff d
g ment
App end
ER So
sto rage
As sign
99999999 9999
7 45
Ġn ew
80 9
replace EmmPKcm
ZGV Z
s E
ap l
Ġp arse
C S
exp ression
QList IP
ce ll
Ġst rerror
100 6
UT F
count ed
St art
ERK St
7 31
in teger
80 3
Q Shared
100 8
7 74
S eq
mm ove
Q Icon
back EOS
qu ali
7 57
s m
reset Ev
Ġv ersion
le ar
R NS
80 6
7 41
8 74
symbol s
put Ec
lib nl
7 49
ZSt pl
end l
loc ate
I os
Len gth
pl ace
7 39
> ::
eck it
De lete
7 43
EEEE E
in st
xc c
Ġd m
KLocalized String
scri ption
En d
7 52
P St
re size
pairIK NSt
80 7
Le af
7 42
ti vity
el p
exp and
wx StringC
te red
KLocalized StringD
7 55
M o
en ame
Struct ure
8 94
po ol
hash IS
H ER
cal e
8 14
Ġopt arg
in te
Ġw ith
7 53
10 90
i e
re c
ZStpl IcSt
7 66
compare EPKc
re r
RV NG
le g
S T
traitsIcESaIcEE NSt
mpz RKS
Ġf rom
ptr INS
' "
88 4
mem dq
7 59
o stringstreamIcSt
b x
Ġ QListData
en ge
v p
se nt
empty Ev
EL N
8 27
Uni code
or i
Ser ver
id Ev
h d
7 51
Pro cess
p refix
rev enge
Ser vice
7 61
Ġfunc tion
lib revenge
P air
d up
Ġme mmove
Ġ 11
Ġ an
ro ot
end ar
QMessage Logger
ZNS s
p ix
to ols
W rap
pd at
ti es
t in
Ġf i
h w
w in
ptr I
ZNSols Ei
8 44
hashtable IN
sp ort
str u
7 69
f atal
7 63
7 67
end ing
7 65
T est
7 62
Sto rage
ht tp
ser ial
B ack
QString List
8 34
8 24
EE Eix
QVariant C
Data E
hash INS
Is Level
emp lace
R B
Col lada
ep u
X n
Pro xy
Ġ" ,
P age
L a
c airo
from Ascii
EPK NS
P layer
ig h
9 49
Ro ot
Ġstrto l
OF StringC
Ei RK
Con tainer
ar p
use d
8 22
l a
Ġn ame
R un
89 6
80 80
entry E
const ant
A u
EN T
n eg
8 12
e val
W ith
Trans form
d one
per ties
Option s
Ġf ind
Ej PK
8 54
sy nc
s um
Ġf close
up per
8 47
C ON
uni code
re port
Ġco mp
inter face
EEE OT
F l
12 34
m ux
Ġc airo
unk nown
8 99
9 36
Nor mal
C opy
u ce
le ft
o pe
1 100
si an
B ind
e ax
8 26
Po ol
De que
Di splay
U R
dbg msg
P E
Z ls
QHash Data
ent s
Ġ" #
rd er
fi ll
Ġ check
G rid
reco gn
ad ata
P ort
ErrorType i
8 64
call back
re ment
set up
xd c
li sh
1 128
d ae
Ġmem cmp
re allocate
up s
ser ve
C M
osg DB
Ġ debug
Ġ rt
Ġg dk
S pl
D L
Al location
Ġwh en
ctor y
Ġsn printf
o und
Pol icy
Ġt op
Ref INS
cmp gt
sq rt
L ong
8 13
t d
B in
si n
Ġw x
iteratorIP S
ent er
1 108
Ġ 13
L abel
it le
ĠA SN
Ch ild
s ch
tra ck
P c
p u
8 25
he ap
ern el
() ::
Ic NS
Ġstr cpy
Ġ EC
8 17
g g
EE N
IsLevel Active
qu ery
mem xuq
xmm xuq
90 3
i mm
an k
8 16
87 2
E dd
98 4
de alloc
xy gen
so cket
Comp onent
8 11
10 24
ul ar
re sh
C dl
in o
8 15
1 120
Geom etry
ZT IN
ke leton
An ces
P L
G AP
b ar
insert IJ
100 1
Ġ list
Ġn umber
M etaType
9 24
8 21
Ġ 14
xb c
Exp ression
jPK P
and not
I Lj
87 1
append EPKcm
90 9
Ġ" -
Arg ument
87 3
O wn
reallocate EPv
O xygen
app P
ab i
ran dom
Ances tors
add ress
Ġi m
R ow
sk ip
tree IN
M on
set Object
PK v
90 1
Ġexp and
90 2
8 19
n on
87 5
Option EE
ex tract
87 6
Sa ve
8 29
88 2
convert er
G ene
name s
8 23
i rr
de o
Ġ key
E di
ce pt
88 5
C ase
8 45
88 1
Var iable
88 7
lo op
Ġp l
88 3
98 9
90 5
90 7
90 6
setObject NameERK
A tom
88 9
sign ed
bo dy
88 6
get Ev
K Config
z one
ul ti
sy s
Con stra
8 36
8 33
node ISt
Ġlib una
B ar
8 39
se n
Ġmul s
8 37
arg s
pdat ai
8 31
f n
reg ion
QVariant E
O verflow
8 32
iteratorIP K
EEEv N
LO G
EX T
8 35
8 42
EED pOT
Ġput s
S ing
N um
b i
mem q
vectorIi Sa
ve lo
EE RS
ter m
st yle
E mpty
8 46
B y
For m
ZNSols EPF
ed i
t ab
S QL
Ġ 15
traitsIwESaIw EE
ame ra
99 4
s ERK
QDebug D
j o
OP ENS
8 52
Ġun able
8 49
Comp actor
AC K
at tribute
8 43
Co uld
8 41
vi o
ii ii
9 21
OPENS SL
Box Layout
Re ply
Q T
se ssion
S ign
Ġm y
89 1
Re al
go al
re a
000000 1
dat apl
Ġin it
ub lish
9 14
Ġf d
8 56
89 7
ver ity
xf b
an y
Ġ 20
mo te
f y
R ai
C D
to k
EE PKS
Alignment FlagEE
Ġsq rt
Log WeightTpl
8 69
8 59
A B
g ress
TCol Std
f mt
Log Message
ation s
cle an
9 54
Ġu se
89 3
S ch
Of Shape
2 250
datapl us
Dcm Tag
de sc
S copeEv
8 62
8 57
77 77
initial ize
Widget EP
Un known
( %
G lobal
t emplate
allocator Ev
Ġcon f
ap tor
9 34
89 2
T emplate
em RB
89 5
h y
8 53
Ġ abort
T uple
8 55
S P
En gine
Ġ" !
e lim
u mm
c losure
11 38
tri angulation
11 48
py bind
9 32
9 15
vid er
8 66
en tifier
/ %
rational C
coun tered
Ġe v
Se arch
12 00
T arget
8 61
Scene Graph
iterator IPN
p a
QMap I
red uce
Reg ion
s age
Se verity
Ġse nd
Ġso ap
t x
8 63
Text ure
align ed
p ing
G ame
11 98
pairIK j
8 67
9 44
, %
o si
8 65
ti le
j son
Rai se
Begin ScopeEv
Ser ial
8 79
Cont act
99 2
en de
d ump
om ial
exception D
fi len
Command Line
Ġen countered
cast v
99 5
St ack
se ek
g comm
ar te
M ulti
RSo S
Ġb io
qu i
rd x
IS T
99 7
Connection Type
Ġu ves
Edi tor
ch annel
g ing
9 27
window s
b its
Data Map
Access or
8 77
j it
xb f
Ġf c
99 6
F ace
arte sian
9 11
N TL
in tr
con trol
sh a
Ġb yte
C K
c ance
Ii E
Po sition
98 5
99 1
l in
EE cl
98 1
no tify
Ġo ck
100 4
9 19
9 16
ZNSolsEPF RSoS
9 23
acti vate
ffff f
r ush
Di re
Ġ O
iz ation
Ġf l
z dialog
98 6
QMapData Base
Sy stem
filen ame
code page
Math Structure
99 3
8 000000000000000
98 2
20 38
con t
9 64
em a
98 3
p attern
Ġf il
E O
Q Point
QFlags INS
o mp
Ġk rb
9 74
ĠS et
D W
string buf
---- ----
QTextStreamls Ec
S TR
9 12
cod ing
9 26
K De
p L
met atype
a w
Ġx ml
11 30
Mem Free
QP a
B l
t ed
98 7
Top Tools
string IS
9 56
Ġg lobal
Com bo
Ġs nd
11 88
Q Color
re serve
Cal endar
Sp ace
9 13
j ect
qu ence
i con
k t
11 58
qu ark
Ġz end
Net work
Ġ OPENSSL
Ġfi eld
Ġse ction
] "
M ax
9 69
Iv EEEENS
reg ator
tr l
en ded
initial ized
T Y
Ġcon n
11 68
is sing
9 25
init ion
9 17
I LE
Ej j
Para meter
add WidgetEP
w ait
D ate
met hod
pe d
cod ers
ex ec
9 31
Ġ and
b ra
Pro p
mpz S
cl Ev
9 22
trans form
Vi si
10 44
sw ig
Di ff
real closure
base IN
9 35
Co mmon
11 40
y y
Se ssion
pi ec
clear Ev
no context
si g
exp ected
H ost
9 33
EE ONSt
xmm ps
p rin
20 48
Ġpro gram
00000000 000
EEE D
ix map
Ġ Read
u d
Ġ Error
state m
) :
11 78
10 34
Ġin put
9 55
Se lection
traits ISa
AM E
11 11
9 76
ro ll
F loat
9 29
Ġre alloc
9 59
100 2
Print Message
P Fv
9 47
11 50
P roto
So cket
Ġ 18
9 45
t Output
9 41
re cv
Ġv cvt
_ "
imm b
9 39
nt ax
9 43
s rm
O D
velo p
fix ed
sl li
0 1
tran sport
visi t
Ġg ap
g mp
0 3
m an
set pv
9 37
ac o
v w
EPK w
2 260
Sh ort
t a
O W
ew ise
DE F
id th
Ġ Write
9 42
piec ewise
C lear
f r
Name Ev
iz ers
F actory
figu ration
less Ii
as y
Fst INS
9 46
9 75
11 60
QD ate
Ġstrn cpy
Uti l
ch aracter
9 52
100 3
2 258
9 63
insert Im
9 53
9 57
data Ev
traitsIcESaIcEE EN
Ġ__ _
insertIm EERSoT
Ġs c
ro id
tor y
Sy nc
i PK
global s
10 54
Ep ick
pair IS
disp atch
9 61
Ġen try
D R
setpv f
ad i
9 51
KDe velop
9 62
or r
F T
t al
Ġun defined
recogn izers
as n
Ġ local
ser vice
Ġar b
Ġd y
H T
10 15
10 74
Lo ader
F O
11 70
9 67
ab ig
C urrent
Gen eric
t s
Ġn um
abig ail
a uth
g no
ZSt eq
Ġa to
reco rd
Z pl
9 65
byte s
9 79
Ġs a
map IS
Internal NodeINS
Val id
is oc
C ategory
Raise EPKc
Tropical WeightTplIfEEEE
9 66
arch ive
ce d
t P
Ġb y
Z eq
fo re
met ers
F in
p ow
9 77
9 71
9 73
m y
C IP
Con f
11 80
and roid
Cont ent
si s
o i
d own
tain s
Data Ev
QPa inter
Ġ( (
U G
Ġ >=
Ex pr
10 14
app Eii
100 5
E ptEv
11 90
10 11
im er
N one
d uct
9 72
b q
b ori
Rec ord
it pp
CIP HER
Q File
R N
100 7
x ec
Id E
le ter
Input Array
u id
Ġh as
Type EE
Ġmem ory
Log WeightTplIfEEEE
10 64
Ġarg ument
T p
Para m
Ġu pdate
Impl INS
P AR
E ll
Ġ K
4 0000000
m id
Id d
And Own
ConvertPtr AndOwn
IL m
P nt
C lose
xa a
Ptr INS
EE OS
Wrap per
E OT
Ġ Locale
10 29
10 59
u sive
rd f
memp s
t emp
S ol
numeral I
108 4
Ġ- -
Ġf open
Ġb x
iterator IT
M A
Ġ buffer
Q ue
Free EPv
traitsIcESaIcEE RSt
Z ero
de que
Ic S
he ight
An y
set tings
EEE b
100 9
logic INS
M eta
10 35
ut able
Po s
Iterator INS
Base D
Ġp ix
S ensi
ER St
i b
se gment
s vectorI
Ġf ound
Ak regator
26 00
10 19
13 00
G emRB
ERK T
G P
H Array
o u
Ġp a
g ame
Ġ"[ %
cip her
) \
L A
Ġfor mat
mp l
Ch ange
mp ff
Ej ED
Id EE
g a
Combo Box
QShared PointerIN
Ġto o
10 49
ss can
Ac count
Ġ" "
vector INS
Ġ qu
Ġm ap
Main Window
t arget
S F
ph a
ed ge
QString P
nd PKcS
au ch
ref IN
10 39
Ġsl jit
xfffffff b
Ġsq lite
o id
Ġ 24
it ies
con cat
Exception C
ad just
ZT I
En t
10 41
10 23
l r
p red
Ġst at
Tra ce
Ġex t
c ul
10 17
10 22
Ġap r
13 88
12 18
hash ENS
Ġfput c
10 12
sp lit
Ġm ust
10 42
Ġ ra
base D
27 10
erase EPSt
mp bq
11 14
EE PT
10 13
Zeq RK
D is
an e
Ġp o
10 16
W ord
pe ek
10 37
ann er
gra l
e ve
lib emos
14 00
I A
120 8
Sensi tivity
app S
12 48
rt ual
w ind
i tor
c ard
10 21
ex i
f ac
10 27
er ial
10 25
forward I
12 58
bo ard
En um
EEv PT
DS R
Case Sensitivity
12 10
140 5
pre p
Ei iii
ti cle
10 31
Ġ< =
B B
L C
Ġd h
emos lib
Th read
ed Ev
u ves
vector Id
U M
et te
er ra
10 33
Ġ Log
ED pOT
D A
Ġ 23
U I
ros console
Ġg sl
Text ERK
10 94
10 26
Ġsk ip
Fv v
ĠPy Err
G al
Ġstr str
us tom
EEEE St
to gg
[ %
M et
10 36
h p
sscan f
10 43
Que ue
10 69
QL abel
fp a
EE RKS
am itk
ed it
Node E
d river
Ġ" :
d oc
re hash
10 56
10 47
OS SL
Ġ 25
ĠLocale Compare
De scriptor
Ġf st
Ġs printf
10 32
12 68
Ġsp ec
ci sion
IF F
E J
mpf x
C O
gr id
const ra
dom ain
U sage
ch ange
C lp
o verflow
Add ress
QAbstract Button
si mp
10 66
Ġim age
C artesian
U p
E ONSt
10 53
le ave
Call back
ab s
12 28
10 61
ustring D
QDebug lsEPKc
v ect
12 38
it ch
10 51
> \
he re
12 40
108 1
M D
Gal lic
Ġd bus
Ġb p
12 30
al ette
10 45
fl ames
p in
iterator INS
u f
File Name
12 98
Q BoxLayout
12 20
L m
110 4
108 5
Pack age
11 17
: \
Base C
10 46
108 2
Sequence Of
qu al
20 28
back end
Ġg el
Align ed
10 55
to pt
Un able
mo unt
108 6
10 62
10 63
Cur sor
Ġ Re
0 5
10 57
g tk
P an
le m
value s
EEEEv T
Z ZNK
27 11
E xc
ep t
ing ENS
g mpz
10 52
il er
ht ml
11 34
base S
inter p
em on
xfffffffffffffff e
e ff
108 7
10 67
Al l
on adi
mer ge
o o
QMetaType Id
Ġas n
Run time
ĠIn c
sol ve
ant lr
h elp
10 71
t String
xd f
er tific
tr ue
msg s
12 50
M gr
10 72
10 65
ct l
Im Vec
li ce
40 10
t en
Ġ buf
EEEE EE
10 75
ab c
F lags
C R
11 13
O ne
10 79
Fi rst
hw f
108 3
O ffset
w atch
f m
Identity IS
M Ad
112 4
poly bori
Sa IcE
ge bra
12 60
QHash I
d n
AS M
I B
S w
ende rer
trans late
literal ELb
D ense
SA IL
10 77
li ght
ZStls IcSt
constra int
12 78
b RKNSt
un signed
Ġp ar
n w
pro be
Pro file
d r
EPK St
S keleton
10 76
destroy Ev
iterator C
Id entifier
260 8
20 30
ic tion
12 80
Ġo ssl
108 9
0 7
S G
Ġfput s
Connection TypeE
10 73
Tra ck
ach ine
ĠS SL
Ġ load
Ei PNS
sto p
10 95
cance l
pair INSt
ra g
a mp
Imp ort
bl aster
less Ij
Ġ OSSL
11 44
. %
Collada DOM
12 88
V ER
Ġ% âĢ¦"
Pro perties
QSlotObject IM
Sp ec
er iv
R et
simp li
112 2
12 70
Ġ reg
repl ayer
g round
10 97
CaseSensitivity E
ĠĠĠĠ Ġ
/ âĢ¦"
dec ode
fa lse
10 93
IN FO
10 96
manager EED
sh if
de mux
Co lo
Ii St
c amitk
10 92
rdata set
10 99
110 5
Sc reen
110 7
11 37
11 16
V ersion
ad ow
20 000
v v
11 54
ertific ate
f actor
110 1
12 90
Ġp ara
ĠAsn Read
10 91
K L
OR E
130 8
o ver
V AL
B e
Ġ 30
M in
Ġh arp
base IP
D river
In c
20 40
110 2
Ak onadi
a j
S I
112 3
110 9
Func s
if IX
Zls RSo
110 3
11 64
Sc an
inst all
Graph ics
Ġa vio
15 00
Ar ch
Ġre p
19 48
traitsIcESaIcEE bRKNSt
EL in
xf a
B ag
Ġ 26
ĠS DL
c ity
inte gral
K exi
gebra ic
20 58
Q Rect
Input Stream
dep th
Iv EEEEEEEE
re q
jo in
en um
PPvP b
20 50
q l
g lo
ZNS i
seq an
112 1
EEEv DpOT
ol y
J son
11 74
14 60
se quence
x p
ft p
info i
Log Location
11 35
110 6
0 9
Ġ 27
E ff
b mp
Ġw as
buffer IP
20 78
pairIK i
PPv S
Runtime Error
Ext ended
ch unk
D et
11 41
inc rement
Ad aptor
11 36
Impl EPKS
connect ImplEPKS
RGB Value
- âĢ¦"
ba n
La ser
Default Compact
EPKc RK
11 84
proc ENS
IL N
ific ation
w en
Ġac d
T ab
prop ag
Ġe po
11 33
112 7
Make Symbol
Trans action
Ei E
11 31
Ġd ec
log type
fin ish
sent ation
Data base
Ġ output
11 94
ran ged
f its
Ei ii
Ġ1 6
11 32
ail able
13 58
11 39
pl ayer
tribut es
z mm
Ij St
11 59
QList IN
ch anged
p ck
se lection
112 9
pdatai PdPKdS
Ib Lb
G row
Val Node
d ict
xor pd
F ILE
Can not
st ent
error C
Ġ 28
Ġepo xy
PAR AM
EEE Lb
c ro
11 45
112 6
w ar
Compactor INS
QP DF
o te
QObject PPvPb
TY PE
13 20
il tin
112 5
u res
Ġm o
Q Tree
11 47
bo ok
14 28
hash ingENS
11 43
13 18
11 46
14 48
P e
w arn
Bo y
EPK iPK
11 42
13 38
11 56
QSlotObjectBase EN
Set String
in place
EL NS
j ob
Ġco mmand
120 4
QString RK
Ġg u
H SAIL
ap ply
Cli p
ConnectionType EPKiPK
proc EE
back IJ
en gine
xmm pd
118 6
cond ition
Tropical WeightTplIf
Ġx mpp
11 52
Laser Boy
st rerror
att ach
11 63
11 55
Reg ular
il y
11 69
EP Fv
Ġg al
! "
T e
scri pt
stru ction
aco mmon
c ut
120 1
j E
Ġ option
14 58
In te
118 1
se ns
11 51
13 30
M AT
mon omial
to ol
118 5
h int
11 49
Ġ 22
un ion
DefaultCompact Store
M ethod
20 68
14 68
13 28
10 0000000
set TextERK
140 8
55555555 55555555
F F
( &
staticMetaObject E
11 77
Part ition
Smart Pointer
P ending
quali fier
Ġ 29
ĠP R
11 99
120 2
stream v
c ert
13 10
Simple List
Ġg r
11 62
ĠGet Locale
11 71
13 40
11 53
118 3
build er
am ily
11 57
Ġ" '
ĠT h
Gtk Widget
11 79
118 2
E cl
C amera
Zpl RK
umm y
EEEE ENS
None Struct
W idth
11 61
Ġe nd
Ġ signal
c ent
11 66
Ġgs b
Ġ char
Ġd et
reallocateEPv j
ne ERKS
QDom Node
n PKc
free Ev
s list
Contact s
11 73
120 6
Ġf ail
11 75
EE EvE
e rb
sin k
au x
Alloc ate
H ugin
11 67
ost ate
120 7
A p
Au to
po sition
x de
time out
13 48
Pri me
Ġn l
Ġ signature
120 5
120 3
Ġt ran
12 14
G Lib
M M
11 65
Con figuration
118 9
Data Ptr
B rush
15 20
O ver
11 87
130 5
EEEix ERS
Ġ Destroy
A sn
a si
120 9
Ġh d
I ostate
EEE T
container INS
constant IbLb
PKc i
EEE N
20 18
11 76
66 13
Ep eck
m eta
11 96
o x
14 38
From ID
lic it
S ort
Ġc url
11 72
Ġn et
Mat erial
en a
13 68
Ġth is
ĠGetLocale Message
arg Ej
ĠGetLocaleMessage FromID
11 93
mem cpy
func tor
string E
Ġ ValNode
al gebraic
le ctor
string C
Smart Ref
Fe ature
12 54
N AME
Ġc m
AL L
Default ES
m f
sa fe
Node Of
Ġst ate
base Ev
ri p
symbol C
bo olean
ol ation
Allocation OptionEE
Ent ity
Leaf Node
r ender
12 29
h and
clean up
13 50
11 91
stringbuf IcSt
C ell
IP Kc
U ID
Ġ object
D om
QS ize
length Ev
ustring C
G ra
traitsIcESaIcEE EE
nc ase
11 95
b n
13 60
12 44
GLOB US
tri es
12 16
p ad
Ġe rr
Ġ \
Data ILi
Q Static
16 00
Log ging
Ġdi splay
fin al
J o
Ġi o
vi deo
Ġ Q
15 58
Iv EEEE
12 36
en code
20 60
11 92
12 23
13 78
11 97
comp lex
ass word
PKc iS
Ġ op
Ġq h
di re
D P
as c
/ /
14 18
mo z
DcmTag Key
i a
equal s
con tains
Ġin dex
c tive
12 11
ublish er
D b
QString DataPtr
String DataILi
QStatic StringDataILi
12 24
is ual
14 70
12 41
Ġ 100
E f
14 78
Uti ls
Ġm atch
150 8
string D
si te
Convert er
T H
13 14
er ge
12 66
ver ify
12 13
Ġd b
Init ial
12 21
Ope ration
S O
enti al
H as
o ff
ho ok
cccccccc cccccccc
Hugin Base
e et
n ls
impl EiPNS
12 19
13 98
12 12
rational Lb
12 17
row ser
Con v
12 15
moveIR N
12 35
14 30
12 55
i stream
If EE
Base INS
type s
Ġm aster
F mt
Ġt ext
12 31
13 89
12 22
a q
Index ed
13 70
Code d
12 32
c trl
v mov
r on
p id
12 39
trace it
14 80
re verse
13 90
read y
dispose EPNS
aS EPKc
p an
15 38
12 26
EPKci S
Ei gen
vmov sd
met adata
14 88
Ġev ent
N ot
p add
12 33
12 27
init EPSt
12 43
nls at
12 37
f g
Pro gress
14 40
r pc
12 61
Spl it
cal ar
14 50
13 80
Bo ok
12 67
Ex ec
ĠWrite Blob
D ep
12 84
con v
IG HT
In st
sp arse
` %
Ext ension
war f
12 94
sm all
D own
pro gram
x ad
ur i
Pack et
Ġf e
2020 2020
stat s
12 56
12 64
13 87
14 98
h older
12 25
z y
12 53
vectorIi Lb
128 9
12 45
12 74
12 77
12 49
Ġre port
QSlotObjectBase EP
12 47
12 52
im um
allocator ISt
Ġ I
14 10
C A
n il
im al
12 57
12 69
Ġin f
mpq S
arg ument
Ġ Stream
As sert
map IN
QString ED
12 46
19 10
p block
14 90
130 4
D p
s f
12 63
20 70
Ġf ont
tra il
s cale
12 42
ZSt L
is o
j S
128 3
w er
err msg
Ascii String
pro duct
30 00
pow er
xu d
e ar
12 65
Ġal loc
l c
12 73
n iter
PKc RKS
Ġf read
Ġ"( (
p k
130 9
deallocate Ev
str cmp
x t
12 51
STR ING
Ġ" *
2 248
14 20
Root NodeINS
O ps
128 2
Object ES
image s
13 35
W arning
Re port
Epick ENS
X Y
l an
ER N
decl P
15 18
130 2
g row
20 88
A uth
appEii P
Re move
traitsIcESaIcEE Ei
Grow ing
app ing
ti g
12 72
ncase cmp
m aster
QS coped
n f
12 62
U P
ae abi
- %
128 1
: âĢ¦"
12 59
18 00
bd eriv
ist ics
e Ev
ĠG C
12 79
15 68
128 5
P F
D y
base I
128 6
pairIK N
QP ixmap
Pro gram
Fst ImplINS
130 3
f ter
s urface
Ġc ur
QM odel
13 12
12 71
13 15
oi ce
Sch ema
12 75
PK EY
a ff
v as
d ht
Ġd is
IK N
Ġd ino
Ġ bu
12 87
to re
ri pt
Q Key
15 50
13 94
12 76
ext ension
R ender
Bo olean
Ġbo ost
sk top
helper s
xfffffffffffffff c
wxString S
Ġ" $
pre cision
130 7
U E
15 88
sens or
sc ape
t St
line ar
Growing Array
Sa Ih
130 1
15 28
togg le
2 147
Ġb n
sc reen
12 91
ĠD CM
T ask
Ġ3 2
ol ume
EEE deEv
cli ck
t itle
l x
w d
cro ak
rational E
Ġ message
dat atype
Ġt ra
20 98
12 93
streambuf IcS
or ld
15 40
Le ft
As sertion
15 30
EjPK P
12 95
no te
QModel Index
type d
15 80
intr usive
od er
p ixel
Ġ% .
12 99
15 10
130 6
15 60
l ush
bin ary
17 00
re at
Ġdo es
140 6
w o
O r
er ce
ea k
un pck
12 97
B ra
EEEE C
A V
PK NS
t bb
13 26
de scription
Ġ* )
to a
S ER
Ġ are
13 31
ifIX sr
P attern
just ification
15 64
Ev ENKUlvE
Ġst ream
x ab
iction ary
S TA
QDBus Pending
13 45
xa e
xffffff e
S k
inf ra
Ġg e
Ġs ub
20 80
th er
Ġ ret
U rl
PK w
Visi tor
L NS
and pd
Ġ1 7
prin ter
P ublisher
Ġato i
Trans fer
ate s
Ġm ax
iter IN
18 60
traits EE
con s
iterator IN
Arch ive
Ġso ck
infra structure
QTextStreamls ERK
13 13
15 48
12 92
13 21
13 36
Ġ header
O si
used Ev
xb e
clear ESt
Ġp ack
G o
number s
infrastructure INS
15 78
2 240
Ġ 34
Para ms
Ġc ups
Q Form
policy ENS
13 44
Bo ol
13 34
13 11
sch ed
T ile
140 1
De leter
met ac
v m
Ġaj List
EP T
Set Error
key EPKSt
rin k
Ġ1 9
st ep
IN E
M T
13 27
w eight
13 23
Ġget env
12 96
13 16
l ation
gu age
13 24
Ġ 40
ĠL ept
str l
quali fied
x io
Msg Severity
ĠLept MsgSeverity
13 37
13 42
P er
13 39
Q ComboBox
13 56
Ġm ode
13 19
id x
Ġe mpty
S end
n a
Ġ 21
13 46
State INS
8 0000
16 58
debug Ev
f etch
s b
14 17
Li bderiv
xb b
moz c
QByteArray D
140 3
13 29
13 59
4010 000000000000
E G
cl one
o sition
Widget Item
I ZN
M ove
QWidget i
p lot
Re lease
bu iltin
13 22
Qu ant
Ġ #
13 25
int l
13 32
200 8
ser v
cur sor
s ER
ba nd
Ġv er
13 17
Ġ[ %
13 33
Di gest
g on
19 70
pr ite
bj ect
M ark
13 41
13 54
K EY
AS SA
13 47
16 28
Con tig
ed a
ro sk
Co un
140 4
16 18
13 43
to IS
r flags
expr E
Output Array
Ġ rflags
K Contacts
itera to
Unicode String
Stat s
13 74
IK S
back trace
ps ort
P op
K S
A rea
lessIi ESaIS
re sponse
Ġc ity
A Y
gen era
li p
140 2
13 64
Pan o
L ast
arg e
160 8
Eix Ei
r sa
y in
19 00
13 49
li ct
Ġgu ard
15 98
Ġc opy
v b
13 79
aaaa aaaa
ref s
10 0000
si tive
Ġ default
QList IPN
release Ev
ZlsRSo RK
R aw
g lobus
r en
eval u
15 70
enc rypt
ZSteq IcSt
13 53
13 57
16 68
14 14
15 90
Ġh andle
13 51
app lication
13 66
L atin
13 84
Exception D
Func tor
13 55
Ġst art
138 5
13 67
16 38
L in
Ġff lush
im ation
C L
lib c
13 63
138 1
se s
26 18
Con version
F ail
13 61
16 91
Mem Get
138 2
memp d
A G
W ork
Constra ined
ro t
auch y
F A
13 72
M utex
rd eEv
bt Vector
g m
ix Em
15 54
138 3
Log WeightTplIf
module s
i de
ac count
ĠC an
M AC
13 52
13 65
I RS
EE PKcRKS
eq E
xa f
14 84
ope ration
check ed
ing er
16 48
H is
me di
Ġ server
asc ii
13 69
13 93
in ner
d en
B UG
13 77
Id Li
ĠTh row
13 86
Top Loc
Ġm ake
13 75
sh ort
un initialized
vectorIiSa Ii
Window TypeEE
16 94
20 90
ch ain
Li ght
Def ined
ESaIS A
Ġ Al
Grid Layout
s cm
Ġ 38
m up
IP P
sa mple
13 62
Re sponse
Pro vider
140 9
X T
Ġread ing
14 34
14 35
EE OT
ht ex
tr EPKcS
13 73
O ri
N ping
co der
140 7
Ġ3 1
16 20
b io
16 30
c alloc
13 71
ti m
svectorI jj
z p
g f
ĠS y
inplace IN
13 91
K ernel
20 10
m gr
T ex
Q GridLayout
14 54
14 24
mo di
ac c
C auchy
res sed
Ġb com
Idd E
Match er
is sion
Ġip mi
w w
ap ter
48 36
QDate Time
Ġal locate
f re
Ġf get
iv ed
or ith
resol ver
QT erm
Pro be
QF ont
14 11
Exp licit
vectorIiSa IiEE
ent ation
150 5
16 10
C ap
Id EENS
13 76
Ġ length
EP c
ae s
d m
QVector I
coun ter
14 85
IP NS
f amily
' ,
bl a
14 41
13 95
Ġm ain
14 12
me sh
L IST
F QTerm
ti mer
Sing le
13 92
sub st
13 96
14 26
14 66
ffffffffffffff e
s ra
Logging Category
Con struct
Ġt ile
traits ILb
C ast
Ġ {
pe g
16 88
Ġ3 6
rosk a
14 19
ac cept
si ble
Ex port
ZNSols Ej
avi x
4 240
Ġt able
erce sc
14 16
T imer
Ej EC
4 0000
Sing leton
Cache Store
16 98
gen e
rw lock
oly nomial
sh eet
14 21
26 28
13 97
tree I
13 99
14 44
char s
pl ay
14 31
IK NS
KConfig Group
EEb T
Do uble
ĠRead Blob
14 94
Ij EE
If E
E t
Con sole
Co mm
No tify
Ġu ser
14 15
14 59
Ġl ast
base C
ref D
ir c
ix Ei
n one
or ter
fast FreeEPv
pack us
Vi olation
Mode E
17 96
bla htex
Ġaj Fmt
rsi stent
expr St
18 68
si de
Type Ev
150 7
cd r
as si
y cle
in v
Lo ok
Get Level
lic ate
14 29
IP v
16 78
Error Code
Bo ole
vectorId Sa
16 40
Ġ 50
18 58
instance E
au dio
14 23
17 97
AR N
Bin ary
Ġhd rl
Ġp layer
Ġb g
14 37
EEN K
14 64
sock addr
14 25
14 13
Open mode
Ġ3 3
Ġf lag
g ree
en o
Exp lo
ffer ence
locale D
hash Ev
i od
S ection
GAP I
leg al
ĠA B
16 80
K on
qu are
14 45
iterator neERKS
Ġ OBJ
ge om
10 00000
runtime check
QMapNode Base
16 70
In sert
insertIJ RKS
: //
180 8
x ercesc
16 50
Q Graphics
D U
14 42
K ate
Ev T
pL ERKS
mpz zp
d ap
s ptr
count Ev
150 2
ri eve
17 45
14 22
Inter val
14 55
IS A
14 46
EEEE b
QKey Sequence
150 4
14 74
150 9
String E
vi rtual
it ing
14 27
h ex
desc rs
Ġc tf
14 49
Mo di
shif t
Ġcon fig
16 60
xe e
AT E
14 52
M erge
14 39
14 36
Ġ li
C ustom
b Ev
ZSt ne
0 6
14 69
vo ke
14 32
file s
D avix
14 43
Ġc ache
Ġor c
sh rink
Ġl ink
14 53
14 51
Ġb ut
Ġ hash
Empty Ev
Qt MetaType
QtMetaType Private
V E
forward ISt
A x
re ak
ĠMagick Free
14 62
R ES
Z ZL
Get Un
F ix
com bo
low ed
Ġcan not
14 33
g s
14 63
190 8
Ġsy s
== ==
ra m
find ERS
150 3
C bc
14 77
U B
Ġsi n
ls ERK
14 79
14 56
Ref Ptr
bus b
ĠSeq Loc
tri b
M ol
Ġun it
14 57
List OfShape
t cp
Ġc ol
EM NS
D C
Ġ3 5
Q Xml
K Calendar
15 24
150 1
Constra int
xe f
re source
14 81
14 61
Ġstr ncasecmp
GAP State
14 65
ec l
As Val
Ġ lo
Ġb lock
14 47
str casecmp
KCalendar Core
B ad
Flag EEC
x ba
Sy ntax
ast yle
orith m
for ced
insert Id
track able
di m
F IL
14 82
18 78
DA TA
Ev al
tree IP
up olynomial
Coun ter
no w
stru ctor
er min
osi ty
Bind ing
150 6
IP PN
18 38
d t
15 74
Ex ternal
iterato rdeEv
List Of
comp ute
i E
insertId EERSoT
M alloc
s EP
E Buffer
14 73
Res ume
f w
14 83
arg sEv
Ġ3 7
16 90
170 8
Format String
18 70
ep s
Prop ag
ph ab
Ġc al
instance Ev
Ġ> ,
QPoint F
Ġse q
k ernel
xc a
14 67
17 38
Par ticle
o ss
e si
Ġpl ugin
ns upported
m all
s u
inter n
Value Ev
18 40
EE RKNS
18 48
tree IiSt
q i
17 30
Ġso cket
18 80
14 96
Tri angle
xc f
14 95
ri ve
le tion
c old
S ec
14 93
ver ti
nt l
14 71
14 72
14 86
19 74
14 75
S S
polynomial ENS
Core Config
14 89
w h
14 76
CoreConfig Skeleton
26 38
c or
lay out
h h
Ġ U
Ph p
PK CS
Bo und
K CoreConfigSkeleton
frame ELb
endl IcSt
E bb
re ce
c ups
18 18
14 99
ve ls
17 18
14 97
Private Ei
a ded
tific ation
15 25
Ġ Y
18 98
Ġ3 9
17 10
g ro
b ed
15 14
Dire ction
c r
base ISt
ĠajFmt Print
Ġj son
m anag
al ance
expr P
20 000000
20 19
test s
Next Ev
mat roska
IPK N
can not
QDom Element
lo m
18 30
co dec
P ut
p B
& ,
Ġ4 2
ĠĠĠĠ ĠĠĠ
G st
18 20
pol l
mul ps
15 17
hd rl
Sign al
15 16
Ġse c
w ay
P ush
14 87
xc b
Ġs sl
15 33
14 92
15 12
15 34
17 28
17 54
15 36
15 29
ch o
17 70
u ch
p ost
15 13
14 91
QXml Stream
Q GS
15 27
15 44
18 50
15 26
ld ap
stIS A
16 46
def inition
Def inition
p ret
17 60
traitsIcESaIcEE ENS
17 68
15 15
a de
p ay
cal c
Ġval id
15 19
Ġ 60
Index Set
17 20
v ance
Ġ 48
mm db
ps rl
sc r
EPK N
Ġ base
Q CP
Ġe lf
1234 56
15 21
ERK i
Un wind
form ation
dae SmartRef
command s
Ġ"% *
15 49
Assign EPK
17 98
ARN ING
IJ EEEE
15 22
15 11
st ESt
G l
object PKc
h s
S prite
Proto col
H older
15 31
Qt Curve
2 100
traitsIcESaIcEE EP
Dense IndexSet
15 23
resol ve
15 32
entry IN
15 37
connect EPKS
p cm
Ġac b
cv R
M utable
ĠG B
19 28
19 30
shrink Ej
Ġ4 1
var s
il ity
15 43
Value Accessor
up t
18 90
* )
Ġx malloc
exception C
19 80
DefaultCompactStore ISt
EE aSERKS
16 16
< /
Ġm sg
- "
K GAPI
ai g
pair IN
Ġ4 3
Bu f
Ġgf arm
17 78
Li mit
traitsIcESaIcEE aSEOS
Ġ4 4
15 46
15 84
15 47
15 59
erra rg
15 39
ran ch
lo or
pe er
U ErrorCode
str cpy
Ġ4 5
Ġ" __
F OR
Dp T
17 48
15 61
spec ial
Dire ctory
15 45
phab et
i fied
ic ator
Ġbyte s
Ġo pe
ĠĠĠĠĠĠĠĠ ĠĠĠĠĠĠĠĠ
R i
ew ing
N ULL
R ed
EEEv P
19 90
rational NS
V er
Type s
xd d
Sc roll
15 35
17 88
Vector Array
Ġsi g
Pixel s
mem ber
Data Stream
15 52
160 2
index ed
on d
15 57
stream IcSt
exp ect
i str
Shared Data
D im
19 38
put s
Ġa mp
Se ek
Ġg p
15 56
str cat
ECT OR
16 27
mid as
ex ist
Kon sole
15 42
Ġn e
backIJ S
Element s
m c
15 51
15 53
E qual
19 98
Ġn ext
18 88
AP P
15 87
16 34
15 55
18 10
alloc v
10 0000001
16 24
15 62
Ġv i
Ġin ternal
4 000000000000000
G A
15 72
G dk
15 63
15 66
G io
18 28
IP St
15 41
Ġre quest
160 4
15 94
entry Ij
17 58
urn al
ER T
15 75
16 72
OB Mol
Ġde vice
160 9
15 67
" "
Ġ abi
Log Level
160 6
Ġno de
w are
Value Ei
15 65
160 5
Part ed
iterator ppEv
append EPKc
c ar
Ġpro cess
Ar ena
19 78
ĠajStr Del
Ġp re
19 68
cl n
construct IS
160 1
cv bEv
ra t
le vels
J ack
Ret urn
15 69
Ġh ave
Au dio
vector Ev
V T
ex act
ign ition
r nt
Ġd ire
Sa IT
Ġfl ames
Explicit ly
en sor
Ġp ow
15 71
Lib Matrix
T N
17 40
ver s
part ition
bt Aligned
SH OT
22 70
Fin al
The me
15 79
15 76
Core Application
Tropical WeightTpl
19 20
asy nc
propag ate
per m
simple x
backend s
15 86
QD ialog
G Parted
un ct
15 91
15 95
sra i
vectorI b
ĠPy Exc
17 80
s INS
u tor
19 18
pro vider
] :
19 50
traitsIcESaIcEE Eb
d ense
19 40
16 49
log y
in voke
DB C
15 89
Ġb it
Mat D
lt RK
own er
S core
LogWeightTpl Id
Default CacheStore
FT P
sh ell
Q Explicitly
QExplicitly SharedData
Ġip atch
15 73
200 1
Ġ 64
2 108
160 3
type Ev
Ġbg av
17 50
15 82
15 99
enode ES
Q Json
16 14
Ġ4 7
15 77
15 83
wr ong
p w
LA GS
19 58
it g
is Enabled
s Ei
Fil l
ba sis
type ERS
16 22
Sh ow
f cc
Z ltRK
Ġc ode
unique IJ
Fe ed
16 54
Ġ4 6
15 97
cont ent
16 25
16 56
di gest
IS B
ACK ET
19 60
Allocate Em
Ġd ump
click ed
Me as
15 81
160 7
Command Source
GrowingArray Base
R P
15 85
& )
16 26
j mp
16 21
17 90
G ET
buffer ISt
Ġinit ial
; "
w j
Node Mask
15 93
123456 789
ĠDestroy Image
repl y
P j
reallocateEPv m
O b
x ce
2 118
Magick Event
ol id
16 45
15 96
Im f
G lom
ĠLog MagickEvent
read er
vol ume
15 92
glo ox
16 36
16 23
Line Edit
Ej ELb
pu lse
cc ur
en er
S V
999999999999 99
16 17
BasicImage Iterator
16 19
EEEE S
enti c
O rder
16 11
de scriptor
ls ERSo
Ġ 54
QAbstract Item
16 32
Q LoggingCategory
at ures
16 31
G Im
GIm Allocator
Ġc fg
big int
rational aSERKS
16 39
16 57
Id Lj
multi precision
manager Ev
Ġp ath
j s
2 138
Ġg lp
16 15
_ ::
xc d
16 42
P lay
po si
al pha
F etch
Ġsy mbol
packet s
16 12
in ary
Ej jj
Ej P
iteratorIP Kc
vectorI f
s cope
g ml
16 52
serial izer
li de
w f
0 123456789
Ġco lor
QString aSERKS
16 66
um ns
I Di
Value E
16 74
Ġb h
v a
PK T
wx Event
id entity
16 44
16 64
log ERKNS
d ay
la ration
genera te
Ġex ec
P ost
16 37
Fvv ENS
Ġs upported
i PKcz
Q CoreApplication
16 29
widen Ec
16 33
ĠM ain
nw Em
Set ting
16 13
ex tra
fac et
EEEix EOS
no return
oss B
Logger EiRK
OFString PKciS
nl y
16 47
Ġsa fe
An imation
For Ei
istr y
T itle
an ti
plugin s
19 88
Ġt ag
17 34
vectorIf Sa
Pool Allocator
Spl ine
16 51
20 54
16 43
QForm Internal
x ed
20 64
Ġd er
option E
Ġ4 9
Ġ 57
** **
2 200
16 69
Function Pointer
Ġ 56
16 53
R enderer
c P
UR L
ine q
le an
EEEEb RKNS
16 67
ec e
Ġ 51
z alloc
s pe
sp i
Un pack
Sh ader
interval E
ĠF ailed
C md
16 59
verb osity
V isual
16 55
en tries
dire ctory
AB C
R O
Ġ ai
ph y
Ġg n
16 87
2 170
CommandLine Option
isEnabled ForEi
16 35
di g
py x
25 58
2 158
La zy
IM E
16 41
ir cle
Ġ 52
24 64
wx Window
Q Dir
16 62
QIcon D
Back end
property list
16 63
Ġstrto k
Ġ 55
W h
QString N
16 76
A ss
N C
2 150
Ġgr pr
16 81
ref EP
Met adata
an guage
16 79
B io
pairIP St
vect IN
QTypedArrayData IN
D ictionary
Bag s
170 1
mpq EE
Tree INS
16 84
cli p
a head
L N
Ġu rdf
avi g
realloc Data
Ġ archive
ĠG ImGui
Explo rer
W ARNING
K IO
/ "
Reg Exp
10 000000
rt p
asi o
16 89
T DF
2 120
r ic
Ġt ds
170 2
sen sitive
number INS
16 99
Ġ% -
manager RK
228 0
7777 7777
R ule
XML Node
AT ION
W R
mpf EE
No te
Ġi te
Ġl ong
ten sa
Open Gl
Mon itor
21 10
cl EP
traitsIcESaIcEE aSEPKc
Q Brush
bit map
en coding
ac ng
Top Exp
as so
ĠP ro
H eight
Ġ 53
Ġ Is
mpff EE
170 6
qui red
Lay er
mpfx EE
rational ELNS
Ġrt nl
G Ext
10 00000000
16 75
Ġe ns
Ġ$ .
name Ev
R ole
Null Ev
Th is
QFile Info
Con cat
2 128
CON F
Ġ 255
pro ject
W orld
di fference
bu cket
16 86
H E
k ml
Ġ 58
QS ql
16 96
16 61
bound s
len g
17 17
16 83
w hi
Ch ewing
hwf EE
symbol P
2 148
ESaIS B
XY Z
k s
Ġon ly
2 130
eq ERKS
as on
16 73
16 82
170 5
16 95
S ep
de gree
re loc
22 78
b alance
Ġm issing
comp iler
2 180
value Ev
in s
pix buf
EL m
170 4
170 7
a ton
valid ate
17 27
2 268
AST RefCount
EE m
Ev PT
Ġstrto d
16 92
Type C
200 2
au tom
Ġcli ent
2 178
l le
hd r
ss g
Dep th
I ii
Ġd up
from Latin
De scription
xd a
evalu ator
20 44
ac ity
l at
D ummy
visi ble
16 71
u ration
or ity
Ġ 59
SER VER
ABC DEF
Ġ le
17 47
proto col
26 48
ES S
res tore
Arc INS
16 65
EEE ppEv
ĠT e
17 46
P O
id EvE
2 190
Coded Entry
move mask
2 168
16 85
16 93
Ġp cap
26 78
e lem
17 22
Ġm ail
6666 66
f actory
Out Of
Ġgen hash
Array INS
O rg
17 14
g lp
m ag
170 3
de sktop
pin yin
string ESt
Ch oice
C ut
Ġf lags
He ap
170 9
Ġc os
pr i
Ġx n
17 12
are a
cry pt
16 77
IP S
object PPvP
decl jPKP
18 64
ind ent
infoi Pi
b pp
no me
et ime
bb y
ConvertPtrAndOwn P
ri g
G EN
h ugin
40 28
Q X
Sh adow
Ei RKNSt
Para meters
17 24
ensi ble
n id
QP air
m isc
literal ES
Ġ" &
U i
xffff f
D one
ĠMagick X
200 4
EEEE SaIS
lo ud
@ @
par ray
17 44
f x
DE BUG
Object C
17 19
17 11
ic ation
cent re
22 28
z solve
g ss
l ap
ps u
ec ode
At tr
Ġint log
sc anner
22 20
16 97
17 87
R A
k it
17 26
pc re
17 15
17 37
O DBC
i P
io init
Ġlua L
traitsIwESaIw EEC
M DB
17 25
Di stance
Ġf ir
18 74
ban k
ĠP rint
K NS
ad c
u dd
EEEE EEENS
xb d
Ġ http
rb t
it ution
18 14
al f
av ailable
24 00
Ġw indow
17 16
40 97
> %
S K
2 140
STA T
resh old
g fs
Ġf rame
psu busb
base ILN
Ev ENK
ERK j
17 21
19 21
li a
17 39
Graph ic
Comp ose
ERK SaIcE
cap s
17 42
Ġre move
17 33
set s
Ġh ost
F IN
Ġfail ure
17 13
inner Function
c y
Of Integer
Ġb pf
Rec e
26 68
S ensor
ub e
Al g
O G
ĠAsnRead Id
Ġn on
17 49
Pe rsistent
flag EP
xffffff ea
ĠA c
NodeMask ILj
ff e
Ope rand
Gene ral
at tributes
P DF
cul ate
Ġ"< /
Item E
helper Ev
rd l
to tal
String Len
View er
kind S
26 88
22 38
EPK v
18 69
d v
EN D
Default CompactorINS
20 74
ag no
180 4
xffffffff ffffff
20 0000
17 23
Ext ensible
matrix I
17 29
xd b
W ire
Ac ti
20 14
RefPtr IN
ba c
Enabled Eb
z string
17 74
t ps
EEEE D
s upported
centre on
17 43
17 84
o stringstream
17 31
23 47
to gram
sub str
Gene rator
data base
M N
tree IjSt
17 36
17 32
Ġm achine
M B
ĠM C
Ġp ng
Format ting
x mpp
S ET
RE AD
s lice
22 10
Sk etch
da emon
17 94
Ġ rap
numeral ERK
og raph
sing le
17 35
17 65
2 160
IX T
c bc
wx Private
C ORE
Of Real
Ġgrpr scm
r p
17 64
ĠĠĠĠ ĠĠ
20 24
OFCondition D
ac l
17 57
17 59
lle l
17 56
i PdPKdS
me ch
18 24
E W
si d
iteratorIP St
o ol
O DE
s quare
Ġaj Debug
cal er
Dy namic
17 99
V olume
pro perties
ra ctive
comp at
it x
Collada Model
o ur
b pf
Node EE
st amp
Ġver ify
DOM Element
17 79
17 63
20 00000
2 208
17 41
cvt sd
Ġn la
is EmptyEv
lib p
ZNSs C
Ġs ho
fl at
w i
17 66
Null DataEv
sp n
g wen
Q Network
Ġ 63
gu i
17 53
ColladaModel Reader
GetUn typed
GetUntyped NullDataEv
Node ERKS
17 72
17 67
D at
2 188
17 86
V ECTOR
17 75
17 93
ex port
18 94
17 55
20 34
ti p
EPKc b
17 62
agno st
G F
EN EM
18 13
Mem ber
Ġ 66
26 58
17 69
Ġin ter
insertIJ S
180 2
17 85
22 18
QVector IN
17 89
22 90
Ġfir st
26 53
Reference d
trans action
17 71
look ahead
vi ron
al k
17 95
17 77
223 37
Ġst p
ti o
kind Ev
Nping Ops
17 76
17 82
_ %
Ġfil ter
ti l
cxx ne
180 3
c free
lessIj ESaIS
IC mp
S SL
Vi deo
ĠajStr Assign
data Ij
230 8
Ġ 72
18 45
A X
18 34
ite ms
RVNG Property
on ly
exp rb
17 73
z u
180 6
pre sentation
Ġ"% .
ĠajStr Get
QObject Data
app EP
e ap
RS A
; \
17 51
c red
ENEM Y
traitsISa ISt
O nly
Ġp er
180 1
B rowser
Ġ File
180 9
228 8
H igh
omp ress
Ġ 62
ope rator
, âĢ¦"
Ch unk
se l
s keleton
18 44
17 52
de refEv
Ġ 61
t le
hy wf
hywf ar
olid ay
o fd
Ge o
Stream Wrapper
190 4
180 5
Ġ rand
Ġc md
Ġ 70
20 84
Ii S
54 77
Ġ 90
c widget
le ep
17 92
Ġopt ind
p ass
180 7
Pdf Error
Ġ range
do Destroy
Ġp ri
SubTree ESt
doDestroy SubTreeESt
H t
Line ar
17 91
Dec laration
18 11
fin ite
Poly gon
18 54
ListIJ EEEvE
(( (&
Object Array
autom aton
stIS B
gwen hywfar
17 61
Ġfget s
Dec ode
18 22
S parse
17 81
n dc
Node Ev
Ġse lect
ĠF E
Ac ce
Ġ 67
b da
Mo use
Ġf atal
Ġp error
Ġal l
QUrl D
iteratorIP P
Ġ os
pdatai iPdPKdS
rational I
18 84
17 83
o ct
sh are
pro of
Object Base
18 12
Quant um
22 30
Ġ 65
Q Style
A st
ug h
pd u
Mat ri
u sic
Ġo ffset
imp ort
QL ay
proc E
unlock ed
y mm
18 92
v pi
ĠS er
Ih E
l ua
Fin ish
F ast
SmartPointer INS
shuffle lo
19 24
Ġpack et
se topt
Ġstr cat
2 198
reference s
type ENS
next Ev
QTypedArrayData I
F inger
22 98
Ch ain
F actor
dy n
ran ce
18 67
ĠT IFF
OutOf Range
18 16
.. ."
18 21
18 19
18 15
18 42
EX P
sp in
strl cpy
Ġl dap
RVNGProperty List
base IPN
Q Standard
IO Device
AN D
18 27
N avig
p x
Ġin d
Ġ bad
Le ss
n sock
process or
! \
simpli fy
Ġin fo
18 66
mix er
X IO
h m
18 36
file buf
pairI i
Ġ 68
Hash Table
18 25
ĠN ew
ach ed
EN G
18 37
R SaIT
ul er
Ġ ptr
K A
Z ip
Ax is
th is
is mt
18 31
vid ers
30 40
18 39
ĠIn valid
sh ape
ccur red
uc ene
Ġu int
Ġa u
Ġarg v
B L
CA F
R W
EE NSt
vectorI h
18 23
y ph
fl ann
is match
18 26
Ġrap tor
transform er
ag o
xffff fc
TL S
r is
Qu ick
00000000 0
EEE ptEv
l g
Clear Ev
% %
Gallic TypeE
Ġp ort
P rintf
cl as
Log ged
od o
ti al
18 33
fore ach
numeral EPK
e scape
18 49
Ġ rl
pred ic
Name s
am ing
ro l
EEEE EENS
Transl ations
18 61
Q IODevice
xe a
bt t
mpq RKS
O K
19 34
Ġi mp
18 29
Al pha
It E
cur ve
18 79
String ERK
Al arm
Ġ 69
Data Std
Pv S
de lay
18 56
to text
De sc
Ġun known
18 32
190 3
buffer I
ref resh
QPDF Object
Con tract
di ent
18 53
18 46
i ent
Ġ array
Ġ lock
fff c
Ġx tensa
18 17
Logged Exception
ĠThrow LoggedException
190 5
18 47
ĠajFmtPrint F
EPKcRK SaIcE
19 44
q q
Leaf NodeINS
vtk O
figu re
e ep
Pack ed
L ucene
le v
18 77
Format ter
Transl ation
re locate
rational b
con version
allocator IN
Log sum
18 35
18 41
p ng
byte swap
type ES
18 82
18 55
PT R
18 72
wx Get
18 43
In d
EE deEv
18 57
K it
ra se
18 52
exprj ELb
it ude
30 30
Ġ 71
stat istics
18 85
Ġ" @
SD L
Set up
ble m
Const ant
vi de
e me
p ub
vect I
19 33
p ublish
190 7
Ġlog g
Ġexp ected
190 2
res limit
us age
ĠL td
type EE
QDBusPending Reply
18 75
18 51
19 64
200 6
If EESaIS
Ġ Z
Re mote
o om
Contract Violation
IP osition
ĠMain GAPState
comp lete
18 89
et h
core E
Ġcon text
ZStne RKSt
Re set
18 71
18 59
20 45
18 63
og g
wx Translations
Ġp hp
ec c
tr ig
B OS
En coder
sp ir
EPKc j
18 65
190 6
e ach
atom ic
Ġ UTF
18 62
the me
ss h
19 14
Ii NS
P C
T emp
N U
dis connect
at ing
prep are
4 00000
GR O
p m
Sa mple
let ed
18 96
ZT V
Ei NS
a ab
ump tion
l ers
200 3
li ed
18 99
190 1
serial ize
insert EPKc
18 73
190 9
Ij ESt
m apping
uc cess
19 99
rg b
18 87
19 29
up p
19 11
18 81
ograph ic
m agick
st rip
s vectorIN
19 32
Ġwh ile
var Ev
18 83
normal ize
n th
18 97
mul ERK
' \
wx S
Iterator Of
rewriter I
vectorIh SaIh
QPDFObject Handle
mp rintf
ĠAsnRead Val
Sol id
Sub div
U V
res sive
Ġsho uld
2 104
19 54
iter INS
type ERKS
forward IR
m ar
uniqueIJ RKSt
IJEEEE ESt
I o
Ġdet ected
K i
m ail
M edi
Fl at
add Action
200 7
ash er
M C
irr Allocator
t t
200 5
Ġput c
Ġd warf
iteratorIPKc NSt
mpf r
Ġrd p
comp ile
19 13
cl Ei
simpli fier
D K
19 81
word s
LOG v
Ġsock s
Output Stream
18 86
j ump
sd n
u rdf
19 22
fmt PKcz
Z E
55 35
co ord
sc ene
18 76
bl ank
Ġtran s
Dec oder
28 00
KL F
Ġ app
table Ev
19 94
Ġp i
se x
o unt
19 31
self Ev
L V
Ġ `%
23 30
ĠM dc
Ori entation
8 000000
19 84
26 10
ch no
ra ction
24 50
Tran sp
unpck l
Ġ 75
Re size
app Lb
00000000 00
18 91
Ei PPv
al oo
M ENT
18 93
20 65
Ġ 73
i om
s mart
ter min
19 49
metac all
Call EiPPv
S rc
ad b
e h
spir it
19 17
EEEb P
innerFunction EvE
19 35
ri de
Ġin et
666666 67
n i
FunctionPointer IT
Ġ options
En ter
Ass oc
ara tor
# #
19 26
select ed
Ġgap rnt
20 94
ymm qq
Q W
33333333 33333333
xe s
Ġ8 0
Ġqu ote
Over lay
Ġmod ule
B ul
20 12
Arg s
ang o
24 78
c g
r chr
O C
QTree WidgetItem
lic a
26 98
Ġput char
pre cond
D ict
Ij E
rin ter
27 00
I mm
Ġt a
Ġ" +
25 00
sp ect
sys log
g ent
th rea
Q PointerIN
s calar
18 95
my sql
Ġ ffffffff
Info E
di e
19 15
col lect
vi sion
List Funcs
Ġf seek
19 23
eb x
20 22
co st
Ġg k
Draw Elements
Re presentation
19 19
Msg P
Ġg ss
xe b
ut down
19 27
Ġret rieve
19 25
pro gress
19 93
val a
19 36
19 57
ort al
ev s
ĠA dd
an um
20 13
ig no
SetError MsgP
19 42
19 53
Go bby
cmpeq b
tr um
Ab s
Coin Message
t ure
Ġ"% -
QString Builder
19 55
y Ev
Ġa uth
19 41
v c
19 47
So und
20 17
EEEv T
b E
19 12
LogMessage C
AS N
comp onent
Ġw arn
Ġi pp
U se
manager ERS
19 45
m ime
En code
19 16
19 37
230 0
Ġu p
ac ing
ER NSt
error s
Conf Item
Ġm xc
in ode
20 39
Ġ"../../ ../../
I Fv
19 79
200 9
str uc
Ġreturn Error
Dcm Item
19 52
iteratorIPK N
20 53
conf lict
ax iom
20 29
m ortal
t vec
19 43
DefaultCacheStore IS
d rop
para meters
data I
row s
R ot
Ġ run
watch ed
Ġth at
19 82
Al go
log ger
23 20
main ing
20 35
19 39
in al
19 77
Ġmxc sr
Ge ographic
Text Editor
19 95
Ġ 74
m ost
19 65
Ġm eta
F P
Ġ defined
Di rect
Ei b
b ff
19 59
Ġget pid
Comp ute
19 87
co eff
j ector
19 66
S Y
vectorIj Sa
is tory
Ġ INT
i St
19 56
ty p
sw itch
e de
Look up
TT P
Attribute Value
cv te
bin utils
ps urface
19 75
cul ator
l ar
R R
translate EPKcS
win pr
19 46
Q RegExp
lsERSo RKNS
bo ut
n ing
erb ose
19 62
2147 4836
19 61
8 000000000000
LogMessage D
19 89
add ERK
c ertificate
re write
JS ON
point s
Date Time
19 73
obj Ej
His togram
sy ntax
at form
Init C
Un lock
l am
o rary
set EnabledEb
I a
c tr
String Save
wen view
g lib
2 113
19 51
ps ub
23 28
asso ci
agnost ic
v g
20 79
20 26
ne ss
di st
250 3
19 69
19 72
enabled Ev
24 90
cp u
F stIS
19 76
EC K
se g
19 71
Control ler
19 67
S ur
IF Select
lo u
image list
h mm
z er
a to
DSR Basic
To String
24 60
DSRBasic CodedEntry
ĠB last
Ġ" ."
20 16
19 63
bu ff
free Data
Ġt ls
20 15
st e
Ġac cess
net work
r x
B aloo
Ġ" ?
24 30
24 58
20 66
Ġ Free
QDomNode D
24 68
Long DenseIndexSet
string IcNS
mon itor
Ġm ag
ĠA H
Conn ect
PO INT
20 46
Ġ 76
E A
24 70
S W
19 91
40 40
ff c
tag ILb
expr N
Ġ 77
20 71
doc ument
20 11
QHash Dummy
H L
wx Array
Ġg imp
Ex tract
19 86
X X
20 42
20 25
Qu al
K ax
Ġc lear
OR T
p cmpeqb
24 20
decl E
L anguage
19 85
20 33
20 67
203 68
fo c
av a
Inter pret
base E
20 62
Emm m
On line
b dd
re ll
String ICmp
20 41
Sol ver
v u
33 90
cont ents
Deleter IS
20 49
Sc ript
EPFv PNS
20 55
U UID
ev p
in struction
Tra its
IS C
20 32
Ġstd scr
count ILN
opt s
cvte pi
C ycle
20 56
RE F
Ġstr rchr
Size Ev
Ġ 79
qu ant
back ward
Ġ 78
QChar C
Alignment FlagEEC
19 97
ES T
AP H
1010 101
smt L
PK N
ra ble
final ize
20 23
9999 99
G nome
20 37
20 27
P Col
24 80
eap on
uff ix
un ix
R j
g y
24 40
20 36
c urr
xfff e
Book mark
are s
T rap
exprR PS
19 92
Ġb t
Serial ize
GR ID
Ġs lot
20 21
19 83
oo ser
En able
Process or
20 31
EEE Li
at s
PK St
Pl ane
23 50
ug ol
QMapNode Ii
40 20
le b
sock opt
Bit map
w av
ĠC lose
f it
39 00
string ES
20 77
19 96
EEix Ej
Ġre co
23 60
aj e
Ġto ken
2 114
S ink
Valid ator
str concat
P aje
Meta Data
Byte s
24 48
20 59
Ġto ol
Transl ate
Ch Fi
G UTF
dec rypt
option al
i er
20 61
D V
dispose ERKSaIcE
23 18
Ġt m
ĠTe chno
2 124
ber t
Ġget c
338 0
20 47
hi de
Boole Poly
24 88
At t
l val
Port ugol
S cale
ĠN o
Ġ obj
OR D
Ġt rap
tupleIJ RS
20368 5477
Ġstat us
Ġl dns
threa ded
arg ERKS
ex ternal
Menu Item
py thon
23 10
st andard
24 98
23 38
file system
Button C
QWidget RK
bl ue
ConnectionType sINS
B Spline
QScoped Pointer
If Lj
23 78
vtk Smart
QByteArray C
23 40
iv en
Ġconn ection
L at
ac a
para tor
ĠERR OR
u rsi
Short cut
mm x
E h
re st
QX mpp
Po wer
AP I
Ġd vb
Id Ev
mem xud
xmm xud
20 73
r enderer
20 51
ad aptor
B O
ra gment
Transient D
22 22
Ic EC
map IP
23 48
s core
b srli
22337 203685477
Ġ ag
rol led
tr ip
helper Ei
-------- --------
OF CommandLine
Re verse
cm s
24 18
20 72
ndc PKcS
Fil ename
w here
Ġm k
Ġc r
pk cs
Z ml
Shared Pointer
F IGHT
Box C
to ns
r ics
Ġco unt
iterator I
20 89
ra ma
Cal c
} "
vtkSmart PointerI
pr im
20 43
Back ground
sk ill
H o
FIGHT ER
G wenview
li der
lo ader
sh adow
Colo red
Ġ Type
vector Im
Pre sentation
arg v
QP alette
Ex tra
Append String
dis k
al lowed
20 57
Type D
st rb
Ġadd ress
Ġs ave
24 38
connect IM
delete Node
Assoc i
Clip per
Open Subdiv
23 70
22337203685477 58
Ġal ready
F R
S lot
2 134
mt p
25 88
p mt
24 10
20 75
sort PK
p pd
n I
q h
C E
D up
ĠSet Image
238 8
Ġ Poco
2 153
250 8
Cartesian IdEENS
20 52
d ino
pl us
20 96
P refix
Ġsh ow
20 95
m x
viron ment
de ad
2 144
pro viders
ack ey
SM DS
mp i
Value C
QString i
pairI jj
C B
p ur
Qt Property
Ġra d
30 000000
238 0
Ġ8 2
z a
pL EPKc
20 91
240 8
M ON
ll d
orr iso
st btt
Ġc urr
foc us
Ġm at
ore ach
Get Token
20 69
EENK UlvE
al t
ro ad
m oney
Z one
Ġ IG
eq EP
CO MP
338 8
rin fo
string s
comp ress
visi tor
align ment
N e
40 24
23 68
P A
2 174
am ares
2 106
Ġ lookup
20 83
QScopedPointer DeleterIS
ak er
on i
26 20
X CAF
) âĢ¦"
p le
2 164
Ġfree rdp
) ->
2 154
h old
ac ro
ĠX orriso
id ence
G ap
R ight
Ope rator
Ch aracter
Ġo ccurred
mon th
ly ph
back EO
dec ompress
de st
Ġ8 4
20 99
M an
Coord in
ized Type
fff e
s ame
CC udd
close Ev
a int
20 87
Un expected
VAL UE
2 105
nc loud
N on
GExt EE
nw IN
Ġyy text
in sertion
i ss
b reak
20 82
Add r
20 85
oc ation
z d
traits IT
20 76
par m
pr imal
Ġd gettext
Pro ject
iterator E
XML Writer
to o
ass umption
Lo op
&) ::__
e ded
G C
20 81
child ren
rot ate
ver y
co mb
45 68
Ġs w
23 58
2 122
Ite ms
rece ive
w rd
TCol gp
Di sp
Fi rm
helper EPFvPNS
EEcl ERKS
value EvE
ol t
20 63
20 86
tree ISt
x Ev
t Ev
2 125
se ct
MyMoney Money
DataMap OfShape
Ġro ot
20 93
Mon o
Ob server
c lock
pan ic
sex pr
In v
Node Struct
Ġ( âĢ¦"
Ic Lb
2 101
reallocData Eii
vectorIdSa Id
Ġ" )"
Ġstd in
Ġb ind
Ġi gno
2 116
Simp lex
le mma
EE EPT
traitsIcESaIcEE EPKcS
20 97
Ġ QMapDataBase
xffffff c
Ġt v
ust er
id i
Bo t
lam bda
Ġ" :"
2 194
Ġ8 3
( âĢ¦"
Ġ8 1
2 127
ALL Y
Ġt ry
D lg
Function Helper
QMetaType FunctionHelper
Ġf r
st er
2 131
m ut
subst itution
or ig
traitsIw EE
Eff ect
Ġ8 5
Ġco uld
L S
24 28
E Fv
25 28
G E
2 167
Ġvcvt s
2 121
ul ator
B ug
Delete Eb
g be
IN D
2 103
23 98
270 8
en sure
25 80
2 126
N OT
2 107
vio us
ti ce
2 145
mov ed
context P
Ġ ID
Camera Info
Ġv ector
rect angle
27 67
ISa IvEEEE
20 92
Hash er
FIN ALLY
t Colored
2 133
Ġcon vert
T os
Navig ator
RK i
Tos rm
sort P
Ġpara meter
widget s
ali as
2 179
Te am
21 12
Data C
ĠSeq Id
A CC
N ick
ofd ay
auch e
Q LineEdit
mat ics
State E
R APH
re balance
Ġffffffff ffffffff
G H
OB Atom
2 119
25 78
W atch
time ofday
25 30
Epeck ENS
v ed
and id
2 169
prep end
c nt
26 30
G lyph
25 20
EEE OS
ne ed
2 117
GRID FTP
Ġ assertion
2 111
an za
F L
QLabel C
R C
r ename
Ġre ce
QSize Policy
23 90
25 38
z ip
ter n
ĠIG RAPH
se mb
Value D
Ġm enu
set ting
25 48
is on
State ment
AN AP
2 137
Qu it
Lib rary
tOutput D
Ġh w
il bert
id den
Znwm Pv
Ġd raw
2 136
2 165
Ġ ht
cc d
it ten
218 4
atter ns
Item EE
trans lation
dd c
XML EEE
si z
220 3
pairIKj N
ict ure
node EPSt
25 40
n ping
qui res
c amera
K TextEditor
aun ch
Step Data
2 102
met h
b r
BoxLayout C
R and
Ġ one
QMessageLogger C
Ġio ctl
Ġc pu
Portugol AST
2 123
osi te
Mark er
Ġ ab
Ġexp ression
C ard
and ps
pd f
R ing
find NodeERKS
28 40
tx t
mit ive
OBJ ECT
2 132
filebuf IcSt
id l
it ical
Pano rama
Item C
Shape Schema
Eix ERKS
umm ary
2 149
25 18
RVNG InputStream
an ERKS
rell m
Ġ Comp
lin ux
a arch
Det ail
f S
bc i
Ġf ix
EEv RT
27 48
Ġb er
Base Allocator
40 30
O O
Sa Im
2 109
Alg orithm
Contig Node
wait a
mark ed
il t
b ranch
D rive
E F
ListIJ S
22 24
2 135
ine matics
2 143
check er
access IN
dup licate
length v
Serial izer
2 151
25 10
2 162
abc def
I RSt
oc us
2 139
N UM
Ġ Di
Ġ8 6
2 163
ra ise
gno me
UL T
F ull
str n
pairI ii
Char C
2 141
QHashDummy ValueE
220 4
B ond
dec ay
EEEE T
key s
her it
2 115
ESaIS C
y ear
A H
ĠS caler
UN D
b ner
22 79
K de
Ġ De
BOS S
n lo
EE ERS
Ġlo aded
ms a
Ġpix Get
218 9
Ġ8 7
city gml
Ġ 180
Ġ" `%
B OP
bl ast
g oto
qu ot
P ixmap
Ġg ene
Ġgl DrawElements
j i
2 193
Pre condition
t m
str B
2 172
ASTRefCount I
Pdf Name
struc ti
2 157
ad apter
pro file
M issing
280 8
Y ou
Par ent
p assword
Ġp roto
25 98
t ConfItem
2 156
con tr
ZNSa IN
Ġe mit
Dec o
s upport
K Action
! !
2 175
25 50
S calar
40 48
error EiRKNSt
back ground
88 88
27 58
EPKw RKS
Window s
comm ent
Ġ8 9
erra in
2 146
25 70
] \
Connection EPKN
Ġt en
Ġf loor
2 142
US ER
49 38
40 34
ar ing
=" %
Could n
0000000 1
quantifier P
Ġm on
Ġt mp
27 28
Ġen coding
240 1
A v
2 176
2 166
218 2
Uni form
226 4
Tree Node
ee k
25 60
2 129
istream IT
f P
F UN
zdialog PKcS
Eb PKc
30 38
B its
EE ERKNS
gro bner
22 11
st ick
2 192
0 20
224 4
28 48
s With
Ġ 99
assign ment
2 177
activate EP
Ġx f
69 48
decl Ev
ri er
Comp letion
260 1
f ication
Severity E
manager EixEj
2 161
218 5
28 38
QObject PKS
vtk SmartPointer
level v
val ptrEv
QM enu
Ġb cf
27 68
Ġ build
ire ct
i PPv
EE EP
2 152
220 6
QWidget iiii
Spec ial
x ep
Geographic Lib
Ġun link
ar r
E fff
Del ta
23 27
un set
ext end
S J
223 4
0 78
999999999999 6
map Ij
y m
Ġ ref
d warf
220 1
225 6
list IN
ke ep
2 155
Val idEv
String anERKS
d ot
22 14
det ect
j V
QChar i
22 74
218 6
managerE cvR
27 18
expr PS
H elp
M ail
ing s
cc a
d fs
line s
pp ing
22 21
Net ID
Ġc ackey
weight ed
tOutput C
et ype
No tification
Ġd st
ISa ISt
str to
Ġgl ad
Ġ8 8
2 159
bed tls
u v
p ic
Ġm bedtls
2 173
K N
2 195
structi ble
Level E
x string
j b
h bci
27 20
CImg ItE
Ġten m
Count Ev
Ġgen list
249 249
Extended String
Ġ am
Ġg roup
T EXT
223 9
locale C
ĠF c
p unct
GRO UP
Ġ 91
Il legal
di rect
w e
Ġ6 5535
sh ot
ut ls
Ġ 96
220 2
30 48
w EEvT
26 80
Ġm ai
con structible
225 5
2 197
218 1
s P
allocate d
Ġ 95
00 1
j a
g al
or iz
iv ot
75 30
EEE ONSt
go od
Ext end
Zml RK
Ic ED
22 26
2 196
B and
Ġch aracter
26 90
sort S
geom etry
ptr IT
graph IN
Notify SeverityE
Ġsec file
M usic
Ġu sed
cur ity
* ,
2 171
frame E
Ad waita
Ġj o
En coding
Gra dient
225 4
vp add
25 68
223 1
ĠWriteBlob String
998 9999999999996
ar ded
LO CK
Ġv erbose
Zn wj
rational ELb
Ġlog msg
22 25
2 199
in ation
insert ERKS
Ġ 92
aaaaaaaa aaaa
Object D
map s
QString aSEOS
22 16
K Alarm
add Item
0 10
EEix Ei
220 5
PL IST
de s
220 7
Ġe lement
leg ate
218 7
E B
rbt db
22 94
default s
automaton I
Ġ 93
223 5
uc er
Pl ace
Ii EC
libd m
IP F
gn ame
d tor
G UI
Ġsh ort
22 19
er f
mar sh
oreach Container
XCAF Doc
lock v
Ġu nsupported
Compactor IS
24 93
us b
threaded v
comp ar
30 88
deriv ed
whi ch
S l
dd dd
000 1
Vi rtual
220 9
218 3
228 4
clas sic
23 23
230 4
un expected
pa int
StringC mp
p atterns
Ġ 94
base INS
Ġn sock
to lower
ursi ve
te ll
2 191
exec ute
g i
Int EP
zero Ev
P erm
M OD
re lev
D jV
26 57
P in
get line
uni q
OL L
m aker
d gettext
22 27
Ġp os
22 23
Imp lement
bo t
IS E
26 50
Filter INS
IT EM
225 1
W all
228 2
He ad
225 7
Ġe mb
ĠajList Iter
ChFi DS
H SequenceOf
t c
Get Text
25 90
t E
con structor
223 7
polynomial E
Ġd py
Ġc mp
M ET
226 1
u dp
ppd c
Ġch annel
Im ath
Cal amares
228 3
ex cept
224 1
22 76
26 70
all back
pro b
Ġj ack
7 164
dd a
Ġo ver
j peg
Sp in
ĠC reate
expr EE
del ta
btAligned ObjectArray
ĠClose Blob
240 4
F X
ZNSa ISt
Ġnet gen
ad vance
Ex it
Sketch er
f v
223 3
22 75
KAlarm Cal
vtkO StreamWrapper
Ġconn ect
t l
226 7
XML Loader
ces sing
p alette
get c
trip le
224 6
result s
HL R
ti cal
Changed Ev
id le
Acce ptor
rt nl
IC MP
P red
22 77
22 12
Key board
223 2
interp ret
26 40
A ff
ix Ej
Ġdec ode
ref EPNS
223 6
P ACKET
dis able
High light
rational EELb
LogWeightTplIfEEEE LNS
most Ev
qu ick
23 24
Ġv oid
22 71
22 13
u ral
K ind
put String
P Geom
22 29
43 30
Dim ension
27 38
atom EP
do ck
K D
Cl assi
QSlotObjectIM N
Dom ain
27 60
right EPSt
8080 8080
h b
di stance
Po si
225 3
ZZ ZNK
entry EEPT
External RefCount
Object E
Ġspec ified
22 17
i an
T IME
IO D
230 1
thread s
stIS C
226 2
rg ba
Ġm any
Ġm in
Meas ure
El PNS
Interpret er
Ġth read
L ex
G mm
oct et
vectorIb Lb
Ġ mpfr
Tag Lib
22 96
allocate Emmm
224 3
unlock v
Ġso urce
value E
225 9
ip her
type IcNS
ES A
sol ute
My Str
RS T
ap tive
info EE
228 5
sc roll
i ps
ap d
224 5
id json
Ġ delete
22 92
T ER
chr on
28 88
m ult
e sl
Changed Line
22 15
Ġy ou
ur ity
RefCount ed
address of
w b
D I
Fail ure
g si
do f
w ise
Ġc lock
225 2
core IN
assert EbPKc
assertEbPKc PNS
23 14
Ġpro file
p ending
Ġ 97
state Eb
224 9
224 2
index Of
30 90
226 5
0 80
Sc anner
mmx q
se e
dd f
P rinter
Ġf o
Ġ 98
22 93
22 97
pl El
Ġ Format
ow l
AS S
k rb
EPKc ii
23 42
ensi ty
Image IO
28 58
spec trum
Re place
Ġ register
C OM
22 73
pan el
Concat enable
kml dom
n n
228 6
slot s
226 3
224 7
ĠF Logsum
Inc idence
230 5
24 24
List IteratorOf
resize Em
Class Loader
aligned FreeEPv
28 20
23 45
h j
ol low
Ġtile set
23 12
mem sd
xmm sd
bank ing
Ġpro xy
27 70
Mode m
30 98
U RE
0 40
d w
IR CD
ĠF F
EG ER
p lib
28 18
F r
29 00
Ih SaIh
o ther
Base Obj
22 95
so fter
li ke
widget P
Ġdire ctory
lou der
Acti v
23 64
p ress
bo rder
Ġg ot
Z mi
Ġ"- "
b rowser
P ay
Ii Sa
22 99
Ġ ffffffffffffffe
Ġ> ::
forwardI RKSt
ir plib
=" "
0 58
23 35
de leter
22 91
Bin omial
NS B
23 37
ref C
QMapData I
KAction Collection
Ġp ango
Ġc od
230 7
Ġg ui
B IT
226 6
27 40
22 72
gl yph
228 1
lib embree
TropicalWeightTplIf EEEENS
Num eric
Byte Stream
ĠF T
M isc
Destroy Ev
23 34
26 60
Sto p
238 4
detach Ev
comm it
24 14
b or
i ESt
240 7
Ġ reference
Th row
Atom ic
23 54
Gallic ArcINS
String Buffer
EO NS
P en
Sa fe
Ġt r
23 71
String s
N AM
> <
27 80
228 7
substr Emm
ĠC or
24 54
30 68
co uld
23 17
Ġ def
230 3
se ctor
file parser
Bra id
igno re
increment PKSt
AC E
ree ze
Iterator C
as l
Ġget timeofday
Ġi rc
w eak
29 10
226 9
D IR
M R
4 000000
n str
23 57
code Ev
AD DR
sort Lb
23 21
23 29
odo fo
Info C
27 30
ON E
Ġc ave
fr ont
27 78
ĠPy Arg
Ġquote arg
T CP
Lo wer
Ġp op
23 157
27 50
Ii Li
Ġ rc
30 58
A nal
23 33
3 148
Ġgl Vertex
pre v
pack age
28 28
28 78
Pro c
238 2
ut vpi
23 44
aq hbci
23 39
Ġh oliday
23 49
Ġp out
fl t
29 28
Tag INS
To o
str len
23 36
INT EGER
EE j
F ocus
EP cl
T ip
Un weighted
Weight ed
TropicalWeightTplIfEEEE E
53 48
S ERKS
Ed PNS
23 52
23 32
Ġ EL
230 2
23 25
23 11
d isc
Ġ old
If Li
24 25
23 66
Ġ PKCS
40 14
ĠS EXP
Ġs mall
b fe
Ġarg c
6666 6666
detail s
28 68
69 313
797 69313
79769313 486
G da
23 61
Ġbcom unit
base RS
Id EC
traitsISa IN
28 60
t bv
Ġc p
visit ILb
si st
230 9
KConfig Base
pl it
gp ro
ax is
pp Ei
23 74
u uid
Ġ"( __
23 75
23 62
Can vas
23 16
240 2
23 15
n printf
23 19
o ti
23 13
sched uler
238 9
auche Module
ics f
Ġe val
TH READ
79769313486 23157
250 1
Pi ece
G T
Ar ticle
Exp ected
Ġch ange
24 92
28 98
ST ORE
At trib
Ġ owl
V oid
t v
Ġ" ----
23 96
re ason
Ġg ames
23 72
Ej b
If EC
23 26
Ġex ist
23 53
sol ution
set jmp
e asy
Pri mitive
mp eg
228 9
util C
23 41
ris cv
Is E
QString eqE
27 88
23 31
Ġ" {
Ġcl ass
C Y
Ġg o
Sa IcEE
Mat Expr
E y
EE ERKS
ug i
Ġp ol
TA G
back ERKj
Ġpar ser
all y
equals ERKS
Config Base
lite html
30 70
23 79
nl arith
Par en
qt demux
Comm ent
s And
Ġsc reen
s fr
OB Conversion
x im
traitsIcEE C
S upport
ed Eb
xmm q
P ub
pair IPN
23 43
24 12
Ġre al
zero E
Reply EPKcz
IL in
pairIK P
55 56
ĠDestroyImage List
23 94
48 30
Ġargument s
23 69
230 6
G IO
Ġal location
23 97
moveIR PN
23 22
o cc
un et
ul ate
pre sent
t pd
nt sr
25 94
24 44
QDBusPending Call
24 43
move IRSt
cv PKc
Unpack Tuple
tree IPN
238 5
h igh
29 68
Ġ 101
30 60
ĠAc quire
23 67
Ih Lj
K Plugin
Fe at
Ġg ee
gn unet
name d
QLay out
Ġw ord
N T
gu arded
Po se
Make Extended
MakeExtended Pair
mul a
24 74
Ġc ap
23 56
PKc P
d x
libp odofo
27 98
Error C
40 38
24 55
Ġat tribute
23 46
Ejjj j
23 99
Comp ress
aaaa aab
23 65
m iter
for ce
Ki ki
co ENS
Data D
PCol gp
B reeze
Ġg itg
24 61
pi pe
se cond
reg s
Memory Pool
Ġp vm
sh ip
File s
238 1
case str
mark ILj
Ġ 128
av g
fi ers
Ġj v
Ġ dev
26 79
Ei PKc
M ix
Ġ 102
medi a
Ġ QAction
29 20
Item Location
Settings C
24 21
P lot
23 63
24 34
Ġlog ger
MA X
EPKc P
ĠajStrGet Len
stream Ev
Tree Model
sh ader
I I
S u
240 5
23 51
238 6
lt ERK
m as
Ġ 107
FOR MAT
24 32
mp t
em alloc
28 30
QScoped PointerI
H int
23 76
Ġ 103
Ġpl ank
238 3
w l
30 80
24 13
Draw List
25 84
Q RST
app E
ra tio
ES C
LE MENT
240 6
23 77
Qt SharedPointer
Ġ( "
OFCondition aSERKS
l ing
23 92
O NS
23 59
250 4
Ġfile s
arg in
24 15
EEEE EC
29 48
Sec urity
Zmi RK
fo und
H TTP
z ier
Ġ mm
Propag ate
240 9
EEEv RS
27 90
Qu ad
' s
Ei N
Ġpro g
EEEE ESaIS
D ot
CC fits
QChar m
n an
p ref
putString EPK
28 80
29 90
map INS
is d
Clipper Lib
log in
24 17
width Ev
p ull
Ġ Co
for s
cf b
mpz Ev
240 3
Ġgf log
utvpi INS
Ġlib f
23 55
map per
orr ent
Ġ 104
Down load
P ass
ogg le
25 39
warning Ev
TR A
lv l
allocator IS
tr im
25 24
24 29
un ded
24 33
qu it
i streambuf
P Ph
M ime
e Player
sp r
f de
24 27
SC R
is ValidEv
bject s
IS D
app let
28 10
Ġc om
Coord ENS
A spect
Ġad ms
23 91
cvPKc Ev
S lice
24 56
Ġp r
24 72
LogWeightTplIf EEEENS
ab ility
Ġm sy
14 159
r fc
c rc
Ġre c
j St
Ell PNS
Ġ 106
30 78
A gent
99999999999999 95
23 73
C r
Ġ 105
wx FormatString
f old
23 95
ĠValNode Add
28 70
24 36
s sen
D asher
1000 1
3 160
Transient C
25 67
De legate
24 86
Ġf its
Ġx realloc
IN HER
25 25
O UT
Ġto tal
24 52
To tal
25 34
INHER IT
h istory
sub s
Ġ render
250 5
Value ERK
j P
24 23
re mote
Add res
25 44
M anag
238 7
b g
ABCDEF GH
24 26
24 63
25 29
25 41
Ġ 108
Ġse quence
24 16
260 4
24 11
24 79
Ġu sage
24 76
JS Context
me d
Component Formatting
Ġite m
Bl ue
D AP
Ali as
40 18
29 30
Ii EESaIS
ON T
250 9
24 51
23 93
CON TR
33 78
24 19
24 91
v ma
v s
ra di
24 22
29 98
Lib int
24 41
Ei P
vv vv
24 47
height Ev
O pt
sp h
vectorIdSa IdEE
Sy s
250 2
IT Y
dat etime
F ar
Group Ev
29 40
Meta Property
24 39
KL MN
S ql
block ed
Ġw cs
24 67
rm l
24 35
28 90
30 20
I V
Anal y
lib una
u red
29 38
K inematics
24 31
EES C
25 23
bb b
oriz ont
lib cdr
Exp and
24 49
so und
Ġ 1000
Clp Simplex
h ilbert
In de
rap idjson
Ġo b
At tributes
di p
s Count
24 59
QMapNode IN
v ptr
Ej RK
S IG
Ġgk rellm
24 73
25 12
24 37
24 46
T erm
C rypt
SI ZE
25 54
Info EE
Sync File
pri ority
28 50
Ġgen ie
24 65
24 95
( "
29 88
P ac
aligned Malloc
alignedMalloc Emm
wx FileName
dim ension
25 32
25 14
W eb
hook EPS
Coin Packed
Ġ fffffffffffffff
wx Format
Mat C
gc n
29 80
T r
24 62
ER i
ĠW PACKET
290 8
Open MS
equ ential
Mat E
cxx mi
MA RK
24 84
Track er
po b
Segment Delaunay
SegmentDelaunay Graph
l S
ic ies
29 78
Ġs upport
Ġ 109
min us
Arc IteratorINS
24 75
Ġs ort
pairIK m
270 9
24 94
Fo und
AS E
IC ATION
By Name
X PKc
30 50
24 97
Ġl toa
ance l
Q Table
c ustom
wx Object
road cast
dealloc IN
KLMN OP
I x
24 66
c er
ĠH PDF
Ġ1 10
24 71
Ġpo int
ssen ger
con ds
24 42
Type FlagEE
5 260
24 53
RE AL
insert EP
Sh ot
Transi tion
po se
M SB
sch ema
24 45
K Db
wx ConfigBase
QXmlStream Writer
ZNS ir
Type Error
Ġd ir
25 15
ow ncloud
ch an
24 83
EEE plEl
No Text
24 82
un map
ec tive
a lse
aq banking
para llel
26 24
Auth entic
up er
ip v
Initial ize
is m
internal ize
Asn Read
38 97
Ġ 111
sic al
li sion
PR O
40 70
Ġp art
reat er
29 18
o us
Pac Bio
un its
EE i
in sn
ĠC l
s ct
st anza
func name
27 34
node s
vectorIm SaIm
String Has
Of Pnt
Ap ply
List C
QExplicitlySharedData PointerI
Co dec
S ListOf
SListOf ItemLocation
CP U
24 96
OW N
EEEP PS
se p
compare ERKS
Type EEC
G U
24 57
Bl end
25 36
Ġ Un
25 26
n sec
init EPNS
Empty String
adjust ment
25 45
Mgr Get
N ation
Err Set
250 6
25 96
ac q
glo bjects
ch at
event s
EE Ei
ĠB io
X a
heap IN
get Instance
ok ie
increment PSt
vectorIfSa IfEE
25 46
26 34
T orrent
header s
Int Property
add ps
Ġ `
24 77
sq al
29 70
ti i
24 99
fi rm
E AM
itera tion
Iv N
so ft
25 47
24 85
C ID
detach Ei
constructible IS
Pointer Tosrm
26 52
29 58
Ul tra
Ġstrto ul
IJ KLMNOP
name IcEE
name space
25 64
24 89
ld add
t b
Transient nwEm
T INS
24 87
Get String
Ġmsy y
co s
Channel Mode
Ġ append
b rush
de struct
N b
al y
write iPKcz
Ġ* ,
patterns Ev
IPK v
ENG INE
EEEv PT
pre c
compar ison
EE RKT
ze bo
Ġ Image
H A
Ġhw loc
d ummy
relation s
as printf
30 28
hm ann
L UT
V M
250 7
resol ution
300 8
ĠB inary
StringHas NoText
Cli ck
24 81
25 59
Tree EP
26 16
29 60
List ener
mem ss
xmm ss
i ble
0 30
H DF
25 42
lessIj ESa
register Converter
25 21
Ġ 120
ach able
55555555 5555
data E
EEEE EEE
sub pd
25 66
Ġ1 12
g ate
ing est
26 47
Ġex pr
29 50
an ded
26 14
ĠGet Image
25 13
ZNSir sER
25 17
29 49
25 11
assign able
ĠF LAGS
P OS
P OP
30 18
add rinfo
ĠD o
26 26
rd at
Conv ex
s C
rational P
BasicImage IteratorINS
QW eak
Ap pro
l ang
25 22
Ġse pol
Ġ Init
o me
storage E
P dS
PKc b
extension s
25 49
key word
ffffffff fffff
vector ElPNS
25 74
25 31
25 69
260 2
Sa Ib
25 27
40 98
bar rier
set Check
G Object
I gno
25 37
fp PKdPdS
c da
N O
24 69
25 16
25 53
3 100
L IB
d uration
Ġ 127
Tex Coord
25 43
25 33
mo use
v psrl
a fc
L SP
Ġf m
O s
ABCDEFGH IJKLMNOP
n est
lib matroska
r pl
Ġ QAbstractButton
jo urnal
cip al
ment s
MathStructure ixEm
AT AL
00 20
Ġk not
26 13
Ġa fter
26 15
n m
3 120
Ġpro be
Ġ 114
Rece ived
marsh al
sh u
i ce
QGraphics Item
to IntEP
300 3
26 43
ww w
new SV
Image Import
F LAGS
Ġis o
O VE
25 95
Ġ 116
Mask IteratorINS
Ġ 113
b PSt
mag ic
25 57
33 70
g ered
Fix ed
25 71
Ġ FormatString
Ġc ertificate
Ġ Ex
000000000000000 1
Q Image
traitsIcESaIcEEES B
p ugi
d cmp
b z
25 19
list I
W ait
25 77
g d
25 35
Un its
pl ain
p kt
Q DataStream
Direct ed
Ġ action
in jector
25 55
25 85
26 27
dl g
P assword
Active Allocation
GImAllocator ActiveAllocation
GImAllocatorActiveAllocation sCount
6 000
V rml
C airo
25 61
mpz Lb
26 12
Ġw ait
Ġre quired
Ii ESt
25 63
cccccccccccccccc cccccccccccccccc
dae RefCounted
daeRefCounted Obj
25 52
' :
3 108
lib q
rebalance bPSt
signal s
Ġmul ti
h x
40 80
Ġm ore
Ġb cmp
swap ERS
e ac
25 83
ix EPKc
list IP
cc c
26 64
260 6
360 5
F older
m n
lt EEEEvT
decl PN
Ġ 115
orizont al
ABCDEFGHIJKLMNOP QRST
26 31
ath er
31 10
H it
igh ter
block s
trig gered
Step Visual
EEEE Ev
as r
C irc
Met rics
MyMoney Account
memory Ev
Ġ Changed
ĠM enu
27 27
26 95
eb ml
Wr itten
25 65
ad ab
25 76
NG ram
Singleton INS
QT imer
Ġ query
40 50
solver I
Ġ back
25 56
Ġq sort
r nd
260 5
R ad
An dS
280 1
" \
C gl
QAbstractItem Model
26 25
an cy
Jo int
Ġf t
ise d
vers ation
27 47
CoinMessage Handler
nlo hmann
26 56
iter EEvT
40 58
25 72
fl d
ZSteq RKSt
26 99
s tor
modi fy
" âĢ¦"
cf un
Ġun expected
AS C
ad l
26 44
context Ev
Ġ Str
Channel Info
String Piece
erm ine
X S
ve rage
Activ ities
Ġtra ck
25 73
xffff fe
Ġc mark
30 10
25 93
? "
pur ify
spr ite
Ġpo sition
erf uffle
O MP
A I
25 97
iteratorIP PN
Ġw memcpy
Ġ IN
26 54
band s
c XML
UN T
c artesian
like IT
ad L
lib freerdp
Ġfil ename
Ġmem chr
copy EPNS
dealloc I
error D
26 55
ConvertPtr P
25 92
dd b
25 62
en s
fe ature
Length Ev
3 290
Inc Ev
25 82
z z
ptr IKN
eb p
exist s
26 89
compare ERK
daeSmartRef IN
40 59
ref IncEv
Reg istry
260 9
QAbstractItem View
pp C
lib winpr
Ġ len
d h
25 51
Ġi t
25 87
25 79
e cx
Ġs can
K Job
Inte ractive
Ġt ol
26 42
allocateEm PKv
w c
bd s
26 32
ContractViolation ls
c ircle
sid ue
25 75
String N
Ġt arget
ĠSer ver
lse ek
26 11
Ht tp
n gram
Ġstr spn
Ġ rpl
Ġat tr
27 12
28 79
260 3
expr EP
QDebug lsERK
CCudd Navigator
B U
State Set
GetText PKc
Vector StateINS
Fr ont
grow Eii
Ġn n
app b
ĠChanged Bags
26 39
ob s
qu ency
ro ute
togg led
n ation
Im DrawList
Ii ED
Ġ" ;
om x
26 72
25 81
op code
text Ev
c ols
Widget C
25 86
v r
Uni que
, \
Ġ Load
26 84
26 41
26 65
NS A
cm alloc
OFString S
ES B
D D
Eb ml
Ġl arge
Get Re
const DataEv
time stamp
Pixel Template
Ġge topt
ĠBio seq
Ġmp rintf
Ġm ask
report s
Ġf ai
27 17
d fe
His tory
xa bac
B ACK
strl cat
25 91
AP PL
dcm img
En v
Ġar v
26 94
Sw ap
dcmimg le
Ġl in
dcmimgle Logger
scan f
44 60
Ġtemp late
Im Vector
40 60
Exception Object
sched ule
27 45
27 26
Ġtol ua
260 7
m issing
Object s
H O
p g
27 99
Up per
pairI j
Ġsqrt f
26 19
27 14
Ih NS
26 74
xabac adab
argument s
fl ate
a ac
Ġ 118
26 37
Ġg ame
Ġ level
N av
section s
fe atures
base d
Object Ptr
l n
79 31
28 74
Ġ 117
lu id
QStyle Option
ast R
EEEixERS E
sh aring
Ġope ration
i fier
26 82
et c
propag ator
finish ed
serv ed
Se lector
Pri m
dependency E
270 2
Ġq lite
Select ed
ErrSet Context
id entifier
Ġ IS
ab stract
25 89
Ġvalue s
im ize
Translation RK
28 36
ge arm
Policy E
sc rolled
qu ote
K Screen
26 86
25 99
Ġro tr
EPKc mm
wxGet TranslationRK
gp PKdPdS
26 36
Ġt ri
s nd
S U
280 4
Q PointerI
posi x
c url
B ank
ĠajStr New
26 17
26 97
Error D
28 41
pos ERS
Ġth an
LV L
270 6
implement ations
26 92
ĠX Set
Eii P
ng le
Ġdi agnostic
enode ELb
Ġset up
27 54
C mp
h avi
sv PPvP
ast EPKc
igh bor
metac astEPKc
Asn Write
null E
E deEv
270 4
Tree View
27 74
cvt ps
com isd
26 49
Node Type
Rect angle
can vas
27 56
W in
append Ev
26 23
26 69
Ġu i
QXmlStream Reader
st and
US T
U sed
QWeak PointerI
insert IPKv
d le
S pe
insertIPKv EERSoT
gal era
ifIXsr St
t Array
QMetaTypeId I
of PK
ESaIS D
struct S
GP INS
Ġc ms
G NU
270 3
Me ssenger
free hand
C d
26 45
26 61
Own er
dec oder
66 10
ĠAsn Write
T DataStd
D T
Ġ 119
ist ered
D N
QSql Query
Ġdis allowed
33 20
26 66
wr it
EE Li
26 62
al low
vectorIfSa If
Point ILi
Ġd ae
op o
26 51
66 12
27 35
K erfuffle
27 15
26 29
26 35
ilt In
b eta
.. .
c re
270 7
Ġ queue
n Message
lib freehand
libq xp
shuffle hi
W M
Ib Lj
Text Edit
27 66
ĠajStrAssign S
Ġ State
DjV u
ga zebo
C F
l on
3 180
270 1
33 38
Attribute ERK
26 81
d st
27 44
26 67
DataMap NodeOf
Ġyy leng
get Ej
26 85
Image Export
26 46
26 87
P IX
280 2
27 16
pay load
26 59
IPF b
27 19
pol icies
27 13
if streamIcSt
termin al
cc losure
280 3
3 128
Data EE
Ġato f
26 22
Ġ 123
Ġg iven
B R
26 83
27 46
t StringC
EEEE OT
E Ul
ps ll
Value s
26 21
B S
3 118
ad min
Ġplugin lib
deallocate ERS
del t
C at
ĠA ctive
traitsIcESaIcEE EPN
Src Pano
emon ic
Y PE
QMap Ii
posi tory
280 6
Ġw arning
un init
Ex ist
or rect
ab e
26 33
an s
Pl atform
3 138
ing le
Ġ QHashData
Ġsy stem
note book
26 96
27 86
270 5
col lection
Ġ rpc
26 76
37 79
EPKc St
I ES
IS F
Mesh Node
time val
gene ral
27 25
Ġ 126
28 54
ay be
T wo
ĠValNodeAdd Pointer
ede dc
D rag
mas q
27 63
f open
rule s
Ġd oc
managerE Lj
Make Binding
5 000
26 71
le ctr
28 24
Ġgn utls
Ġ ba
26 91
27 22
c EERS
Ij Lj
Em RKS
F ONT
Ġin sert
Propag ator
26 93
Ite rable
le rance
fail f
Tool Tip
27 24
SrcPano Image
26 77
Ei PKv
Em it
g str
OF List
P ix
u ation
Ġ 121
con tain
APPL ICATION
access or
Magick Exception
Addres see
Ġlibc data
Dom Property
6 680
3 140
Ġf luid
und er
Ġtra ce
ES H
l ra
27 65
mul lo
64 70
QTree Widget
3 200
Ġ 124
var P
Re l
. *
LeafNode IbLj
jj PKc
47 00
Matcher INS
26 75
A ct
T oggle
D NS
ri b
ec b
string B
EES B
Ġxn OS
po co
spe ll
cv flann
RVNG String
Em PKc
Ġ# %
xf ree
qu ish
impl ILm
32 10
) ,
Edd d
dS et
d get
36 36
27 36
d ab
ill a
mo re
dae Element
Ġset ting
H op
27 52
27 29
Tran sport
Ei iiii
Sch ed
Standard Const
Dis able
Pro duct
red ucer
symbol PKc
27 55
27 33
Ġra sqal
Ġu s
Ġ 125
bl ack
field s
ĠS ET
s cal
Ġa es
Ġrt c
Q Concatenable
Ġdns masq
rd n
ch ooser
rational ED
Ġf p
Ġg lib
u it
j id
wxArray String
ePlayer NetID
ti sa
Is NullEv
cvt tps
27 81
H DR
Ġau to
Ġx tisa
Ġt ree
28 94
Logger EE
obj Ev
Ġ' "
func s
un guarded
27 76
27 23
U nsupported
40 68
Wh ite
dl l
f resh
uint IS
Graph I
vpadd d
Ġ he
27 49
26 63
ran ap
STAT E
Ġb cm
vectorId Lb
de e
] .
Pl an
ustring E
Ġ 122
hand lers
27 57
value Ei
Ġslot vec
node EE
28 44
impl L
3 168
traits IS
3 278
26 73
app s
copy ILb
28 17
LE B
3 150
u dy
Wr ong
e re
ĠG emRB
add EP
string EP
ch or
C trl
QP en
8000 8000
27 62
Mon i
27 51
27 64
vectorIb SaIb
bl k
mark I
lean up
iter I
S mall
g P
3 130
27 39
pe at
Reference I
F H
27 53
Element SaIS
assignable IS
QExplicitlySharedData PointerIN
ImGui Window
If ED
EE PS
copy EP
rep lica
memp ool
E VT
b Err
Posi bErr
27 91
destroy IS
Node EPv
ord ers
An not
End Ev
P I
Index Ev
P m
repl acer
neg ER
ingest ion
parameter D
AR CH
lin quish
Ġse ssion
ateg or
ERS i
27 72
TN aming
EPKc RKNS
no check
vectorIP K
C ost
xc cccc
28 67
Image Region
g mpq
Ġmo di
0000000 2
27 37
27 59
qu ad
28 34
3 178
pairIKj St
Ġh elp
ential s
27 89
280 5
ĠD ecode
F ATAL
QDialog Button
40 88
28 12
x n
QShared PointerI
4 100
Ih PPh
X M
300 4
N ET
xffffffff ffff
27 84
QT ab
ĠRe linquish
Ġreco rd
Ġ" **
170 13
28 22
D O
Path s
27 85
se curity
ii S
Ġvar iable
Sub scri
AT H
less Im
ĠAl phabet
P t
27 41
x stat
Ġre pl
ĠThrow MagickException
28 49
280 7
not EP
dig it
Ġdae SmartRef
27 21
27 79
Magick Info
Top Abs
28 14
load u
str tab
w t
Type B
27 75
set IS
27 96
display ERSo
27 97
Theme ERK
40 90
27 95
u ffer
cal culate
ĠMC Operand
27 69
N EW
element s
andid ate
a fe
280 9
27 73
D r
S Q
g b
strb casestr
27 61
Ġwcs len
eq EE
In Assert
Ġwx Trap
ĠwxTrap InAssert
k ic
Enabled Ev
gpro c
Exp orter
Ġcups File
ffffff e
ces sible
se lector
28 95
de m
ext ent
M EM
Rand om
ad aptive
b de
F atal
Ġ"( '
si eve
Particle System
28 47
ĠM y
34 00
an on
27 31
29 13
h alf
27 42
level db
Ġaj Seq
ast e
QDom Document
nil ES
27 87
Normal izedType
register NormalizedType
27 83
g ap
27 43
QPair I
ĠC urrent
mul pd
==== ====
ed s
cm dl
Symbol Table
decl Lb
c fc
29 57
PN G
IRCD Message
Pre view
3 158
L DOM
Ġ 129
A cc
360 6
Geo Map
Element ERK
ac y
one Ev
Ġex tract
Pointer Obj
pair ISt
Mat ESaIS
= âĢ¦"
List Node
On Line
290 1
Ġsp ace
ra dio
Step F
27 82
Ġ"/ "
Item D
Im ERKT
ind icator
Ġse arch
Ġre sponse
Ġ% *
QString PN
ICMP v
Coordin ate
TropicalWeightTplIf E
Ġw in
28 15
ca de
xim gproc
K B
New PointerObj
tra verse
28 21
ĠB UG
28 59
QP ush
Time out
am d
f act
Online Search
290 2
Exception E
Field s
ĠN sock
K GeoMap
QRect F
28 27
3 188
Ġ 130
27 94
pc ap
ISa Iv
Tri g
1010 000
QString PKc
27 32
28 29
QIcon C
d C
Ġ OCC
350 4
Q V
h ape
ListIJ EEEv
Ġ"( %
Medi a
Manag e
Imp orter
36 00
ĠE lm
290 4
tag s
ac b
34 70
Get Error
33 30
107 100
rational j
Eb E
C red
Cont ents
1010 2464
info f
Im St
29 23
28 32
ab solute
Ġb tf
left EPSt
J RKS
forwardI RKN
Ġp as
28 35
Matri xd
3 300
28 64
si nt
from ThemeERK
b ul
Ġz one
tupleIJ DpT
Ġex tra
27 93
ĠP r
ent ities
28 19
Ġj d
impl INS
Ġ RSA
33 98
free desktop
lib k
Per iod
POP MARK
R ename
28 11
Node ES
g bigint
Ġd a
manager jjPKc
pair INS
manag ed
val s
cccc d
Ġro ar
Ġu ti
27 77
ĠJ im
fe fffffffffffff
Col umns
L SB
ZNSols Ed
sh utdown
is NullEv
Ġj peg
g objEv
27 71
decl ERK
File Info
32 18
28 23
cmpgt b
ist ic
ut ure
Sch eme
kic ad
helper ERKS
__ _
U Int
Ġn ation
Ġ Unable
d Ev
Style E
manager INS
money punct
Ġg rid
28 76
T rue
Ptr I
of streamIcSt
m achine
28 13
g h
Ġ 134
ĠT he
no throw
D ES
28 26
Color s
Property Manager
28 43
28 57
hs ail
Add ERK
30 64
append Em
28 42
Ġ3 60
pulse core
Sw itch
d cc
Ġ raw
27 92
StepF EA
Ġde st
Sw ig
man ip
macro s
Ġp gm
Ib E
decay IT
Ġ 131
28 65
K H
R F
List E
Ġm ove
So ft
FA IL
En crypt
Ġset tings
29 94
Topo logy
KConfig Skeleton
28 75
28 84
app PK
Ġ Check
tr usive
30 39
con si
Q Locale
Ġpar sing
traitsIcESaIcEE ERKNS
data PdPKdS
Command s
c w
C ircle
data C
Ġ 132
Down Cast
28 82
QF oreachContainer
nc at
ĠFormat Locale
trackable C
Deco ration
int P
tran sp
Ġw ork
gen ie
constructIP K
Ġm d
r k
QObject N
28 33
Bo rder
Matrix IdLi
p as
28 39
Path Ev
28 45
Ġfc ntl
un link
ar c
comm s
lib f
28 55
vtkOStreamWrapper lsEPKc
Bu iltIn
tp m
Ġ region
re m
std err
ho me
String B
AR B
ref E
28 31
Up load
pd b
cap acity
C OL
Del ay
Ġ 135
Ġ 133
28 53
predic ate
state ment
PTR I
28 51
long P
ec ed
pl an
290 7
28 81
33 48
DS A
expr IA
28 73
Ġav ailable
Sync Io
28 52
3 258
Ġun i
29 14
Ic SaIcEE
EE cvbEv
UR I
fm comms
Shared PtrINS
expr ii
ar row
28 37
PFv Pv
ĠajStr Match
Ch art
28 77
ĠC opy
Name d
root Ev
28 66
From Long
Im Rect
dec rement
Ġfl ush
orr upt
28 93
ISaIvEEEE Ev
bind ing
IvEEEEEEEE EEEEEENS
no except
Ġs sh
QString NS
Conf lict
DE V
Ġo verflow
28 16
Ġnum a
ffffffffffffff c
29 74
Can tor
l bool
no fld
Ġjd nofld
gl fw
35 40
inv ocation
29 27
g itg
Ġcol umn
q Register
ask et
cal endar
0 560
290 5
F ighter
sql ite
28 61
28 63
h u
Ġf ill
112 48
32 30
Bit Stream
cast er
On MaskIteratorINS
I Z
Ġset sockopt
290 6
K W
IvEEEEEEEE EENS
me mm
set IP
trackable ENS
S TL
Ġl v
IC E
channel s
Ġi map
40 78
28 25
28 71
Col lision
s ago
M ore
Err Post
EEv RS
mn emonic
Ġ 136
290 9
ce fc
Ġm ng
Bul let
Ġtest num
3 170
De alloc
CommandLine Parser
Ġ addr
xff e
o int
v lv
3 198
dec ls
Q Set
f delt
af ter
Tool Bar
28 99
28 96
or ph
svectorIjj EC
Ġwx Default
psub sb
34 18
Pre v
EES F
EES D
stro ke
nt ILb
moveIR P
by t
29 24
28 91
Compact FstImplINS
QString Ref
GetToken OnLine
ll u
th ing
Ġcon t
Be havi
d sa
46 54
30 33
tran si
Pro j
In sp
30 44
mm Ev
29 33
xffffffff fffff
Colo ur
20202020 20202020
h l
dep ay
typ ename
30 34
in ator
29 67
cc l
106 24
value ES
Ġi x
D ht
ComponentFormatting OptionEE
N ECT
29 36
3 190
Shared Config
sv ect
lessIi ESaISt
Option EEC
32 20
Ġp an
\ \
lip se
28 89
re start
30 99
29 84
QStandard Item
buffer IN
result ILb
L INE
ra ce
Ġexec utor
v ing
stIS D
e Coord
Event s
mask z
appEii jPKP
ĠP EM
File Writer
Ġs mprintf
28 46
error Eb
Ġb td
traitsIcESaIcEE aSERKS
Ġ 150
add ir
T ermin
core EP
Iv NS
gc s
Write Config
ĠP ACKET
Ġ 139
28 97
cf ed
dm r
ant eced
5 126
29 42
C ube
29 11
ce l
ĠC P
Q ml
544 42
Sep arator
msa file
B ER
300 1
QDateTime D
0 88
Ġwr iting
string IcS
29 32
EEEE Lb
gra de
Ġ 137
29 21
a h
29 29
Delete Ebb
p refs
Ġe nc
Key s
Ġ QtCurve
29 31
3 270
an aly
32 28
signal Observer
sAnd DeleteEbb
signalObserver sAndDeleteEbb
E VP
set Current
DEF A
F od
dynamic MetaObject
30 54
mark up
types EvE
K SharedConfig
dataEE ONSt
29 44
* "
Ġopt get
bound EPSt
Ġu sing
Ġno w
QTextStreamls EPKc
36 58
Content Transp
28 92
ame l
Filter State
RVNG StringD
290 3
Ġdata base
ra ted
Stat istics
e book
B asket
Fod der
string ESaIS
reserve Em
QS pin
S lider
ĠreturnError Ptr
28 83
ut ation
lm d
28 62
i pe
Ġt fp
28 87
T S
Magick Core
Ascii StringC
o cl
29 15
dd d
s vectorIi
DownCast ERK
28 86
sh ake
Ġc at
i ff
30 36
iterator INSt
Ġen code
nd up
W eapon
_ $
Id EEE
fail ure
tactic R
29 55
log ging
StandardConst ValueAccessor
initial izer
freeData EPS
28 85
EE SA
data IS
2653 589
0 90
ategor ies
28 69
In formation
Read Only
lmd Sa
cc df
Image Variable
QMapNodeBase i
33 50
ON ENT
value ERK
free TreeEP
29 54
29 97
Ġ 140
Clip board
30 91
Ġc rc
Ġ ENGINE
34 40
AST Ref
34 48
sq r
memm em
Lock er
34 50
un able
PKc RK
30 14
ret ch
ance stor
Sequence NodeOf
getInstance Ev
File Access
ar ity
S im
Ph rase
sd f
29 34
3 280
28 72
Qu ali
Ġcon trol
PoolAllocator IS
w s
Ac tivity
' âĢ¦"
Unit Conversion
EE P
29 39
Fi el
et er
300 9
K UnitConversion
E V
Ġx ccdf
Ġro und
QTypedArrayData IS
3 208
xa aaaaaab
lmdSa NS
ĠM EM
30 25
30 77
D OS
h box
Ġlib bpf
spe ed
30 31
iteratorIP NSt
4 140
29 73
300 5
29 25
mm ed
29 96
ex e
c n
dire ction
Layout EP
Sur f
C DF
34 90
filter s
constructIPK wEEvT
2653589 7931
Ġ lseek
Ġ 138
tColored String
Eii b
29 12
30 24
29 85
lex er
ĠĠĠĠĠĠĠĠ Ġ
L inf
c enter
29 35
29 56
28 56
CImg IhE
29 17
29 22
Data EEE
consi stent
recogn ized
OF Pair
29 37
Ġh ex
pdata P
PP c
ep MC
4 150
20 10000
Item Base
Ġ Obj
e ba
Ġf b
A poll
29 64
DEFA ULT
Eii jPK
DU Chain
ii iii
Ġdy namic
EEv RKT
35 00
Ġfil eno
Field Reader
Make Identifier
QObject E
ĠEL M
oni us
lib bpf
29 66
Apoll onius
OutputArray E
Act ual
lib ebook
29 16
Pre cision
Ġt y
lim its
exprj E
Ġs upp
300 6
Ġ 141
29 43
s D
Ġ red
EE RK
14159 26535897931
29 63
29 92
Precondition Violation
BSpline Curve
Reference Counter
38 00
29 45
348 8
ic mp
pl ERKS
29 69
29 86
EPKc l
map Ii
con versation
v rr
30 74
et ric
json ISt
Window TypeEEC
3 240
S i
29 65
FieldReader Iterator
Ġrece ived
29 59
Get Ev
33 68
29 89
P lease
Color Role
sc i
SQL ite
Ġ 143
Perm ission
Range Error
Subscri ber
QTypedArrayData IP
Ġ 144
Re lation
Ġc tx
E bug
at Ei
30 94
AT TR
Error Message
29 71
j EE
ĠT cl
AG E
c u
ĠĠĠĠĠĠĠĠ ĠĠĠĠĠĠĠ
Ġ 145
29 76
fi sh
33 10
C ertificate
Ġe r
29 72
Q Process
Ġm odel
xa aaaaaaaaaaaa
Ġix gbe
af ddc
ToolTip ERK
QVariant ED
il ities
Ac tor
29 19
Ġproto col
29 62
29 46
30 35
metacall EP
rec ursive
Ij Sa
Ġd ate
ĠD ES
db m
Jo in
D X
reg round
acti vity
Sa Il
Indexed Map
Ġsys call
29 82
33 18
Watch er
DE X
k unit
kunit conversion
SH AD
ce eded
Be zier
3 248
en ch
29 79
3 125
forwardI RK
ew f
KA bout
co factor
3 250
Regular Expression
E mb
30 17
300 7
th reshold
30 22
30 79
Te X
OS D
29 61
Scan Stats
gene rator
connect ed
Construct Params
x path
un n
29 53
Wrap ped
met ic
char set
Ġ active
Ġs ch
ho od
S EC
se parator
addAction ERK
pairIK NS
Bl x
u sion
sub r
JS Object
4024 000000000000
DataMap Of
3 124
30 12
P ci
30 21
35 10
rb uf
29 87
Ġ"./ ../../
EEE cvR
vectorIjSa Ij
Data Set
QPixmap D
Ġ 142
Release Policy
Pop up
rule set
Par sing
SaIS A
30 84
Visi ble
helper EPK
300 2
Ġac l
29 81
s ls
v fs
lib openvdb
dir s
29 26
EEE Lm
App ender
os ort
ith er
Id ED
Ġwindow s
30 43
U INT
gra b
Ġc dw
QS equential
edge IN
psrl qi
k ill
Ġqu ick
T errain
30 29
size of
traitsIcEE Lb
3 298
eq EPKc
32 38
Ġe t
o ch
pairIK iS
C ity
plugin Ev
Ġal ign
Ġin teger
ZTV N
type EEOS
OFCondition C
33 40
S ago
inf erence
ra sh
Ġxml New
EN TR
N ative
ĠS nprintf
Ġs dp
Point s
Associ ative
f ec
value ENS
Fe atures
36 38
intr osort
Ġ"" "
Ġz ero
Ġmp d
D EC
ER P
at io
29 93
col umns
to ph
Ġw idth
ti c
ĠFE wrong
core ERKS
em y
pos Ev
M ag
OFCondition Const
Ġ 147
M ismatch
29 41
co lo
osg Util
Pl ain
4 118
ok u
wh ite
29 83
S ame
Field Descriptor
literal EP
Ei PK
41 10
QVector IP
40 44
De struct
E cm
Exec ution
tag E
98 20
i N
Fvv EEEN
pcre cpp
int Ei
Ġpar ent
340 8
g li
Ġcon tains
n aco
33 28
29 47
var EP
vo ie
Magick Memory
fa ENS
amel lia
index Ev
sub ERK
name IcEC
Ġbo und
Comp osite
E cho
d rive
Reg ex
vectorIiSaIi EEixEm
Ġn to
29 52
Ġ 149
leg ro
C AL
v isual
pre condition
Highlight ing
Cdl Interpreter
30 55
IP NSt
pe m
cvt tpd
info C
29 75
R ende
managerE Lb
ZNSa Iw
ĠCor po
29 99
m P
g re
head end
Ġ"+ "
H OT
Xn Sensor
34 28
LogWeightTplIfEEEE E
Make String
30 13
29 51
FOR M
21474836 48
H F
ĠCan not
w alk
V Card
gl Get
ĠCl one
/ ../
34 60
sto ck
toph its
ab b
Check er
Un link
st ar
29 77
Point ESaIS
Dis co
QTab Widget
29 95
mut ate
Compress or
3 135
c upt
BasicImage INS
Ġfor s
Inte l
goal EptEv
i stringstream
C m
30 26
e bc
Ġ ast
SHAD OW
Ġ Open
metacall EN
V ga
( [
30 81
Ġn s
30 75
Add String
ist ri
dp i
3 104
Cl uster
R EL
Ġstr l
min i
addItem EP
34 78
log ies
p msg
base INSt
Ġ ImGui
CS P
I VE
Element Ev
equal sERK
pr v
Icon ERK
30 49
icsf tok
30 51
Ġ 148
368 0
neg Ev
f write
30 27
( !!
ap t
allocate ERS
34 38
ĠA S
Sh ell
400 8
t dl
30 19
ar ena
30 11
register EP
UV W
(!! ((
ĠM ake
L s
Th reshold
s B
Ġmsyy string
Accessor IS
m ont
H alf
Ġx free
30 56
34 30
c St
si bl
AR D
b p
se ed
CImg IsE
Id EET
v t
33 60
33 64
traitsIc E
30 57
30 37
3 114
4 160
30 16
Ġ 151
i j
3 117
Setting Item
Ġg d
O ff
3 308
ro ps
H B
gearm an
p mix
Ej RKS
34 10
36 48
t ex
function IFv
Ġlocal time
T E
Ġ 146
AN N
g js
at Em
traitsIcESaIcEE ixEm
Ġu l
ChangedLine Index
3 260
set ToolTipERK
EPKcii PvS
errorEb PKcS
e ol
Button Custom
pix map
Appro x
**** ****
30 23
Ġd at
pro ccl
set ree
Modi fier
pro g
Ġwx EmptyString
30 61
Id Sa
Const BasicImageIterator
QV BoxLayoutC
4 138
30 62
pre view
map ISt
Append ERK
way s
3 106
COMP ONENT
p q
Cache StateINS
3 288
p at
29 91
Lib r
ĠSeq MgrGet
3 142
30 67
33 58
Ġq fits
00 8
iter IPFb
PE G
Solver Interface
5 208
symbol S
Ġcmp wrd
30 66
Ġm i
30 89
MetaType I
Kc SaIS
to Ij
ĠT erm
ĠF DK
un g
Ġtry ing
ob ex
rate gy
um bn
matrix IddE
edi tor
available length
mat ic
3 268
3 116
limit int
Pay load
Time Zone
ie ve
if t
Q RegularExpression
ls Ei
30 41
30 69
to upper
Ġ 153
Ġ"./../../ ../
30 45
pro d
Ev RT
reat ing
frame s
Ġsh a
b ility
Ġro s
sct put
dcm im
t EOT
lin eno
ap vlv
30 42
i RK
di me
36 28
30 65
32 12
down load
3 164
30 63
Fodder ElementSaIS
ec f
tool tip
a wn
QDBus Argument
Min imum
Ġreturn ed
Ġp age
G M
n ist
Ġpo ol
34 58
R dS
f read
ti ff
P Y
C re
Unit Test
track er
3 105
M acro
B N
3 251
db e
marked EP
30 93
vu comisd
360 8
Ġi ce
Shape D
Standard ValueAccessor
Aff ine
ml ERKNS
ing Ev
Trig ger
in z
De v
K G
is k
umbn ail
bl end
3 103
370 5
st mt
30 85
ht tps
Location E
g ames
Ġn ames
Ġ 200
Ph y
30 47
4 148
buffer s
32 14
setCheck edEb
3 185
c ube
ĠReadBlob Byte
p key
traitsIcESaIcEE Em
verti ble
30 46
p unpckl
(& _
5555 5556
m counter
Ġdb g
3 132
Ġin te
Ġp am
4 108
36 40
Info D
compile d
Ġat an
size ERKS
Op tim
BoolePoly Ring
Ġcomp ile
QString ENKUlvE
li ent
up sd
Ġx dr
33 34
G OT
ers on
T ry
C UR
result EP
rid ge
3 153
3 206
eric al
Max imum
wx Logger
ite EP
32 19
one E
QDialogButton Box
Finish ed
dem angle
unn el
EE cv
4 168
ic ro
map St
tag EEENS
Base Diff
ĠMEM BaseDiff
function IF
d g
30 95
4 130
sat L
set C
30 15
Ġtime out
type ESt
Feed back
lan guage
Ġyy lval
36 56
EE h
Pe er
Ht ml
Ġ res
Message Box
pe ated
l string
Re pository
GP U
List D
attr s
30 96
pro mote
label s
0 50
8 0000001
val Ev
3 171
ZZ Z
3 169
Bra inz
om inator
t wo
if stream
Ġi tk
xp ressive
QByteArray E
65 64
base ILm
ĠRelinquish MagickMemory
30 76
Is Kind
comp letion
3 129
temp t
R L
hp mcounter
en ume
Syntax Highlighting
Ġre set
ER AL
P M
30 83
ptr ISaISt
AS Resource
30 72
30 59
invalid ate
3 269
base name
Ind ent
4 120
3 189
3 111
Get Char
3 294
Ġmo unt
List Ev
EiPKv j
am ount
traitsIcESaIcEE EPNS
RGBValue IdLj
30 52
36 50
h idden
B us
ĠTechno logies
3 146
ato ms
EPv NS
30 73
3 109
30 53
ĠF L
ISa INS
3 177
translate d
si p
IT K
EES E
QSequential Iterable
con figure
f un
RE G
QTree View
Digest Update
Ġset locale
30 000
ĠC MS
Ġf in
52 18
set Size
Music Brainz
l aunch
36 68
F on
traitsIcESaIcEE pLEPKc
Un do
ReferenceCounter ENS
3 149
str free
3 141
Ġuti ls
Dis k
Ġg ts
3 119
Ġ destroy
Ar row
TRA NS
ud oku
3 196
30 92
dynamicMetaObject Ev
list ISt
30 32
Cl one
match er
0 60
f older
D w
31 12
manager P
ra id
div ERK
value EP
4 200
3 144
D fs
f allback
n ex
PFv RS
Ġp lay
3 134
Ġm et
EEv E
U int
Ġ* âĢ¦"
s ur
xfffffff a
f mpz
code E
medi an
b db
exprj S
cor rect
xccccc ccd
4 170
up dt
37 37
1000 8
nodeIS A
Ġ 155
bl t
att emp
30 71
K SyntaxHighlighting
3 176
id f
sp an
30 87
3 139
G ot
und le
in ti
Ġc cp
4 00000000
Node C
3 115
e free
348 0
expr PN
EPKc NS
3 152
hash Ej
3 151
K ill
ĠCorpo ration
if ace
D Y
k mp
Row Cut
3 101
32 24
35 90
multi ply
arg E
C wise
list en
Ġ rfc
400 2
Ġ Could
3 184
34 98
read EPcl
Et t
object s
Ġ 152
st b
traitsIcESaIcEEEb lmdSaNS
34 20
A UT
3 161
gmp n
id E
AndS ize
Q Settings
Ar tin
3 113
Artin Presentation
3 121
Ġg rl
Ii Lj
relocate EPS
h P
inst anti
38 78
Ġ Valid
V S
v box
li ck
36 30
MS G
3 249
Data Type
ErrPost Ex
3 192
Event E
Imm utable
34 68
3 102
Ġbe en
ĠEx iting
auto fs
data IN
Re solution
3 126
30 86
21474836 47
3 174
node IJ
Ġd ialog
4 248
und o
ListIteratorOf ListOfShape
C Braid
30 97
35 94
vectorIhSaIh EE
3 123
Ġwx LOG
Short DenseIndexSet
f at
f dc
32 25
parameter list
row se
D d
Open Mode
3 122
3 167
1000000000 0000001
36 10
rule E
Fon tii
be fore
aa a
30 82
3 154
Link ed
Ġ 154
Pro b
Ġcomp are
3 244
40 62
z oom
h oc
4 190
40 41
ĠP arse
3 159
User Data
ran k
per l
Ġm ark
B ranch
32 26
traitsIcEE E
3 147
QKeySequence D
3 199
rational Ev
vectorIjSa IjEE
g k
at ern
ra in
g cd
i ostream
State Database
HLR BRep
Classi fication
Ġ 156
K File
4 158
3 107
C or
179 692
J reen
R EC
17 11248
L F
enode EP
p P
33 12
3 233
me s
Ġigno re
enode E
40 74
PIX EL
s EE
strfree v
create Node
Ġfe of
color s
ĠD raw
Ġsa mple
dcm net
Ġre quires
G WEN
device s
smt fd
n ick
52 10
To lerance
3 254
ra SERKS
400 4
328 7
WR ECK
3 136
p si
3 156
M IN
compat ible
P refs
3 204
330 5
3 155
node E
STR EAM
QUrl C
QMap IN
} \
ĠError Quit
n top
Format E
DSR Types
g id
Op INS
N V
lv name
ĠG F
3 173
3 172
sw er
3 262
IS H
ĠActive GAPState
List Item
Ġin st
3 194
Fil tered
def un
Ġp ixel
40 39
Array IiLi
s z
IPKc EERS
Histogram Arc
tupleIJ EEEOT
P references
3 143
33 97
D ump
Ġre cv
intr o
L IN
4 128
3 131
3 229
h mac
tpm tok
334 1
3 205
pl ink
INT OBJ
Unicode StringD
36 78
Format ted
Util ity
Dr um
Parse Tuple
AN TL
V O
u sing
cca tok
3 133
Ġno tify
text ure
IC K
Implement ation
IT S
3 137
pe a
ĠM T
3 157
i RT
Ġ 157
Item ERK
40 21
ĠAl n
pairIKj S
fffffff PKcz
Draw Fontii
DrawFontii fffffffPKcz
traitsIcEE D
Ei R
KN OWN
pub lic
Bul k
3 163
cf dd
Front end
35 60
H P
o ssl
3 145
x lan
F re
Ġpro gname
cip h
iter IZN
with out
3 222
c ript
3 232
3 197
380 8
EP FS
g ig
ANTL R
3 195
sec ure
32 16
predic ates
3 165
Ġl abel
Object Path
dealloc EPN
de ref
im ate
3 162
33 66
par tial
PT opo
PTopo DS
3 221
ĠX t
M achine
V ID
traitsIc NS
fc itx
3 245
CK ET
Comp lex
Item Selection
Signal Proxy
Object Ev
action s
ti ces
for ge
mem be
xffffff d
e of
sd sl
orig in
ro ugh
QIcon RK
Ġ: \
Q CommandLineOption
Pre p
ĠreturnError Int
EEEE ES
Key word
Ġg x
Standard Button
map IcE
Enum TypeE
@@ @@
contain sERK
3 234
35 64
Ho ok
Ġp t
A Val
sr l
3 279
u rsion
Ġre place
L ang
nt IN
c ac
Bot Info
3 127
Ġ 158
37 00
li map
In f
35 58
M apping
T C
t ake
Rot ate
37 36
3 182
b pm
Ġc e
read Entry
3 276
Ġ OpenBabel
poly gon
L IGHT
Ġ here
3 193
Local File
Error Handler
xc l
Ġmai limap
ind er
ZNSirsER i
In verse
e ParticleSystem
Ġx strdup
3 183
3 202
list INS
Ġs u
mpz j
ID Ev
3 207
Th an
Style Context
3 175
3 166
35 50
OF Iterator
category NameEv
36 92
len EmPKc
ĠD T
m z
3 227
wxS izer
Ġcod a
cp pdb
Quant ity
C ancel
expr EC
Sl ave
Simple Type
Ġp h
d rag
Gene rate
Ad apter
s low
Sto ck
cas cade
Att ach
add s
35 18
cont act
Location C
Ġ" ^
pc i
pairIKi N
entry ILin
h arp
32 17
3 259
ĠSy nc
job scheduler
n ump
flags EPS
ST UB
M E
Ġ1 60
Read Line
ĠX Free
parm ERKNSt
ept Ev
3 256
Name B
c nf
resize Ej
trail IN
ĠM em
assumption EE
4 163
cmp num
Zls R
34 54
MatExpr D
nest ed
D na
var ray
D ay
el fl
33 333
Ġ Enter
p references
39 50
alg orithm
ĠajStr Append
T ick
EEEv RKT
32 13
MM gt
hash Ij
32 23
3 179
s dp
point Ev
ĠFF Add
3 191
36 70
c NSt
Ver ify
3 243
Is Lj
Finger Test
new mortal
Ġ 159
um b
Ġf tell
33 36
3 257
f loor
Con figure
equ ation
3 267
330 4
managerEE aSEPS
350 8
3 186
H and
strn cpy
33 23
Ġ1 67
33 96
35 48
35 78
Re use
Ġ. ..
42 28
manag erb
Ġl at
sort IN
Ġo rder
3 187
ĠV ersion
Ultra Probe
SimpleList D
P ressed
ĠL LC
UN KNOWN
can on
RE Q
al let
Ġ St
prin ti
cast EP
Un ary
34 45
insert ERK
embree L
So ck
tin y
Ġn p
Ġb et
Ġm ow
Sp acing
Ġmow gli
sp line
pos ESt
3 291
i eld
c ec
pea rance
Ġrt a
Me ss
li es
mem buf
ry pto
u ction
ed ata
Check edEv
Base d
3 181
AV L
. ,
VT K
ĠT ime
330 7
4 180
3 274
3 255
QStringList D
358 0
rel ative
36 60
OF F
47 78
3 264
right mostEv
printi PKcz
ZTV St
Jo urnal
StringC at
52 1974
3 201
Map per
3 235
b bc
Q CommandLineParser
i pt
Ġ IO
deque IN
334 4
To ERKNS
* )"
vp shu
Width Ev
Ġ result
imp EE
rational EC
link er
Ġf mpz
Array Of
Ġfget c
Cont in
P erson
o uld
368 8
m add
enc ies
nodeEE EPSt
35 28
3 247
328 5
KConfigSkeleton Item
Bl ack
for med
38 40
find Ecm
32 11
ro ut
33 14
traitsIcESaIcEE EESt
36 98
3 265
3 237
3 295
C LE
Reverse ArcINS
for k
35 38
sort EPK
QHash IN
Assign ERKS
QMapData IS
IP ush
R ate
QMetaTypeId IN
40 69
Col lector
Ġc f
vector IcSaIcEE
QObject PKc
Ij Lb
M AP
Pointer INS
Ġ1 61
atom ELb
400 1
C rt
elfl ink
K Activities
G aucheModule
cartesian INS
N c
st able
Ġrad log
MyStr C
3 242
3 253
3 277
h z
334 2
Impl To
4 250
Pd t
38 10
op tim
Ġw attr
ĠD ay
unc nstr
358 2
IsKind ERK
Ġbn x
Integer FilterState
Ġd p
Draw able
g io
CH ECK
36 34
x nl
Ġo ff
36 20
358 8
Ġcups Array
Log C
decrement PSt
pre vious
35 98
wxEvent Functor
Color Group
ar b
ĠPy Long
Link Type
g ot
40 31
3 241
3 203
3 272
Exp anded
330 6
J ava
list ener
34 44
ĠajStr Token
38 70
prin cipal
G Base
ptr IS
33 24
SyncFile Item
QSpin Box
33 54
Or Clp
Ġclose dir
88 59
D isc
iterator IcSt
34 24
cl ERKS
ĠP l
e Team
vector NSt
sp l
Ġw ill
Ġ Config
Ġse gment
ABCDEFGHIJKLMNOPQRST UVW
un managed
Ġl arg
Ġ1 63
x s
p LE
to Utf
33 76
Ġpro perty
int Ev
bf rops
B rig
ĠĠĠĠĠĠĠĠ ĠĠĠĠĠ
L ite
35 70
QMapNode IP
3 252
3 236
A sync
QObject D
Ġpara ms
Char Ptr
ur ing
34 34
st k
write EPKcl
pairIKi St
limitint Im
3 275
con tin
38 88
SequenceNodeOf SequenceOf
33 21
35 30
Ġaj Reg
3 209
p unpck
de leted
Mono Output
35 34
ImageIO Region
K Gui
fc lose
SH A
3 263
Ġis ns
39 10
EE RKN
De sktop
LA G
33 55
R ak
p en
Pro ps
s uffix
v f
330 3
34 36
3 292
Tri m
3 293
Xn Property
QKeySequence C
QDBus ObjectPath
T mp
328 9
sub mit
F low
QColor C
s an
LSP Client
den ominator
host name
328 3
hp PKdPdS
Ġd ict
37 30
3 231
32 15
En vironment
R d
vectorIP KcSaIS
338 4
Xn Device
Ġinitial ize
40 54
For mula
Comp iler
managerE aSEOS
t Console
37 50
Open Raw
initialize Ev
Vertex Attrib
M O
Int Tools
Ġ1 65
330 2
manager ES
Ġ html
328 6
39 90
Ġp ush
Changed ERK
ĠType maker
ĠG EN
sw tok
verti cal
s uccess
Tag s
Node EEESt
C enter
Key Value
File Storage
ĠS S
A IL
EPv PKv
Ġar f
3 299
HT ML
Scroll Area
= '
Ġin c
Char set
Unlink Type
IS O
QList IiE
Ġ1 62
ĠAsn UnlinkType
perm ission
Crt Allocator
in i
Ġb ig
ib TeX
Ġv ec
3 261
padd d
OR Y
Title ERK
Contig Properties
33 11
entry EEvPT
cal ib
ad hoc
37 40
Extensible Item
3 273
Sub scription
Sa It
EE aSEOS
Ġch unk
g pr
338 9
338 7
T utor
manager ER
ĠB U
IhPPh EENS
c dc
4 208
less INSt
80 48
35 68
b lob
Ġal lowed
Get Current
lap se
QDBusPendingReply Data
35 20
G lide
3 297
33 53
33 31
Bo ard
Lin ux
Is BuiltIn
37 78
fi fo
34 94
Xn Actual
un bind
Ref Ev
Ġ10 00000
addAction EP
Ġs rc
Coded InputStream
Ġsafe free
upper Left
Inst Validator
cl ERK
Fv b
Ej PNS
y led
Xa asr
330 9
QVector IPN
T Shared
MetaType Defined
Defined TypeE
Defined ntsr
MetaTypeDefined Helper
40 64
IsBuiltIn EE
en tr
34 59
ref aSEPS
hash IjESt
37 60
Ġbe fore
ESS ION
min c
Ġ" )
ImageRegion ILj
f time
b fc
33 61
Glide Root
MetaTypeDefinedHelper IS
Ġmo use
338 5
ll PS
3 271
Ġ Data
33 59
40 84
33 52
Reference Base
33 32
OP ER
ĠF ind
Ġu til
400 8000000000000
330 1
Ġe cp
o rdered
35 44
s vectorINS
sp acing
QM ime
328 4
17 896
iv Graphic
impl IN
Ġed it
w ave
3 246
context E
4 374
objectPKc llPS
UnpackTuple P
Ġ1 64
Ġm ismatch
For ce
de a
mul hi
Org Kde
36 97
Ġb inary
33 39
De st
3 296
C X
St rategy
33 56
work er
34 31
on line
mpq C
I AL
350 9
EERS iRT
36 90
Id EESaIS
Ġemb ree
auto ptr
parameter jPKP
Atom Iter
PFvPv EPFS
OR M
P atch
PKv Ei
ur se
33 13
WR L
QByteArray PFvPvEPFS
38 90
si m
TypeFlagEE PK
group s
registerNormalizedType ERK
Destruct EPv
Ġf s
80 38
justification E
334 5
Sp an
4 258
Construct EPvPKv
3 239
Para llel
42 10
360 4
EEb RKT
bool EPKcb
PL AY
AR Y
b roadcast
U D
40 25
Q Qml
Ġ Unknown
S cope
35 53
47 70
33 29
Ġto lower
4028 2347
ub ic
36 57
Element ary
Free Internal
Ġs log
ĠT rue
Ġ IP
Serial ization
get ERKNS
su bject
39 60
Ġf error
method s
ctx D
340 4
4 202
3 266
ES O
37 20
ĠX Draw
36 18
match es
inte ractive
38 68
OM E
Transform ation
38 20
Ġp refix
50 60
Of HArray
params ERK
C alloc
44 00
r fx
33 17
33 77
AV Y
33 26
Ei Pv
dcmim gl
Ġdoes n
SimpleType IhNS
Ġdl ang
33 19
d bc
info ELb
34 63
FreeInternal Pv
om ain
HDR I
null v
169 51
QWidget C
d printf
33 57
name B
T O
33 25
ec m
in vert
Ġ1 66
chron o
R aster
Ġp assword
38 48
u MenuItem
mo o
Reference EP
D ig
Ġstr uct
EPK D
X Ev
di vide
ug ht
35 17
set IiSt
Ġ 256
R ED
y ou
T P
334 3
DOMElement ENS
33 16
40 94
e ed
pro t
Ġf ro
34 14
ii o
ĠSy stem
Edd dd
Ej PFvRS
cmd EjPFvRS
app PN
33 79
34 12
y es
Cbc OrClp
N eg
J UST
st uff
rdat atype
ĠS h
Ġcal led
33 37
ĠS ize
c ategories
HE AVY
CR L
EEE NSt
De sign
Ġ bug
iz able
ReleasePolicy IS
p RKT
EP df
gss api
Info Common
35 35
Ġ1 68
33 72
user TypeEv
328 2
34 35
m en
plugin lib
GrowingArray BaseD
42 30
BRep Adaptor
328 1
Base E
E lem
g reater
4 178
ĠAsn LinkType
QString b
freeData EP
table Ej
Directed GraphI
Image s
334 9
bot tom
33 75
st re
MonoOutput PixelTemplate
B V
un e
ĠC tdl
Ġdi a
tri angle
Ġto upper
o ose
K Bookmark
38 28
Ġcon figuration
lock ed
Bulk Allocator
48 00
forward IN
P alette
EE RT
GP Enabled
Ġast r
inter r
Ġg vc
AST E
Ġco mm
Bio seq
comp ressed
Ġw move
Ġf re
neg ative
re calc
accept ing
literal Ej
length EPNS
33 27
340 6
xf ac
348 1
Vector FstImplINS
35 99
Error ERK
Ġfor k
ctx C
39 30
alloc ation
IT E
334 6
EP PNS
emb ed
34 15
ug gest
Clp Model
set I
Ġp v
Vector C
InputArray ERKNS
Gap s
338 6
34 22
perm utation
33 94
33 65
38 38
Il E
Ġ1 69
QStringList lsERK
traitsIcESaIcEE EEEE
Auth or
33 35
CD R
Ġ1 71
34 19
open cascade
ra ll
34 99
33 67
34 17
IcEE NS
fe at
ĠR and
33 22
pro blem
Shape E
38 98
Q H
st ab
parameter Lb
un wrap
CONTR OLL
type sEv
340 2
b s
Shader Source
TR O
j EC
i Lb
Ġg cry
340 9
QDBus Abstract
de init
Ġu prv
LO PT
Ġreg flags
AL G
N map
ce p
str ndup
Ġ1 76
36 22
F D
33 71
34 74
il ing
K eep
34 16
Tutor ial
Ġ1 75
340 7
iii P
G ray
I E
ER M
Ġf ull
Sp here
Ġs m
69 38
Ġ1 73
Ġm dc
IN DEX
For ward
rec tive
0 70
Ġmat rix
350 6
40 46
T ol
QNetwork Reply
ag g
GetRe maining
Model Ev
Ġno rm
66 14
34 56
39 18
Vector INS
time s
34 52
attemp t
4 188
A bout
ĠBinary Sink
b dc
33 93
340 3
QNetwork Request
get Value
G ran
Line s
wxWindow Base
ĠFE type
Dep end
Exception ObjectC
M id
34 64
378 8
at able
un used
set Tab
Node EEE
Ġo val
ĠD JVU
37 28
Ġpo inter
Ġtr unc
rewriter EE
str tok
hand shake
K XML
Ġc upsd
Ab ort
Comp ression
pret ty
38 60
relev ant
FUN C
Map Hasher
s R
psll qi
Ġc a
pop up
33 91
34 33
Add On
Ġp k
un register
Logger E
33 95
xffffff df
178 9820
33 74
get s
set IjSt
match ed
338 1
array INS
s ummary
ABCDEFGHIJKLMNOPQRSTUVW XYZ
Ġ1 70
ph oto
39 38
n r
39 20
Ġ< %
xffffff ef
Color E
34 37
B am
34 29
36 21
Shape Extend
Ġ riscv
symbol Lb
clean se
val IK
Index Ei
pl ug
ĠD cm
f z
f lip
QBrush D
Ġ1 74
10 000000000000
340 1
390 8
top Ev
58 62
tiny xml
33 51
Ġp osi
value I
OB Format
Host Os
exprj EC
s se
E K
L dap
Id x
33 73
M DF
34 55
37 38
33 15
38 80
Cbc Model
mk v
A ips
Dialog C
37 10
35 24
35 93
348 5
Ġ openvdb
s copeEv
34 39
notify ENS
Field OfHArray
Ġ1 72
37 18
Ġaj Mem
inter sect
Shared Ev
traitsIcESaIcEE Ej
36 44
S EL
data EONS
ĠG s
34 47
ro ve
pairI iS
ZNSols Em
Ġcomp iler
po t
to d
len Ell
Symbol s
35 47
40 49
mod s
33 63
node IN
wx Path
Proxy Model
Deleter EED
In str
gate way
Ġpan el
A ngle
33 92
reg istry
5 200
ĠA ss
37 48
34 25
33 99
34 95
le af
Ġd im
Get Color
Ġ{ \
Ġb its
vector ES
Pointer Holder
Ġ ped
Transl ated
348 4
Ġre mote
insert EOS
clause E
34 43
re ma
PK h
800 1
v xorpd
Ġfield s
frame set
4 270
re cfun
ro ken
Ġan y
vtk ObjectBase
ĠTechno logy
U PS
G I
mem o
360 1
Ġac count
iteratorIP NS
St retch
fe asi
334 7
34 67
% .
eq Edd
Is Equal
348 9
sv g
ho ist
34 41
ĠNew Bag
N K
A Z
Ġg ar
ip mi
Un ion
He al
37 27
it map
34 75
body NS
Wrapped PtrI
P IN
L ERKS
nc bi
QHash IP
4 380
C py
String List
O per
34 21
Serial izable
IPosition D
43 20
fd f
Ġ1 77
clear EPNS
358 3
lessIjESa IjEE
associ ated
Data X
ali b
168 4830
Register Value
rational Rb
4 198
5 258
auth entic
S R
Ġ1 78
35 42
Swig Py
Ei PKcz
numeral E
CO DE
Ġis space
DcmTagKey PKc
39 78
4 197
Enabled ENS
Ġal legro
338 2
33 69
scri be
Ġpi pe
String CompactorINS
] [
36 23
DataX td
IB UT
QDBus Connection
ptrI A
Key words
Ġpow er
36 94
P ref
ESa IDi
IDi ESaIDi
38 50
String Ev
37 70
34 66
r n
EEj NS
Ph one
sp end
34 46
39 70
40 83
34 49
36 16
ĠT NAM
str ict
Osi RowCut
34 27
e ss
is SharedEv
Ġpara meters
QMapNodeBase b
msg Ev
378 0
createNode EiiP
Vec ILi
traitsIcESaIcEE EEclERKS
xf rm
peek Ev
Ġm zd
Status E
WriteConfig FlagEE
ĠG SM
35 14
ĠMagick Str
sp src
36 96
4 290
Context E
V tr
Ġselect ed
42 20
type Ei
Qual ity
RGB AccessorIS
Less Than
d mul
code PKc
vtkSmartPointer BaseD
37 58
pd ecl
Ġin i
En c
Sort ed
am i
exception s
Done Ev
CONTROLL ED
34 26
m argin
p ivot
Ġin v
00 5
h ed
Behavi or
loc E
o uti
H W
Red is
370 8
47 68
k m
t JUST
368 7
EEEE ET
ack r
37 68
52 28
34 77
350 7
pe ll
A pi
34 13
Ġn slots
68 00000000000
mem set
port s
39 48
35 54
Ġin flate
ObjectES G
Step Basic
37 98
M ODE
V ERS
f ragment
M F
34 42
34 71
34 23
is Notify
isNotify EnabledENS
M ost
Sign ature
ZGV ZL
basic image
ĠC ON
ImageImport Info
manag e
36 33
4 280
34 32
Ġ 181
cr itical
35 15
4 300
S ide
4 104
RK j
QStringList C
ColorGroup ENS
34 79
33 62
36 15
lt ERKS
g amma
35 46
G Var
34 53
ĠH MM
ĠSer vice
Ġvi ew
SO UND
34 11
338 3
34 57
m S
insert EN
F ea
34 51
34 62
check sum
Re sidue
pl ERKNS
Ġ1 79
handle I
symbol jPKP
I ZNS
op er
39 40
t z
stop watch
punpckl dq
34 92
IPK w
mov it
en gth
st ri
g v
ĠMagickStr l
number Eii
Type ENS
U ns
ap fs
max imize
348 6
39 68
EEEE EEELb
Def ine
deque IS
34 73
On Pred
atern ion
er red
Ġs to
s rdl
no ugh
Base IKNS
ind irect
State Tuple
ĠServer Instance
Ġin stance
wxPath Format
350 1
rep E
Ġl ang
cur se
en g
Mode ENS
wx Log
OS T
b cc
ASTRefCount INS
q sat
net CDF
b ec
tri e
Ġsig action
y stick
35 16
4 268
Ġf map
Ġre addir
Color map
Ġquick time
led Ev
b write
Ġwr ong
PP C
39 58
36 14
rin d
CdlInterpreter Body
curr ency
% *
CImg Argument
20 00000000
Ġg ra
34 76
40 51
e ad
38 30
B Y
Iterator BaseINS
% âĢ¦"
File System
37 53
Ġs tore
KS ane
T ING
QStandard Paths
hashIj ENS
Znwj Pv
35 36
logger ERNS
Acti vate
tupleIJ OS
Ġwx Conv
CImg IcE
39 28
Text EiRK
Li bc
34 96
34 65
number Ev
arg ins
xd r
PosibErr Base
co me
F M
inter pol
Q v
Ġe ng
Ġinitial ized
Ġx t
ban ner
SCR EENS
Pi pe
b olt
en ate
35 19
Ġau dio
ae se
49 67
Ġlibf value
i pp
x i
er Ev
vpsrl d
4 113
400 6
Q Event
Ġ%- *
38 58
Ġce il
348 3
C ipher
ĠS e
e fc
42 18
Ġfix ed
360 2
sical Model
State Ei
ed c
Ġlarg er
EvE Ul
Ġaj MemFree
Zero Ev
IS K
Basket Scene
Libc Ptr
fi re
mark EP
QObject ED
L AST
It Lj
tuple s
dS hape
QAction E
NodeStruct EEENS
43 70
35 67
4 260
37 23
Li ke
35 33
Exception Info
Firm ware
45 29
EEEv RT
srm Get
c spn
Con s
auth or
P icture
35 49
associ ate
Ġ Limit
Action s
Comp ile
entry ISt
Ġ 183
36 26
Inter n
node let
40 92
ĠL C
evalu ate
sat coENS
Ev t
draw able
S upported
on us
la zy
4 298
35 55
F c
40 55
35 69
Ġ astyle
QByteArray S
init y
Ġun its
39 88
Rot ation
type EERKS
in et
340 5
Ġ Emit
r printf
dat um
ab ilities
EE t
Ġ RT
B ASE
we en
Ġg cal
380 3
AR C
With Arena
34 93
QConcatenable IT
it ive
signature EP
en vironment
set top
att ack
In herit
52 38
BOP DS
35 66
xcc df
P UT
35 26
34 61
Get Start
osg Particle
iz ard
SCREENS HOT
Modem Manager
mt ab
vers al
getline IcSt
Ġbu ff
36 51
c atch
39 80
40 86
Cal culator
D ist
Sched ule
RGBValue IfLj
quantifier EP
35 97
35 29
lock Ev
35 72
Ġn dpi
45 97
Ġ 187
35 52
_ <
Ar ith
radi us
Sk ip
Mode Ev
CONF IG
g Cycle
37 90
Temp orary
normal ized
Ġse ek
43 50
Ġg z
a ec
CT ION
Modi fy
InputArray D
RVNG StringC
36 54
T er
36 64
ĠValNode Free
o ung
34 69
Ġ Window
Ġ peer
Par m
al go
Ġbl k
4 107
PKc iiS
si dl
34 91
nl a
46 70
Y Ev
in formation
TreeModel Column
35 11
348 7
EE ppEv
360 7
37 26
Ex act
cl am
in line
Zn e
40 11
ch ash
fs apfs
36 76
35 21
Ġd ls
42 38
H Y
ent ed
F Set
y nc
is CheckedEv
ph ase
34 72
list s
Ġaj Table
mid Eii
Ori g
Set Field
ĠY oung
Ġ 184
ob stack
LOG vE
d St
inger print
prim ary
buffer IPN
ĠG S
QShared Data
38 18
Ġ"< %
z malloc
aese nc
target IPNS
Ġ random
IS I
J PEG
Ej R
37 12
id s
Shape MapHasher
st age
Ġdoc ument
Ġ 182
Im Font
36 32
Metadata WithArena
ĠCP U
35 31
j ESt
35 74
Get Global
OP L
ĠYoung Bags
Ġs af
Ġ 188
Base Map
35 71
ZSt rs
350 2
() ,
vector IT
table s
Ib EET
35 63
35 27
I fc
EE R
Ch an
No tifier
Ġm ix
Ref I
360 9
Internal MetadataWithArena
IM M
V R
Ei RKNS
valid ator
U plink
Ej EE
fd isk
F ac
vp cmpgtb
m g
Package Kit
Type Mismatch
hashtable IS
cell I
ImageExport Info
AVL List
4 390
4 278
at ar
PR OT
tle e
lectr on
pv lv
64 74
msg PKciiS
less Ic
relev ancy
q c
A pvlv
pairIK ii
add Option
mb ed
IfEE Lj
Ac cept
ĠĠĠĠĠĠĠĠ ĠĠ
35 56
Ġvi olation
padd ing
35 23
key board
ĠS p
4 185
Log D
ZNK R
34 97
Ġre ply
Ġind ent
Arith metic
Ġstr cspn
Ext ent
348 2
Ġ1 90
Ġ1 92
time d
met ric
Ġi node
36 47
iterator IwSt
QLay outi
Ġind icator
358 6
symbol N
35 57
Ġdls ym
QSequentialIterable Impl
Multi p
Draw Sprite
35 95
hh jj
z stringC
eq ERK
39 98
Ġre source
Dcm Stack
Hashtable INSt
Se cond
EEEv iiii
DrawSprite ILb
EEEviiii hhjj
Ad just
47 20
head ERS
B last
35 51
Ġv olume
47 10
reset ER
Current Ev
38 82
IDi St
5 379
827 999
get Mat
Ġ resolve
37 46
Load ing
40 77
s vectorIS
35 22
get Float
66 17
Parse Stream
Par ms
Ġ 185
BoolePolyRing E
SM Task
35 61
d E
36 17
add LayoutEP
79 37
36 79
Epeck EE
36 53
Gran tlee
36 69
35 91
l and
u do
35 12
dist ri
Seq Of
inte raction
A TA
end or
Ġ"% %
ZStrs IcSt
DcmTag C
358 1
40 72
get String
35 41
Inc rement
Binding s
H AsciiString
358 9
Q Check
Ġs ol
A fter
36 24
DV PS
Al t
36 42
me an
TY P
35 25
Ġd one
add pd
Ind icator
ListIJ b
35 45
Ġmp w
kml base
360 3
f bc
solver IddE
350 5
378 5
358 4
35 77
get env
Reader Writer
PoolAllocator INS
S n
er c
ĠF alse
vector E
36 12
35 62
36 39
36 65
nist z
350 3
Fst Impl
35 73
exec ution
Ġf ast
83 48
35 79
chash table
35 13
ls ERKS
36 71
Ġn lo
omp are
36 55
Ġpro p
ustring ES
State i
e u
W arn
av x
Ġeng ine
Step AP
Ġb pc
EE ERNS
Flags INS
ĠGet Magick
5 130
Ġd d
P b
35 37
38 39
ĠC OM
Id Lin
Q Cursor
k v
36 31
Ġ loop
37 71
EEm NS
4 143
Al phabet
DcmTag D
## ##
p am
Entry E
Ġp voie
at trib
368 6
traitsIwESaIw EEEN
Ġg fs
35 92
G Error
GetRemaining Length
40 12
ZStne IcSt
in herit
matrix INS
Widget E
Ġde ja
Draw ing
h ard
element IXT
4 102
36 27
Ġv ga
More Ev
Context Menu
38 93
set IconERK
Re pr
Ġav rd
bo unded
car ve
Ġpix Destroy
Ġt urn
4 288
43 48
ization E
B F
Fv RK
d ictionary
Eval u
write Entry
lessIi ESa
36 52
Ġe nough
set sv
p atch
PKNS A
7 000
put c
Pv P
37 34
370 6
36 62
IN IT
__ "
Command C
35 39
G mpq
Ġc u
CUR LOPT
traits IDiESaIDi
IdEE Lj
rece ived
SimpleList C
owner Ev
op Idd
Ġ 189
37 47
400 5
36 46
toIntEP bi
35 32
358 5
In List
xffffffffffffff e
37 56
start sWith
368 4
Ġh c
Ġ 186
36 29
ct emplate
Unweighted Acceptor
di ag
un sat
38 86
box ed
44 15
45 00
36 49
Const BasicImageIteratorINS
set Property
Ġ1 91
58 58
copy IN
Set R
Ġs g
z ma
ĠGs App
Ġ rename
40 85
Basic Map
Result Set
VAL ID
Rect ERK
Func tors
Ġsignal s
36 99
ry ption
Evt Handler
5 380
39 11
find EPKcmm
38 92
ste ad
36 19
I face
Ġav a
Ġp ass
ca ve
Ġ sign
phy s
Can eda
Ġm ay
call INS
478 0
4330 000000000000
Ġavrd ude
QFont Metrics
x Ei
d art
CK M
40 73
4 189
ara ms
400 3
E cvPS
find ERKS
36 95
base IddE
ĠX S
it al
35 65
Request ed
ll l
Set Value
Ġm acro
string IDiSt
tv headend
pt s
ĠO CSP
Ġ1 93
et s
Ġb olt
39 26
ObjectES B
K MessageBox
a ILb
handle d
37 52
Ap pearance
ImGui TextEdit
Dd Node
Ġ pe
cl nt
parent Ev
ERN AL
g rind
35 76
xfff d
35 59
L D
40 56
43 60
en coder
alloc ISaINS
B Box
Ac cessible
ic ient
Ġw e
GL enum
per form
35 96
370 4
4 308
Node ESaIS
368 5
Ġsy m
gd PKdPdS
36 66
ĠS P
370 9
Chewing Key
555555555555 555
36 13
36 41
370 3
itera te
sEv ENKUlvE
F ragment
36 35
35 43
w ant
vma toa
delete IN
K P
i EE
370 7
n ative
QTypedArrayData IPN
B IO
U ps
p spec
as semb
ExternalRefCount DataE
Ġ loc
Ġ"---- --
allocator I
s In
36 74
Error EPKciS
Qu aternion
1010 1010
Ne ighbor
k df
Re peated
C ERT
e ec
If Sa
ats This
con trib
37 33
36 45
hash E
C pp
36 37
ter r
ZZ D
Function s
Exec ute
Rad io
41 12
H epMC
g cm
Vrml Data
4 134
Id NS
37 54
38 64
37 55
ENTR Y
IN ode
sr vr
39 21
d vb
Ġco re
visit ation
lo sing
Kernel Functors
37 63
ĠAln Mgr
Step Repr
HO CR
P ivot
4 125
MyMoney Security
Value Error
di vision
mp n
no tification
ĠFormatLocale String
clause ELb
fast q
Ġms IO
Ġ 201
vector IcLb
37 69
Inde xes
EEEb RKNS
QD lt
40 96
47 50
Key Map
id ent
ĠN ame
358 7
38 57
40 89
45 50
36 72
QPush ButtonC
38 21
37 31
N ONE
P a
36 11
37 57
ti d
37 35
us sian
str v
get B
Ġf ts
PFv v
top level
File Node
V EL
I y
CD M
b sp
QHash Ii
SP EC
Ġde s
EEEN T
Sur fac
ge topt
0 38
Gra vity
Ġs plit
iteratorIS A
44 40
Ġxml Free
77777777 77777777
Finger Match
str split
IG N
380 4
Dec Ev
39 75
Ch oose
37 32
PR EL
37 59
set Color
eff ect
lse t
PdfError C
ar ent
String NC
40 53
Il St
mm ap
bo ot
Sketcher Gui
lv m
Eb EOT
D H
atter y
8 0000000000000
Inter section
39 14
Block Game
Ġfffffffffffffff c
Ġen tries
37 64
wxFormat StringC
P ATH
dc w
QPointF E
45 20
val grind
cvt pd
Enabled EPNS
fl dcw
37 39
Ġdet ermine
Counter Ev
Ġl flags
R pc
39 56
35 75
44 68
] [%
Ġs pl
Ġ1 95
ĠValid Err
Av ailable
EPdf ErrorEPKciS
43 10
E qu
oi ces
entry ELb
Sock Addr
Ġarg s
EP b
Ġv a
pl EPKc
ref DecEv
QMetaTypeFunctionHelper I
pack s
RO CKET
S ESSION
anteced ents
4 114
Bu dget
ĠFL AC
37 44
40 76
lang info
T own
BasicImageIterator BaseINS
Level EPNS
44 18
Image Pool
37 24
4 204
Ġope rator
check LogLocation
LogLocation E
4 187
col lada
QString EC
38 83
37 67
4 164
37 14
n Net
checkLogLocation EnabledEPNS
40 71
Fl ush
E s
set LogLocation
setLogLocation LevelEPNS
LogLocation ENS
Allocator IS
ĠR EC
d ac
print EPNS
36 91
37 17
ĠC block
initialize LogLocation
LogLocation ERKNSt
initializeLogLocation EPNS
37 74
PKc j
Work sheet
ĠP age
36 67
mutate EmmPKcm
wx MB
State Table
wxMB Conv
Ġ reduce
Fc itx
PF St
ĠE X
Publisher Plugin
4 154
ĠC ol
4 142
re quire
entries Ev
Stream INS
40 26
ing leton
ĠB ad
Zero EvE
inter section
38 46
ESa INS
ĠC M
43 19
ig tl
ĠA s
4 206
M AN
se conds
U sing
37 22
O PT
f ct
49 58
Play list
38 89
40 93
Zpl I
Ġp w
36 75
prim itive
EP j
XnActual IntProperty
40 75
T M
pr ime
list IPN
mb H
ĠG mbH
4 144
hash ERKS
40 19
transi tivity
EES G
36 93
390 1
QH BoxLayoutC
a String
46 00
Color Ev
H OD
shif ter
380 1
Igno re
a z
tString cvPKcEv
Ġ1 94
Host ScanStats
QDBusAbstract Interface
pairI Kc
res ume
4 146
S lotObject
t sig
back up
Ġgl Enable
E generic
ĠE OF
37 94
SET TING
Filter Base
len gt
Tri mmed
B C
ch ip
Ġh x
36 43
Ġl round
Base Sequence
z illa
0 48
open ssl
378 7
set E
37 15
Ref CounterEv
38 25
37 43
Place holder
Ġdi sp
FilterBase EPvNS
0 68
: /
EE PNS
sen ce
QJson Value
le ast
l ctx
37 13
w all
36 73
378 4
36 25
list IS
37 65
EPKci NS
37 49
Transform er
37 77
IX adL
fixed name
x spi
ĠĠĠĠĠĠĠĠ ĠĠĠ
Get Integer
h ave
43 58
378 3
38 14
s tory
EP A
t List
39 31
Ġ1 99
S ig
NS E
edit able
sub sERK
39 93
u er
44 48
New Ev
36 63
Ġgene rate
P BRep
f req
4 124
ire ction
managerEE cvPS
Ġt e
Q Group
max smt
Disp atch
37 76
iterator cvPS
Reg ist
4 106
37 45
transitivity EP
Ġj dc
s asl
A pt
50 58
5 288
QObject C
QAction C
traitsIcESaIcEE pLERKS
EEt NS
dS ingleton
scal ed
Ġ1 98
40 79
wxString PKw
Ġg di
Ġgl Disable
Ei j
Ġl c
368 1
EEh NS
Ġ2 147
B E
370 2
h orizontal
Iw E
4 179
X Line
37 29
40 95
capacity Ev
s Eb
Par tial
4 117
node Ev
38 94
47 47
R ANAP
ign um
libmatroska L
var Ei
li ba
Bound ing
end ir
38 75
Ġ1 97
37 42
50 78
se udo
ST EP
String ES
LogWeightTplId EEEE
Ġf rag
tor SlotObject
unc torSlotObject
QF unctorSlotObject
Get Next
back Ec
errarg S
b ri
watched ELb
ContractViolationls IA
type EEE
ext ended
D rop
ZT T
36 61
by name
C y
cur ses
j T
EX PR
37 19
Field IN
0 28
37 16
36 77
EjPK NS
good Ev
10 00000000000
get ILm
ĠD H
Tutorial Application
M Direction
40 82
50 50
Ġo sip
37 91
ID s
P FS
Ġm utex
ĠajMem Calloc
48 55
app ro
" :
4 234
Q Quick
IS G
Acc um
Get Translated
Int Range
390 2
update EPKcj
37 96
39 49
40 45
Ġb son
390 5
38 61
Args Internal
Singleton I
DB G
encoding E
Ġsp f
, "
368 2
37 41
nump unct
Ġ1 96
Point RK
manager EEC
37 25
40 29
IiEE Lj
fd s
d ual
n mEv
si o
Ch at
U Memory
interval Eb
EEEEv RKT
Network Job
x r
4 115
constant s
38 51
end ian
40 91
Get Real
dp PKdPdS
37 72
Ġt ermin
43 78
37 21
368 9
38 13
50 30
39 27
Ġ 205
fd b
Ġ String
al ity
base RT
Analy sis
b read
D RT
Ġnlo pt
DefaultES M
37 66
4 139
Var ArgsInternal
ZGV ZNK
p ause
message s
4 244
Ġne ed
GetUn translated
GetTranslated StringERK
GetUntranslated StringERK
368 3
Ġt d
ba sk
multi ple
Do Internal
ro le
convert EiPv
37 62
In side
37 92
D EL
Register Option
p md
F DK
Q ItemSelection
new XS
Insp ector
(( (
c pe
N OD
ref ine
un ary
Uplink Socket
Ġ row
ec al
Private Key
l arge
ObjectPtr TINS
Ġs top
man ah
Q Time
438 8
43 34
ĠMdc P
NEW MAT
MyMoneyMoney D
RegisterOption Param
40 66
38 24
Ch ooser
h S
Ġm g
mm l
36 59
k th
dig its
baseIP P
Array Ev
370 1
newSV iv
Ġgf al
control ler
38 49
RT C
ul ong
CoinPacked Matrix
Cr itical
[ ]
ciph ers
38 31
w ire
380 5
Cur Pos
RegisterOptionParam ENSt
IvEEEE EENS
OBFormat EiNS
43 38
dead lock
book mark
5 278
38 87
i R
C Ex
trusive PtrINS
CEx trusivePtrINS
xffff d
nt Ev
setSize PolicyE
44 38
Ġd ay
Dup licate
5 128
ĠMdcP rnt
fo rall
5 248
Log ls
ĠFFAdd One
t urn
4 398
66 16
is associated
ĠT YPE
40 52
set Item
push string
ĠIn sert
Node let
4 105
Osi UnitTest
MyMoney Report
x win
M EN
r v
40 43
38 19
38 54
Iw S
Authentic Pixels
38 96
ĠN et
37 11
s ERKNS
37 95
Ġinter face
Dim Tol
44 90
List ERK
Ġ Field
T cl
f rag
Ġrequest ed
Ġ Inter
U INode
44 20
St b
38 95
37 99
On ce
hi ch
4 254
38 56
EEEE ONSt
390 4
STA RT
Template ArrayINS
or test
47 18
et her
et ic
T IFF
Conn ected
ch n
Coin Indexed
C andidate
EEb PT
Vector State
MET HOD
lib ebml
Ġp list
activate d
Ġxml Text
37 61
Ġmatch ing
t ay
Option ENS
Pre parator
Ġ" ----------------
U CT
38 99
Static Class
Ġp p
38 53
f scanf
t SettingItem
Ih EENS
or m
Dcm Element
39 25
KConfigSkeletonItem RK
Ġava hi
380 9
50 80
map Em
ori entation
RVNGPropertyList ixEPKc
43 68
Ġy our
39 13
380 6
interpret er
iv IteratorC
Ġ service
pair IT
co okie
378 6
Context C
5 160
4 174
Index INS
from region
QMap IPK
4 186
Ġs b
set Window
ER PKc
43 28
Ei S
378 9
B nd
kmp c
Nping Target
Base SrcPanoImage
4 157
R adi
40 13
39 67
current GroupEv
Ġ 203
4 153
390 9
N ORM
Ġi c
Error Ev
Ġ 202
44 70
0 18
38 91
Ġz val
ge os
38 44
38 76
ĠAsn Generic
hash I
sch eme
typeEOS A
Ġ 206
Ġb tree
ue ss
40 37
4 156
K mer
4 207
multi p
S uch
MyMoney Split
39 94
ĠajStrMatch C
39 85
ick er
38 55
Size ERKS
vectorI l
u dio
but e
Ġpas sed
IntegerFilterState Ia
39 29
Il Lj
Matcher INSt
40 87
40 23
40 16
Set Char
IS et
il li
Un signed
Ġdo uble
QMap IP
buffer IjLb
ton e
IM SE
ad ded
SetR Pv
44 44
38 12
ĠSeq Port
40 57
Get Boolean
Single Instance
46 97
39 44
4 267
li hood
66 11
4 127
In struction
4 159
S cal
39 74
Display Ev
serial ization
node INS
.. ..
38 27
4 195
ition al
38 11
37 97
SM ESH
it ute
38 35
P f
al ist
rep INS
State Ev
G Array
44 58
initial ised
4 123
ER j
space s
37 73
39 92
38 17
Pl us
37 51
W IND
40 67
n ss
Ġ Register
Matri xcl
Ġdi gest
Aips Error
orr up
Output ErrorMessage
K E
Url Formatting
39 66
Text EPKcz
47 58
de b
D uration
org an
37 93
M V
4 133
38 45
38 36
Wire Format
C I
e MyMoney
390 3
38 34
52 20
s up
49 48
max sd
Geom Adaptor
H AN
no tice
OutputErrorMessage VarArgsInternal
378 1
Ġstrl cpy
File Reader
DP X
Model Index
40 99
ERK d
cli de
39 17
string EPK
Iter IK
EEEE ESt
ad j
ĠX ML
39 99
Ġin formation
E range
EEEE PS
ĠEnter ing
copy SizeERKS
Ġc gi
dp oint
380 7
42 15
4 161
38 52
I ENT
trunc ate
al ert
zero ERK
e ae
38 43
ec a
iteratorIPK St
tool bar
38 81
44 50
att en
EEES E
39 16
378 2
o val
IC ON
open Ev
380 2
40 65
Ġ 209
40 61
38 26
Step Geom
pairIP S
Ġ 204
38 74
39 22
39 64
39 39
insert EO
4 337
ap er
Ġgf m
A re
33333333 3333
4 209
X C
an swer
QUrl Two
80 88
UrlFormatting OptionENS
4 184
38 33
bul let
38 16
37 75
QBrush C
object Pl
R IFF
Eii RK
D av
ad m
50 48
Ġbcom wt
ĠI MP
ATTR IBUT
K MyMoney
EEEE ED
Ups Driver
MT P
streambuf IcSt
4 147
ca mp
w ac
n ment
EE aSEPS
in ates
40 33
40 32
left mostEv
l as
ref Ej
4 274
over ride
KConfigGroup D
BasicImage IhSaIh
b mc
38 69
Node Body
Cdl NodeBody
DcmTagKey C
39 35
EL l
right ness
LO W
38 66
44 46
800 5
U X
QPainter Path
Ġ2147 4836
Ġ rule
Scroll Bar
ad ing
Of x
f ingerprint
Ġp s
ĠC ONS
QF rame
j ack
nam ics
40 22
38 67
DcmTagKey D
Ġ limit
40 63
38 22
modi fied
No Such
38 63
K DF
Scan Info
Prim ary
t S
Ġac cept
7 0000000
in verse
44 10
Ad vance
4 246
Zn g
38 37
44 98
% -
Ġsy nc
expr Lj
osg GA
ge m
4 132
Ġnorm al
Ġimp ort
UUID ENS
ver ser
38 47
40 17
r ng
GImAllocator UserData
Ġs uccess
Zne RK
u lse
43 40
Bug check
:% -
38 15
Null Pointer
Interactive Marker
ra ting
45 70
Pan el
Ġ del
QGraphics Scene
d fc
4 119
Handle IP
O CT
eg l
max ss
St rand
QDBus Message
45 90
i as
46 50
46 56
W alk
79 98
ĠS QL
h al
39 91
Ġconst ant
j PKS
Internal s
4 193
decl PS
Impl I
w orld
QFunctorSlotObject IZN
4 408
map h
9999 9
Ġ"" %
Release PK
checked ReleasePK
urr ence
ll x
OW S
Value Type
Ref ine
Ġbu pck
r sqrt
400 7
Com Value
4 137
ĠP Q
s upp
39 42
ope rand
Alloc Internal
byt ecode
4 135
C MP
AllocInternal mi
44 49
Ġ2 11
AR T
ĠP M
47 60
38 23
4 241
Spe ed
Equal s
Ġ rprintf
Ref er
smt coENS
38 32
Fiel dSet
expand er
Get Data
format IcSt
ĠS O
R v
Ġht s
Visi t
N A
ab ind
BoolePoly nomial
set INSt
Ġrt p
E aSEPS
t cf
Pro mote
pp D
Wh atsThis
Eii PKc
4 129
key map
tree s
M argins
39 32
to IjESt
46 10
47 40
Most Left
t cmalloc
4 192
Class Test
Step Element
40 35
qui et
999999 62
n z
C lock
so m
Key Event
40 81
B est
39 24
Ġ"** *
Con struction
43 18
om b
4 196
38 84
4 173
ong o
Ġ 257
ĠError Return
CbcOrClp Param
Elementary Command
c S
39 34
J NS
SA GE
set Contents
Circ ular
ĠW arning
48 60
39 19
39 79
sc a
cel ls
38 41
Path ERK
m utable
39 45
4 122
CON NECT
so ap
re ase
Aligned ObjectArray
38 77
EPKc R
tran sition
4 203
C Z
Ġ 208
K Rename
Ġf disk
38 72
Ġd own
QStringBuilder IS
38 42
able Body
4 103
4 175
ID ENT
38 62
42 14
38 85
Spin Box
Ġbo x
39 62
G ames
OpenMode FlagEE
og us
Ġm erge
bask et
maph ore
ne eded
390 6
39 46
50 20
K Color
category EvE
480 8
strto d
Sh eet
QMapNode IPK
Ġs mtp
f stream
nodeIS B
Ġlib matroska
46 40
iter IT
39 54
45 58
4 136
80 78
Spacing Ei
Char Type
Shape C
sn ap
38 59
39 23
error Ev
39 43
38 71
Mesh VS
Ġext ension
Read D
ĠTIFF SetField
v lan
Ġc ipher
Hash ILm
gstr tp
400 9
R EP
4 194
SListOfItemLocation D
42 24
39 57
40 15
39 41
38 73
recalc MostLeft
numeral EP
Ġle pt
Ġag mt
Location Range
recalcMostLeft NodeEv
4014 000000000000
EEEEEEEE St
RE QU
rove ment
eq s
ĠMagickStrl Cpy
n p
EE KNS
38 65
49 50
cep core
v ent
EE RNS
Ġdy io
ere o
38 29
FAIL URE
4 264
39 72
M aster
an sion
Flat ArrayINS
start Ev
Cartesian Id
H MM
get Num
U Mat
Ġm ac
irrAllocator IS
D a
44 28
Co urse
dcm data
wx Command
ĠPl ugin
GEN ERAL
Ġ Argument
Kinematics Scene
base IT
Pv E
39 51
BulkAllocator Impl
f ul
Ġff pmsg
Data EESt
4 155
px m
irrAllocator IcEE
cc w
AS Formatter
Ġ2 10
C j
Fst Class
43 16
s S
qual ity
40 42
od ing
U Vector
45 10
Ġm isc
cance ll
an a
node ELb
Te ch
j ava
but tons
N g
cell ELb
39 89
Co mb
comp ression
Ġdi ag
Ġt erm
xb it
Ġ 207
al phabet
R g
39 63
Z dv
f abs
re ci
CharType Buffer
39 33
pro mpt
47 90
H air
tree ImSt
39 15
AS H
Ġby t
Osi SolverInterface
un supported
Ġg rib
4 176
re moved
String CompactorIS
39 84
4 111
vector EllPNS
var sEv
u zz
000 4
4 152
44 78
b et
Set Item
Sync Engine
4 183
li bu
B ise
ho ur
Ser ies
View C
header C
name IcNS
Type Tag
448 0
QFileInfo D
col lapse
Inter sect
7 469
Ġ }
5 168
QMetaTypeId QObject
GT K
4 205
e rsistent
k de
lo aded
Re achable
Option sE
800 2
registerConverter Ei
Ġs up
memq q
Ġms SetError
con figuration
xff c
Ġt imer
Ġin clude
KXML GU
B reak
QStringBuilder I
ĠMenu ContentTransp
Ġg raph
Ġ =âĢ¦"
4 233
L eg
Ro und
Node EEESaIS
coped CharTypeBuffer
wxS copedCharTypeBuffer
42 17
set length
back ERKi
Inst all
Text Field
ZZ ES
Propagator Job
fp os
Value Ed
Ġex o
ĠValNode New
F LAG
FieldReaderIterator ixEi
5 298
KPlugin Factory
45 48
LEMENT ED
ad opt
Ġ2 15
re maining
Rak Net
Ġmul tip
4 145
Ġin xbit
sp awn
Di agnostic
H ave
wav ecal
Service s
vectorIl SaIl
448 8
one ERK
50 38
40 36
mb s
Zng RK
Pro blem
Data set
Get Instance
DOMElement ERKNS
m gc
Bu iltin
39 12
Ad Block
4 255
visi a
39 47
the SingleInstance
al num
Node ESt
Ġw add
4 116
Image FileWriter
Ġreg s
k g
L EN
38 79
T IM
Di com
44 30
Ver tices
Ġnet work
Z rs
IP j
Ġf lick
45 60
o ck
set Default
nl qsat
Unknown FieldSet
Find er
Entry EE
DataMapOfShape ListOfShape
4 101
K Standard
KinematicsScene Bindings
45 38
Det ermin
B A
478 8
Margins Eiiii
h it
E aSERKS
OCT ET
ber ta
40 27
Ġ2 13
42 11
St rdup
C ALL
var ILb
ListIJ RK
l w
name IcED
nt lm
Target SaIS
link ed
566 21
setContents MarginsEiiii
Ġcity gml
T EST
show Ev
50 88
t arge
visitor INS
C OD
tree IPK
osg Sim
Re quires
Nor m
con c
390 7
si lon
39 69
Int ensity
strb uf
set Pen
46 74
4 149
ĠN umber
39 76
45 18
39 73
c E
39 59
eb ics
4 172
edge s
45 78
427 56621
) ]
S EXPR
49 00
Ġ"%. *
4 126
4 121
Manage ment
88 89
y E
Pro t
39 95
iter IS
P CR
49 49
Ii ERKT
N D
4 171
ch ema
Li m
5 178
d add
48 50
full y
EEEE EPNS
Shape Enum
Trap v
dis associate
39 52
Ġ' _
fre er
lc Engine
iteratorIS B
data RKS
e at
re wind
39 77
ra ft
4 227
DSRBasicCodedEntry C
QP ersistent
CoinIndexed Vector
bu sy
Curve C
Dy n
4 109
main opt
39 53
46 30
QTextStreamls Ei
contains ERKS
Ġ2 20
4 232
ptr ISt
l P
4 373
Ġf etch
l ab
wx EvtHandler
40 47
Ġ OB
Ġch anged
ĠS HA
UG IN
39 96
VO ID
libu wac
Frontend Config
resize Ei
cXML Entry
In q
ff d
ad ro
og adro
Q Apt
ĠS M
Ġg td
4 169
hash ERK
Ref PK
53 70
IPKc NS
Ġbcm work
4 182
39 36
ESaIS F
vi Ev
ir culator
ca ffe
vectorI t
gr ity
Ġsock addr
checked RefPK
Like lihood
H ex
Abstract Type
n fs
Bug zilla
re curse
ri es
n chron
mov ing
dd nf
Module RKN
b IwSt
re quired
Map I
46 28
1000 3
gl ue
46 16
rest yled
c ls
5 100
Ġ2 17
428 6
s ref
ench mark
Char s
Helper I
CImg IO
Layout Tree
simplex INS
NORM AL
find EPS
ĠIMP LEMENTED
ic i
ad cli
Ex ii
Col lect
39 37
ch oice
Ġs aved
btAligned FreeInternalPv
fi o
H OME
ti ck
ĠY ET
traitsIwESaIw EEESt
RGBValue IhLj
Ei EixEi
44 36
InputArray C
Ġg g
SM ALL
? ?
47 57
4 344
str ncasecmp
ĠA D
Ġbo ol
Ġk ill
Value INS
mpq Ev
46 60
Input Image
vector s
vvvv vv
D ATE
458 0
4 247
IR E
He ur
QS sl
il legal
4 141
cXML Document
Ġaj Mess
ES F
ĠAsn Io
main stand
View Provider
46 79
49 28
ag ing
My SQL
If EEE
Get Debug
Loc ate
EE cvPS
Point Index
Ġ" '"
C IF
K ompare
460 8
Ġwx EVT
wxFormat StringD
Ġ Save
pub key
Vector clEi
Ġd omain
Ġn xt
48 58
Ġmm ap
Ġflick curl
i ed
Ġt errain
Set C
450 8
S uffix
ĠReadBlob LSB
5 268
Ġ" =
46 20
Cap acity
KA Event
43 27
o fs
EPFv S
5 108
R atio
55 99
Policy Ev
P iS
5 158
4 236
gl VertexAttrib
4 297
j ected
49 98
b m
L AS
4 151
vpshu fb
5 250
4 355
re peat
Ġch ild
283 185
move ELb
45 40
4 165
Wr iting
lessIm ESaIS
ĠN EW
wxEvent TypeTag
File ERK
Ġgd Image
Ġ2 14
Status Bar
mask s
4 131
Dy namics
HE AD
gf md
th ia
iteratorIP cNSt
4 345
vectorIt SaIt
z ed
39 97
le c
46 78
IPv Ls
ee f
Ġst rip
4 259
p A
lic ense
Ġf ew
66 18
Ġ2 12
48 48
39 55
Ġde scriptor
ba b
ba ge
C leanup
Number Of
baseIP PN
insert Il
46 37
4 257
440 4
pairIj N
LeafNode IfLj
max ImERKT
pl ane
42 13
39 86
Ġat tempt
Ġu type
c ycle
448 4
wxEventTypeTag I
expr RS
bool EPKcRKS
Handle Exception
Xml Rpc
child Ej
String INS
Ġco mple
46 68
AL SE
impl C
PdfError D
39 83
pop ulate
EP t
Ġm lx
g reg
Ġ2 18
mm m
insertIl EERSoT
4 177
EPKc PK
BRep Lib
43 14
Inter sector
sl ate
led ger
4 167
Layout Item
O UNT
n xt
sy ms
Ġ2 16
Coin Model
per iod
Ġstr ncat
bv ec
dependency ES
48 28
Log Type
traitsIwESaIw EED
Proj ection
4 275
vtkSmartPointer BaseC
g ray
ec tivity
Config E
ali PKcz
fat aliPKcz
std out
Register Class
45 30
Ġ 240
K T
46 96
Ġh ns
d RK
read U
490 8
Sh ift
Py thia
430 4
b varray
Ġ Display
libf value
type ERKNSt
Cap ture
ĠFFAddOne String
pixel s
publish IN
Gen ome
~ ~
arg Exii
48 68
50 40
ce real
4 243
flags EPNS
46 58
fe e
sEv ENK
P G
l ut
R x
Ej Pv
Soft Body
47 38
4 222
50 18
49 20
H R
Ġspec ify
39 61
80 58
44 34
am ent
4 191
M sf
52 30
Ġpro c
o memo
Ġ2 24
Matrix IdLin
4 354
dataIj PN
1000 20
d ing
String vE
implement ation
Ġ Line
Ġl u
raw INS
5 198
cell INS
to region
IR PSt
Ġ2 23
Ġ ET
dis co
Node Ei
ev t
49 40
ee e
Ġb urn
open EPKcSt
4 265
Val u
48 88
BulkAllocatorImpl IT
Im E
6 000000
b tree
39 87
42 12
Ġcomp ute
Ġfe at
Log in
Ġsc anner
The re
EE EPNS
4 273
48 90
42 26
50 98
Com Func
Implement ed
4 162
get StaticClass
dom Node
Ġat t
EEE m
ue l
ĠPR O
rb is
ĠajStrAssign C
48 78
Map OfShape
trig ger
Ġb egin
Ġxml Str
Ġfin ish
46 38
bc d
AM D
39 71
c strdup
56 50
49 68
Ġex port
append Ec
EP dl
4 166
j ingle
4020 000000000000
x E
4 396
N ODE
r ch
IS P
iv Iterator
39 65
Ġe vp
data EOS
Ġen v
decl N
Split ter
Ġpi xa
u ous
4 256
ĠLimit ed
sort ed
ABCDEFGHIJKLMNOPQRSTUVWXYZ abcdef
4 294
Info ESaIS
Ġsize of
63 70
mp s
IK iS
at etime
exception EPKc
B uff
ĠAc cess
g subr
Ġar io
Eb EDpOT
tConfItem BaseC
new line
.. .\
Open GL
lu x
DA V
Ġ left
Ġ2 19
Sc rn
U BLE
g object
iteratorIPK NSt
Ġp c
4 242
IO NS
4 279
4 229
43 26
V o
Create Reg
4 239
Rec order
H ull
Ch r
440 2
4 366
4 343
Ui EP
PreconditionViolation E
jj jj
Ġ 221
Ġi conv
39 82
Ġp ending
Ġid x
Nick Core
33333333 33333
Ġsys log
42 23
430 9
B undle
b ridge
IvEEEEEEEE E
O ther
IR A
j RK
N od
Ġ2 25
feasi ble
Zdv RK
4 391
PKci N
QChari PKciN
48 80
MEN U
4 249
KL DAP
ACK ING
ALG OR
re z
10101010 1010101
4 235
Ġsaf emalloc
ĠWriteBlob Byte
44 16
47 56
4 276
Ġre q
limit Ev
um stick
LE VEL
49 80
Determin ize
Get Value
Ġgl TexCoord
4 295
Type ERS
Ġd apl
get Class
Ġ3 2767
Parse Location
concat EP
en tify
470 8
ĠSeq Align
find EP
200 400
5 300
Placeholder ILi
Ġ2 26
48 85
Data Object
IPKw S
te am
H EL
O VAL
c rt
ĠS TA
th y
c fa
DO UBLE
ec ount
false Ev
ser ies
real s
pro cessing
Handle D
unlock Ev
rational pLERKS
AD D
inc Ev
a mple
4 339
Cre ator
Over lap
Ġframe s
eb ner
Number Ev
4 346
4 237
n PKcS
42 16
438 2
Ġgl Color
45 98
bt Collision
code s
no const
decl jE
nNet Object
lim f
User Mode
traits IdE
Ġor ig
get Next
mul u
Ġmai limf
45 28
4 269
traitsIcEE EEE
QString PK
430 2
ol l
En emy
78 78
justification C
hed ron
c rl
g di
un wind
j Ev
Ġ 222
49 90
EES J
VERS ION
X Path
Ġm nt
Test er
Ġp in
PFv RN
Inte gral
Label Reachable
Det ector
Ġex ce
42 25
QList Widget
ĠX Get
458 8
6 0000
Dec rement
A apt
ColorRole E
Is EmptyEv
Ġwith out
Illegal Call
B AM
Ġ2 30
Av ogadro
4 263
5 180
sk y
Annot ation
4 349
Ġ rsa
IF Y
setTab Order
5 150
io ctl
Ġdi e
8080 80
erase Emm
F I
Ġwx The
Compressor INS
COL OR
Ġi l
ĠPy Int
t ty
Unicode StringC
50 28
ipt ux
4 199
Ġ height
Ġstr ftime
4 181
BV H
Shape Fix
traitsIcESaIcEE ELb
traitsIcESaIcEEEE ESaINS
4 221
cxxne IPK
44 54
70 70
Helper s
traitsIwESaIw EEES
ag er
Ġ 227
Ġli busb
rot li
tr ust
49 30
setTabOrder EPS
se pol
Mon th
Ġ"%- *
membuf ISt
Ġblk id
Ġal m
Ġm ur
Rec ursion
of b
5 120
Ġaj File
44 41
i NS
be st
458 7
At Ei
CommandLineOption EEESaIS
bit set
im lib
4 201
438 4
48 20
4 296
typeEi RS
fd atetime
st a
phys mod
454 9
48 70
W W
S uper
QF uture
Int Value
39 81
Ġspec ifier
PR IV
cc m
Text Ev
i ces
IiSa IiEE
Ġst yle
500 6
Tool Button
ST EM
48 10
(( &
QList IS
4 231
ustring ESt
i us
Model C
mem cmp
run ning
50 70
) )
4 292
val array
pairIK PN
ATTRIBUT E
Ġs cale
42 19
Len Ev
LogWeightTplIf EE
izedType EPKc
normal izedTypeEPKc
gp arams
Log ENS
47 67
RegisterValue PKcb
ĠGEN OS
4 261
ag ed
4 356
4460 49
45 67
eq l
moo th
Image FilterINS
0 98
ĠM ax
220 446049
220446049 2503
Ġal berta
2204460492503 131
Dec rypt
ASTRef D
50 90
4 253
45 54
Ġnto hs
U DS
Ġlist en
of stream
Pv ES
100 10
T D
ca ught
Call Back
99999999999999 98
" ,
comp ose
ĠBU F
Assert Handler
r L
Rec o
ĠwxThe AssertHandler
p ton
mark er
p n
Ġapp lied
43 21
clide an
Ġb dd
Fre quency
cap ture
T odo
un defined
Ġcpl us
Ġmp ool
aq ebics
C v
mo sca
4 245
428 4
100 20
GBase String
end ENS
per cent
in to
4 379
468 0
46 48
Ġexist s
Ro om
4 362
Ġ 254
ret ry
PKc RKT
Lim its
Ġs leep
SETTING S
Widget State
Multi ple
Ġ Unicode
mulu dq
G UID
rule ENS
50 68
b name
insert Item
Sh ip
adopt ed
Edge RK
Pdf Variant
error state
Normal izer
4 266
Ġsw ap
Ġ2 28
ri fy
Ver tical
rm rd
trail EP
Initial izationE
is Debug
G AL
Ġ keep
smt p
4 341
i ver
4 251
IN VALID
Ġs f
mode E
Parse Tree
Brush StyleE
Ġ 229
Ġg aucheModule
Id S
Bu cket
QForm Layout
wxString aSERKS
Private C
depend ent
48 53
Ġsc ript
bl d
PL UGIN
m ca
Ġmp wl
ol ution
44 56
Expression Result
43 24
CL IENT
mm c
EEEv PNS
45 74
get Vec
Lex er
G u
Token izer
Command D
SER T
s Ej
Window Display
impEE Lj
insert EPS
XX XX
GetDebug Ev
c ff
sp ac
IL l
u cd
4 277
ĠMdcPrnt Scrn
ENS ION
eu clidean
4 252
status Ev
z f
4 299
47 48
mem block
Ġs uch
tConsole ls
4 357
999999999999 999
to Ii
Cartesian KernelFunctors
sist ant
EP NSt
Construction Error
Per form
4 293
44 72
ĠCOM MON
Ġs core
ENS A
ch i
Tri e
Ġcur ve
size PolicyEv
DI AL
44 66
51 10
47 98
n ic
mat erial
get And
Check Ev
attribute ERK
EEEE ptEv
sh op
set AttributeERK
Slave Base
User Feedback
QPixmap C
pl ank
43 11
P reset
W O
mark ers
MyMoney Db
ag ent
KAbout Data
45 64
Concat enate
met is
Re moved
Ġn am
ml ink
Ġnxt wrd
49 60
Function Builder
backEO j
cmdl ang
M a
I ex
48 38
Warning DisplayEv
GetGlobal WarningDisplayEv
Output WindowDisplay
Ġap ply
4 347
b RK
h f
54 00
4 262
fd PKdPdS
QString iE
Type ERK
5 390
53 78
Ext rema
46 98
t w
ĠA pp
z stringD
in consistent
ec ti
Ġd eck
4 372
z end
Array ixEi
50 430
49 75
ĠMagick Malloc
428 2
Calamares Utils
s li
rsp ace
Ġn c
49 70
O g
Object BaseC
QFileInfo C
q p
Ġp oly
Part s
isDebug EnabledEv
8 00000000
lessIj ESaISt
xfffffe ff
Ġ" --------
d apl
os cap
mp ler
i stringstreamIcSt
s lide
70 80
S um
pairIK jj
44 27
RN A
94 35
Mo tion
Ġbn xt
KG r
on al
nt fs
ist able
Ġc lean
43 12
bc a
4 336
Size ERK
m uc
assi st
unit flag
im ated
model E
hi E
E LEMENT
Gdk Event
S em
Q Colo
acti v
Image Pixels
dd y
30 10102464
4 367
get time
g sl
Re ason
Calendar Support
Ġsc r
48 44
QForeachContainer I
host s
toIj ESaISt
4 291
Exec utor
ĠS E
4 365
44 67
tupleIJ PN
distri bute
var EjP
Inter f
43 13
appEii jPK
4 397
And Keywords
QPoint FS
Ġs pe
44 69
B atch
CLE AN
5 308
Vga Buf
R ET
Q Basic
cl ER
lessIc ESaIS
Ġm unmap
ase s
Ġ 231
mp d
Ġ"% %%
Mix in
4 375
Ii EESt
DIAL OG
warn msg
wx PointRK
Cdl Simple
ParseTuple AndKeywords
Id St
EEES C
Not Implemented
to buffer
M gt
type ERKSt
ES E
EP P
428 3
OF Filename
ED pRKT
Ġp bori
tra l
in ite
Get Count
Ii EENS
SaIS C
44 61
ZNS bIwSt
Ġs mart
45 13
type EEEOS
cl INS
allocator IP
Ad ded
Ej NS
Child ren
48 18
43 17
value EbE
468 8
phy sicalModel
ic ate
FS Iter
QStringList E
move ILb
le arn
Ġsh ared
lu abind
bb d
Ġstrn len
Ġstat s
Access Level
Block INS
Debug Text
OutputWindowDisplay DebugText
ra ctor
ur pose
Dec imal
vectorIbSaIb EE
Ġ 235
Ġ 245
L h
wxString RK
Ġre lease
Ġ 232
Form Builder
xffffffffffffff c
4 271
li min
4 369
iz a
460 3
q polynomial
54 40
Mid dle
Ġq b
Ġ2 38
U ri
Ġad vance
V I
Sol ution
44 45
stead y
IC lient
traitsIcESaIcEE ERS
each INS
cl Em
Ell l
Gravity b
800000 3
44 43
tific ations
430 1
QDir D
48 74
constructIP wEEvT
43 15
top ic
mb state
i li
s vectorISt
assertion EPKcS
Factor ization
T EX
47 28
sw eep
a IPN
in ic
ĠAS SA
ĠSeqMgrGet Next
428 1
4 376
view er
jj E
Ġ 234
A CT
m fi
44 59
Ġ" )\
int EPK
u to
Global s
EEEE l
visual ization
Ġ 233
Id ent
j vu
Y Y
Ej i
cccc cd
Ġlibf data
reg ist
Di co
458 5
Coordin ates
4 272
bl as
4059 000000000000
Curve ptEv
ECT ION
SO CK
4 364
Ġ 241
47 30
46 52
RGBValue ItLj
pLE c
Ent rez
45 44
Prep are
at least
ab out
4 399
PK i
Ġ Info
Ġj dn
20 0000000
set Minimum
draw ing
iterator ptEv
ĠNsock LogLevel
430 3
M ult
Base ImplINS
pattern EPK
P cm
normal izer
WIND OW
hash ELb
sec ret
Ġt wo
Ġg ree
Assign ment
und ament
Associ ation
f dd
Dialog D
vectorIdSaId EEixEm
4 377
440 5
4 342
f E
manager R
node EPS
Ġk ernel
out fmt
Static Vector
MyMoney Transaction
Ġg lo
sd ump
El lipse
Ġlib metis
Var Length
Ġp erm
Data INS
ra d
A RS
Ġf ollow
b S
o use
sh ould
ul ation
ĠS Stream
P PS
H I
Ġe nt
Ġc log
Dat um
Comp ressed
44 64
S q
siz ed
Fcitx Qt
bo u
T i
N FS
S UB
Asn Load
PKc E
Id EELb
455 6
in assert
EEv S
48 98
Ġ Update
En tries
Ġ 236
Ġdeck pool
Step Shape
at er
Ġgen eric
Ġlc maps
0 630
Ar r
4 353
Ġclock s
EE ER
L CP
Half Edge
rin e
al arm
66 15
On Assert
wx OnAssert
wxOnAssert PKciS
printer r
g ar
DU Context
44 31
44 94
W ID
Value TypeE
gm cast
Compose FilterINS
set SpacingEi
46 17
Raw Read
47 36
al ready
Ġtd sdump
uint EPKcj
invoke INS
EV ENT
E FvvENS
45 34
Ġb c
438 7
g ain
44 65
QAbstract FormBuilder
48 40
end EPS
er os
5 188
c dd
Ġ 250
b box
map server
47 26
path name
Ġ Debug
Seq Loc
PointerHolder IN
te ch
fw evt
SaIS B
di an
Type ES
430 5
Update Ev
Ġdp aa
4 335
Tag Open
se ti
sl apd
428 7
Inter pol
bu m
4 359
45 31
instance EvE
4 331
type EEb
QCP Axis
RGB A
44 55
toIntEP b
46 36
Qu anti
En dpoint
pk g
QCheck BoxC
Ġg a
Name dShape
Pix buf
4 333
Str StreamWrapper
vtkO StrStreamWrapper
children Ev
LogWeightTplId EEEEE
connection D
Ġ 270
Ġw hich
53 50
lib minc
430 6
440 9
Dec l
Table Entry
ĠN ot
Cal Core
Functor I
44 57
arg c
Get Name
ation al
Get Field
str case
Ba sis
nameIcEE PFvRN
State Offset
addr Ev
prob es
438 6
info RKNS
Modi fied
e fffe
Ġ UN
43 22
view port
Ġv ia
Inverse Dynamics
quot a
44 33
h ol
ref count
460 4
Ġclose d
ac ce
QPersistent ModelIndex
ĠwxDefault Position
AUT H
F amily
in de
H EP
44 14
^ ^
QM utex
stIS E
wx Trapv
Eix Em
49 10
ImGuiTextEdit State
Stack ed
Num s
f ollow
Bra cket
function s
pro ced
OP Y
46 34
58 00
pairIKi PN
49 18
455 2
bt InverseDynamics
btInverseDynamics Bullet
46 19
eq IiEE
428 9
uff man
4 393
46 62
AST ER
in j
andid ates
btAlignedObjectArray I
Ġmodi fier
Ġsend to
add ing
Gallic Weight
se para
Height Ev
Intern Atom
f ELNS
Ġda emon
node I
BRep Mesh
44 63
&) ::
44 77
w cs
B Z
C rash
47 49
B ut
In ner
ut er
Ġ 237
Pri ority
if ld
mon ger
nc PKcS
ĠajMemCalloc Zero
48 54
Ġjdn ifld
D Z
Math Function
AS SERT
Ġ 246
rational m
Ġimp lement
44 75
ind ices
49 64
C ached
Color ERK
438 3
Eiiii PKc
X adL
no r
QFont D
PR OC
428 5
yy text
exp lo
ĠDi MonoOutputPixelTemplate
v snprintf
f q
allocator INS
430 7
row ELb
Ii EET
fe ed
sing leton
Destroy IPN
ChangedLine s
b atch
44 51
44 79
spec ified
D ual
448 5
4 394
c df
St ereo
xe cho
gt xecho
CommandLineOption EEESt
440 3
5 138
Lo w
for mul
osg Text
rb uffer
Ġmet adata
> </
Backend s
info eqERKS
ffffffff ffff
IS N
4 352
IP vE
setPen ERK
A A
I RKS
to po
Iterator BaseIKNS
to Local
66 20
reci pe
DataMap I
B i
45 94
Change ValueEi
object Pi
MyMoney Storage
46 55
re x
F alse
4 332
u Menu
538 4
44 47
SHADOW B
Object Wrapper
Get User
10000 4
53 10
anon ym
44 17
out e
Ii Lb
Color C
450 7
ĠM AX
Ġp id
46 18
Find Option
wrapper INSt
bt SoftBody
43 23
Draw er
Stock ID
5 190
EP h
Ġ" ):
5 170
cmp istri
f bb
50 10
Array I
ERKS A
Import s
47 54
Ret rieve
I ERKS
mpz C
Ġ 242
Disco very
Free List
St ri
44 21
Init ERK
Ġpart ition
Ġd t
is a
n at
47 79
Trace Node
Ġ Visit
G PT
cl Eii
J B
46 44
49 78
libp ff
v l
T ILE
5 280
64 00
44 99
43 25
cance ledEv
dr umstick
i PS
45 92
! =
46 14
Alloc IvEEEE
token IcNS
OF Console
cred entials
ff mpeg
A ARCH
Ġop endir
end p
rsi st
ZN O
ref lex
Ġdi ffer
Ġ 244
Image To
b re
Ii EEv
ĠP ack
neg oti
String S
44 74
bound ELb
Do ck
6 168
osg Volume
Device s
438 1
480 4
G D
46 90
ĠX InternAtom
ret e
T y
un get
49 55
Di rective
99999999 99
ori an
200 28
Ġ"* "
Ġt ab
Be fore
Ġf inal
Ġ QObject
ĠB u
45 79
s Proxy
vi le
47 32
x attr
comb ine
cepcore schema
44 53
44 76
Rec v
Dev il
Unit C
neg o
prop list
Ġ rate
ĠS TR
4 363
deref EPN
Termin al
add EPKci
state EPNS
X Windows
to s
53 28
Bind er
Rende red
ix ERKNSt
xml pp
reg istered
fn C
Get Net
Fst Header
info E
set Brush
Float Eb
ĠwxConv LibcPtr
Ret ri
List View
g variant
Find ERKN
DP Matrix
47 74
aff ine
M er
M ac
insertItem EiRK
Ġn jb
Ġn se
44 62
65 70
core D
5 240
45 33
Vector D
480 1
Exc lu
stack ed
P OL
44 91
53 58
Dyn Array
438 5
4 361
ot Keys
440 1
$ "
P aint
D iv
45 24
L Y
WhatsThis ERK
-> âĢ¦"
Ġ"# =
u led
ORD ER
Struct ural
EEEEE KNS
QMapNode IS
Ġd ig
Ij jSt
Identity IjESt
tree IjjSt
As sistant
44 22
ĠD ialog
dec o
SQL String
G List
Run ner
Ġqu ot
set WhatsThisERK
Ref resh
VectorState IS
M IPS
ap s
c reat
un ce
ĠG OMP
4 371
46 65
wh ile
q Make
Em ail
de structor
Ġ 239
al m
string P
SN ACC
45 14
To uch
30 00000
Header View
44 93
ĠDi e
E View
destroy er
Ġ Color
4 351
Base ExtensibleItem
stream s
448 2
Resource InfoCommon
CH AR
ud oc
44 12
Z oom
enc il
ES SAGE
Ġt ex
gro ebner
page s
hw d
EEEE EEC
A RK
500 8
Ġ Entry
5 140
user s
44 324
EN CE
ct f
44 24
46 63
44 19
45 71
46 22
mul EP
lsERSo NS
Ġyy in
NS C
bind ings
ĠGet Next
49 74
44 26
ĠNsock Logger
w arp
Ġjo urnal
Ġdup licate
4 395
IN F
std in
44 95
Ġ[ -
Get N
O I
ĠInsert TraceNode
54 48
wx Bitmap
45 96
tra verser
Torrent Interface
Read Word
BasicImage IT
Ġ 253
mpl ing
internalize EP
An chor
hi deEv
punpck hwd
Ġ 243
log chn
non linear
ĠS cale
438 9
ExternalRefCount Data
Mat x
B AT
ĠC L
Child ERKS
insert Ib
46 32
lib ewf
FR AME
IJ NS
Curve D
Data ESaIS
Web Engine
ex us
44 11
f raction
44 42
Rg ba
QStringList RK
440 7
insertIb EERSoT
s si
Icon s
stIS F
Tile Set
IP T
44 52
RVNGInputStream Eb
Server Info
Ġ 300
All Ev
Ġtrans fer
convert To
6 0000000
10 888
ĠPy Dict
and EP
fs ntfs
nt INS
44 13
Time Ev
Ġ Key
45 17
54 20
43 29
Ġline s
in cl
Pointer Ev
pl atform
Memory Arena
decl EP
ĠAD DR
wxWindow iRK
set field
E q
5 118
N EP
W ave
g fm
D IMSE
Find Data
ann ing
De scr
Config File
Ġbcom work
Ġ 247
44 23
Ġneg o
450 6
TropicalWeightTplIfEEEE EEE
rb g
44 25
53 68
Message C
velo pe
Ġpol l
H i
L DAP
45 32
100 38
AR R
ret rieve
Curve On
T CH
f be
44 73
00 2
H Surface
dir ty
base line
oc an
Ġfe ature
Par setree
pt l
458 6
Ġ basic
Std L
Node s
wrap EP
Ġfunc Name
454 7
fre edi
object EPNS
53 20
Ġ 251
di a
ĠPy Object
n nf
Sh ortest
ok en
Ġrep lica
45 63
strcase compare
Class Infos
ZNSaIw EC
0630 86
ĠX Create
Ġ Transform
Ġm b
InputArray ES
Place ment
entryIj PN
ĠM od
bt Matrix
458 4
450 9
St udy
45 76
ip c
s uper
Base Eiib
Resize BaseEiib
C Str
Ġse cond
470 7
tArray IcLb
46 57
Ġ 252
li ve
ĠcupsFile Printf
i q
Ġp lot
Write B
Base LUT
aux ILb
QString eqEPKc
result EPv
cert monger
Ġun caught
Ġ' âĢ¦"
Ġint f
QSharedData PointerIN
assert ed
p it
le EP
L aunch
lo s
fl atten
back ERK
ls El
ED IT
48 64
D G
440 6
c ing
Token EE
comp leted
ĠM DC
ISaIvEEEEEv RKN
448 6
Ġ serial
sock s
44 96
front Ev
lim iter
manager IZN
data ISt
ab ber
freedi am
ii St
map ped
Unit E
Ġ User
46 24
ro me
P H
g me
46 64
56 25
Ġw ant
454 6
sibl ing
45 95
57 22
45 62
55 36
ac d
Ġd uring
Ġaj Sql
Eb i
padd usb
y mo
44 35
ifIX ntsr
46 15
Ch em
NoSuch Object
Echo Header
ground PK
ES D
Level EPKciS
Ġd isc
Sec ure
Fvb EM
t alloc
Array ERKNS
ep och
Ġen able
rule EE
SW TCH
fa a
n row
ĠC SWTCH
Weight INS
G js
Id ESaIS
Man ip
53 18
JSContext N
Jo ystick
Ġl ayer
proccl EP
ĠĠĠĠĠĠĠĠ ĠĠĠĠ
guard E
sy nth
450 4
char IT
Ġ* )"
SIG N
46 21
49 44
EPdl PK
T Nums
u ed
K nown
ar i
44 37
Ġ 261
specific ation
U ES
46 76
propagator Ev
454 1
Classi fier
Record ing
aux IJ
Ġg ftp
Dest ination
QString ENK
53 30
LogWeightTplIfEE LNS
In tr
St ride
QWidget E
wxFormatString T
ĠDestroy String
AT OR
ValueType Is
54 98
nex th
cat alog
v ps
EE Ej
ReadWord EPt
Cur ved
PCR EL
move lib
Ġu tf
ĠA d
og rify
Abstract NetworkJob
Ġv ext
Band width
obj ective
c it
Ġs ame
ĠL OG
Type ESt
Ġl d
Register j
axiom EP
46 67
black list
id d
U SB
verti ces
Ġcal c
Hashtable IjSt
n se
s mi
Ġ DSA
448 7
458 9
5 0000000
Ġ 249
Ġ OF
o es
g cc
create DataEv
448 1
sys fs
Ġpri vate
el ls
ĠC al
Ġato l
k lf
ne ERKNS
Ġmax imum
qualifier E
rehash Ei
K DAV
Di Mono
44 39
Root ed
to str
wrapper INS
ic ense
b ba
46 23
ĠI Logsum
Int PointESaIS
Dimension s
Ġ Out
Ġe info
zdialog PKc
50 54
as pell
QPa int
48 15
Ġ"' %
44 29
ĠC I
dec imal
decl EE
45 99
Unicode Set
4 392
mo ur
t lv
pr t
KH otKeys
48 26
FunctionPointer IM
Di fference
era rch
44 71
addressof IN
INS A
Surfac eptEv
45 12
File C
expr Ev
traitsISa I
Ġt c
ate Time
fa E
45 75
45 69
ub lic
47 43
Likelihood Function
C urr
var i
60 48
QWidget D
P XM
ĠClone String
re sp
level Ev
re achable
45 73
e fd
Ġ MP
Ġvext q
454 2
47 25
K Mime
assi stance
fin i
Ġ Eval
5 290
Result s
OutputArray C
Cat alog
Pdf Object
54 78
ShapeEnum S
44 32
xaaaaaaaaaaaaa aa
ST D
Ġf tp
B GR
Set Template
SetTemplate Parameter
be a
expr s
r ss
50430 005
P list
gene ration
OB Bond
455 3
Propagate Upload
Re alloc
HEP EVT
o urce
osg Terrain
deque INSt
li fe
type EEEE
KXMLGU IClient
open gl
O LE
as ure
Ġcal culator
5 270
ĠC ode
play list
c art
Alignment E
pairIKi P
460 1
hash IiESt
Ġ 248
QWidget ii
Read ing
Ġ depth
ro ss
pro ofs
Re q
cho ose
setlength atleast
setlengthatleast EPNS
48 62
47 97
mysql pp
C lean
cm l
+ +
67 69
47 64
alib ration
iteratorIS C
literal C
View E
Ecl ERK
ZSt lt
for ms
Ei EE
Disp layer
xc lu
bool EPK
4 00000000000
iteratorIPK P
m aybe
AR M
TropicalWeightTplIfEEEE SaIS
48 92
Window Ev
450 2
I ZE
rel INS
cl r
Up grade
IsEqual ERKS
Decrement RefCounterEv
vectorIiSaIi EEC
QM eta
base EED
56 00
ĠG ame
48 49
Ġ 258
458 2
os top
Ġrtc Set
Traits INS
s leep
Ġm is
mode s
evaluator INS
ĠT S
COM MON
ĠP lease
498 8
srmGet Space
use c
Step Reader
info Ev
Ġ arch
ĠObj Mgr
reserve Ei
constraint ELb
R en
ra ster
ĠREC O
for mula
match ISB
C vs
rd b
Ġ lex
ph p
Al k
In s
Ġ 259
Ġcon stra
:: âĢ¦"
monomial ELb
a ba
Ġ qtdemux
Ġstr vec
Ġ antlr
Valid ate
P List
Item EN
e realloc
QString ES
ocan vas
Ġsin cos
be f
Step DimTol
CharPtr AndSize
45 65
Ġc b
b df
Re served
500 1
49 54
Ġms String
Code s
Ġfai le
message iPKcz
47 61
Fo reground
ĠN OT
P ress
QUrlTwo FlagsINS
greg orian
45 77
690 5
fore ign
dcmnet Logger
c irc
canon ical
46 72
of t
ĠH MAC
ls E
q d
check pointEv
MyMoney File
EXT ENSION
ĠRECO IL
traits I
Ġacd Reply
Logger D
open ERKNS
lessIjESa Ij
Ġst ab
44 97
Map Node
5 148
7 00000000
47 72
QWidget ENKUlvE
mm er
478 6
IjSa Ij
ĠR ANAP
al tern
Edd PdS
padd w
48 56
Ġs prite
K uit
setProperty EPKcRK
ĠD W
454 3
450 3
Standard LocationE
ImGui Stb
WireFormat Lite
ImGuiStb L
impl D
47 14
Ġcurr layer
Ic EN
angul ar
Ġms OWS
m u
As CharPtrAndSize
Mode Manager
EJ St
Ġd river
n itude
45 35
45 21
ssh are
En ume
sy mm
Pc S
co ff
next NodeEv
Property E
Hand lers
196 60
pix s
ISaIvEEEEEv RKT
47 46
S ector
Ġp df
Ġ 260
shif ted
ios IwSt
od d
Instr ument
IjSa IjEE
46 75
464 5
mut ator
Ġd v
scope ELb
In di
Write ERK
interpret ed
s To
fl ux
TagOpen Element
ĠReadBlob MSB
e proto
5 174
44 92
Ġf use
80 28
add Property
Th unk
450 1
tx n
EEcl INS
R ECT
Ġ FS
i or
Di BaseLUT
string Ec
less IN
Lo aded
n toa
op le
Ġk r
Ġpl P
SimpleList lsEl
h ot
Ic e
ĠSystem s
54 58
R OM
Ġtype info
Pc Ev
N am
46 69
45 72
data sets
are st
min ImERKT
80 18
C FA
Ġd id
454 5
Ġ location
i ki
45 39
comp arator
Ġf mod
H ide
Ġh tons
45 26
OB Base
53 60
Exp ect
update Ev
Is NSB
GET LIST
max Ev
LE FT
r u
46 94
e lse
pf its
455 1
46 13
round ing
Node EPN
quan ti
48 14
cv PcEv
Identity ESt
Ġs re
Ġst rbuf
svectorIi j
Ġ Message
aS ERS
xffffff b
46 66
Ġai m
depend encies
47 44
Ġb reak
d ESaIS
46 99
ec p
Count ed
Ġif p
Ġ Li
S quare
46 27
ls Ec
ENG TH
delay ed
t mat
458 3
lib poco
get Int
size s
manager PKc
po sitive
b ro
List Table
Ġin to
45 36
455 7
Function IXadL
iz el
Mutable FstIS
GP Base
Throw Exception
registerConverter EiE
46 26
En e
Z gt
p hi
47 45
Size Ei
470 6
Action Manager
45 22
sh uf
45 27
rs f
448 9
Ġh mm
49 25
Manager Ev
45 93
48 22
464 6
Url ERK
46 25
w ild
69 66
json net
60 38
pairIjj ES
ZSteq IcEN
Ġ" >
47 94
F AST
ato i
448 3
Ii EixEi
sha de
Default Compose
cons ume
mk bv
PK P
edi ate
EN V
DefaultCompose StateTuple
Event Handler
Ġmur rine
45 66
7 265
Sparse Matrix
Ġe link
55 00
NodeEPv EPFvS
co w
traitsIcESaIcEE ERKT
PdfName D
path s
GetChar Value
p gr
wx Conv
VarLength Array
46 61
5 245
ZNSolsEPF RSt
460 7
bt Transform
String aSERKS
G NUNET
sp T
pairIKm N
46 73
B ibTeX
log file
Ġt sg
H y
GallicWeight IiNS
Ġg t
Ġg dip
80 40
allocator IPN
deque IPN
__ __
ĠM A
File IO
account s
trackable D
Ġfl int
R m
45 11
at i
57 90
46 12
Message Source
6 170
in vertible
Org an
dns sec
a que
Ġf cml
FindOption ModeE
Option EPKciNS
find OptionEPKciNS
EP Pv
cv S
Dec RefEv
ce a
Ġh istory
Iterator Ev
PRO GR
ece ss
red irection
Find Window
5 129
wxS izel
true Ev
literal EjE
Tra cer
464 2
CH ANN
Detail s
Affine Space
lectron ics
460 5
Ġen ter
fe f
appro x
traitsIcESaIcEE EEC
EEEv R
46 77
C AT
jit ter
IS J
ter rain
ChewingKey C
insert IN
46 93
Nmap Ops
C ubic
Reg exp
46 95
Ġal manah
U DP
Chewing Initial
| %
ĠH TTP
46 29
duplicate NodeEPN
460 6
50 14
E ss
k er
MOD EL
45 25
K UserFeedback
test bed
59 80
Ġ 267
te l
Hash Code
ces sed
plugin EPNS
traitsIcESaIcEE EEE
Exp onent
45 19
Ebug C
5 153
95 98
lib po
412 00000
ĠU se
Ġdim ension
Var s
Ġfor m
leg acy
Ii ENS
dg ie
45 15
Ġexp ect
mmc if
Ġf bb
Ġb comb
Ġbcomb ef
map IPN
f ed
Ġpthread s
Ġ 264
TR UE
b ond
Classification SaIS
:// "
path Ev
5 388
45 23
ImageIO Base
F ALSE
IK NSt
gp ack
Ġ 262
destroy ERKSaIcE
QTable Widget
SignalProxy Normal
Interf erence
Ġs urface
Var int
Pro cessing
List I
Ġeb itmap
460 9
il ter
47 55
455 9
StdL Schema
48 25
Ġob ex
header set
au st
ofd m
Array Base
Start Ev
re load
50 74
B ig
Ġ DS
Iter ListItem
IterListItem INS
Ġ"( "
M argin
Ġ definition
69 74
ĠINT OBJ
M ogrify
ali ve
470 9
ValueTypeIs MetaTypeI
ĠMy Context
String IcNS
OS E
Ġgo al
55 28
optim ize
assign ERK
addOption EPKcS
aux ESt
less It
ag ram
main ENKUlvE
grid ftp
dp x
Ġnew chunk
undament al
not EPK
Ġb unpck
strip IT
Ġmix er
Send EPKc
ESaIS E
Ġexec ute
). "
5 164
GtkWidget P
Pub lic
470 4
60 40
K Cal
n v
Fv S
begin ENS
m ESt
EJ NS
X spT
max imum
Error E
Bind IF
00000000 000000
48 51
46 71
numeral IN
DR ANAP
Entity Iterator
tag EEEEENS
5 398
Sh utdown
S ummary
49 73
Id EEEE
QText Cursor
clause ES
46 53
p acer
F its
QS pacer
HLR Algo
Row s
Base Serializer
RK d
as f
Top Level
460 2
47 24
Ġch at
400 921
bl ender
Ġu ns
t ga
46 39
46 35
464 7
5 144
Java ThrowException
Ġ 268
45 37
ĠS equence
At las
QForeachContainer INSt
con struction
47 31
45 61
Ġdi ff
54 50
283185 307
47 75
47 37
object NameEv
Info ESt
ff P
Option ESt
49 12
Ġacd Attr
P ad
set ERNS
ĠValNode Copy
65 10
ĠF ail
46 33
Key Pressed
Shape Analysis
table EPS
app N
value ERKS
CO UNT
db l
157 41
EL L
g le
Obj Funcs
47 52
qMake F
Text Buffer
qMakeF oreachContainer
app RN
ĠAl ways
SEL ECT
478 4
b fio
t st
45 16
State v
47 76
ck pit
g dk
49 91
ĠG e
IS S
455 5
IL h
or c
47 11
Fil led
ee ded
inter lace
ĠV AL
sub set
Ġ 265
comm un
to ut
468 4
() ()
btAligned AllocInternalmi
ul ap
Ġerr msg
inj ectivity
5 157
E scape
500 4
Ġw nn
c db
P UB
Ġli lv
to Lower
good bit
Structural Component
Try ing
Map INS
literal ENS
Ġh a
open cc
Atomic Integer
Group Names
sub tract
Ġtest er
(((& (
48 67
Data P
5 244
48 57
Ġ 263
Ref PtrINS
stuff P
Col lation
Pri ce
ZT ISt
Ġ 266
flags E
49 26
osg Animation
Chewing Final
Chewing Middle
Un ix
458 1
Functor Call
StringC py
QDir C
5 255
Ġ 269
swap IN
ent E
67 30
min sd
xffff e
478 2
54 60
48 84
ChewingInitial ENS
ChewingMiddle ENS
uniqueIJ S
SwigPy Iterator
Ġload ing
v fprintf
k p
r f
ER b
Ġ Start
Ġms Strdup
Ġp pd
Ġh y
Persistent D
Ij EC
48 42
Ed Ecl
is l
ut ter
close d
Log Write
464 3
ĠR AND
60 58
iter ia
500 9
Ġfree addrinfo
Matrix C
53 38
n b
char t
K AD
Mode s
QJson Object
hash IiENS
' ()::
im d
45 91
48 94
QMessage Box
FA CT
Fil tList
FiltList TNums
IT oken
Token ESaIS
Ġlua K
Seek Path
bl x
Ġg m
Gmm Lib
Mem cpy
Ġcheck sum
US E
KW allet
core C
Cdl Transaction
iteratorIP iS
vertex SaIS
QBasic AtomicInteger
EEEE EEbT
50 84
50 44
Ġme sh
nexth dr
set Attribute
i ch
fb f
468 3
nexthdr toa
5 149
over lay
Type PtrINS
able Eb
Ġsch ed
allocate NodeEi
Ġp ost
464 9
KAD ateTime
KSane Iface
ĠC ODE
R iS
c irculator
h a
Resource Limit
eb EddPdS
50 43
80 68
ĠValNodeCopy Str
REQU EST
50 34
Group C
clam fs
H ASH
ĠajStrToken Next
5 187
loop IN
put f
dn a
ab uf
ĠN e
BSpline Surface
cert s
Ġc d
470 2
47 15
47 73
Ġl t
5 104
sens us
QTable WidgetItem
QU E
A pc
app R
QBasicAtomicInteger IiE
traitsIcESaIcEE ERK
Ġad just
Poly Cube
cl uster
m q
ap sed
450 5
cached EP
480 7
open E
Class Desc
47 95
LeafNode IdLj
Line Def
00 4
gl Bind
47 22
ContractViolation C
core ERK
m hpmcounter
54 68
Mutable FstINS
V e
as ma
en queue
48 19
j k
token s
li er
Memory PoolAllocatorINS
46 51
48 47
47 69
ki pping
Method s
EES H
getline EPcl
ChewingFinal E
480 2
lt EE
Compact Hash
283185307 179
Ġneg ative
) ::
compare ISt
46 11
ĠK EY
d name
Indexes ListIJ
FunctorCall INS
Ġcon tain
ge any
468 6
Ġb utton
47 34
Vertex Array
Alloc IvEEEENS
Transl ator
ymo us
dep tree
50 16
Vec IfLi
Ġil legal
ZTT NSt
47 41
15 180
Ġ 273
Object BaseD
RO OT
organ izer
a ug
INT ERNAL
Ġcolor s
ex clude
Ei f
O ct
R IGHT
EPF vi
Ġmk dir
o cket
GroupNames L
expr SaIS
arg ILi
57 58
47 35
48 81
47 42
base EEC
DEC REF
cXMLEntry PKc
1000000000000 1
sh m
sort Ev
NEP Context
46 59
Ġn b
fe b
quest ion
Xml M
468 2
QText Edit
c ad
E ffff
c ss
58 412
EP ii
49 62
ĠS c
478 3
hol m
bvec I
Factor INS
re order
re add
47 59
e fa
Ġw eapon
Number D
5 408
47 93
contr ols
MR D
Ġlog file
g lm
55 98
Ġs s
QList WidgetItem
490 1
Name space
56 68
480 9
GetNet Statev
QFile D
dis abled
Ġf actor
5 167
fn ERKNS
exp i
940 6564
58412 4654
9406564 584124654
49 94
Dp RKT
ĠT NUM
Mat ES
48 52
cv ls
60 50
cups Lang
48 23
EEES B
Smart UpsDriver
Apc SmartUpsDriver
478 1
si t
Ġ 271
Ġget ting
r uv
Bounding Box
Pc PKcm
IJ St
ĠC ur
Ġget dns
E JS
it ation
ge EP
Ġc ast
pay ee
A IN
ĠX m
fa ke
path E
468 1
ain Window
StringD oes
Have Text
StringDoes HaveText
OnPred EK
48 69
buf r
short cut
access I
R IS
L icense
No Weight
5 185
Ecl INS
re ach
Ġme ss
row sEv
478 7
F ake
Node EP
50 64
state Ev
signature Ev
Pin yin
5 156
record s
Ene ERKS
48 75
CHANN EL
Ast EENKUlvE
Ġ 272
55 10
Ġo obs
p mem
QPainter RK
f ro
50 66
cmdl ine
79 90
Fixed Size
min ss
set D
se ss
47 19
Ejj P
464 1
psrl wi
Scanner IcE
authentic ate
49 37
56 76
MR MRD
47 27
283185307179 5862
Set E
47 96
49 19
ret ty
Abstract Delegate
Referenced C
ces sion
50 59
Ġc w
K Diff
IiSa Ii
46 92
48 71
48 24
b rowse
ED B
DSR CodedEntry
Heal pix
U C
5 367
DefaultCompactStore Ii
Go ocanvas
th an
T B
48 79
Image InList
AIL ED
Service ESt
60 60
100 15
QM ainWindow
get Ref
C RYPTO
read wj
SQL Expression
49 24
ref er
H S
ns ure
eqIS A
47 13
p or
var E
lib sepol
ch g
inf inite
c bb
ĠWriteBlob MSB
create d
49 46
Ġc leanup
as m
key Ev
EEE Lin
LogLevel E
Ġi r
RGBValue IT
LeafNode IlLj
Ġv te
48 63
use rdata
LeafNode IiLj
ce e
OB Residue
54 30
to ring
to uch
EP ci
Obj Gen
state s
wxEventFunctor P
50 94
in ct
48 27
m am
rationalE aSERKS
478 5
LO CAL
enode Ei
Coded OutputStream
46 31
File D
prog ressive
47 16
470 1
b old
5 124
erase EN
Lat ex
asso c
Relation ship
in l
Token Code
IS MRMRD
54 38
nexthdrtoa hiE
48 43
connection s
ut ed
490 5
Mo unt
Ġc sn
sci red
name ENS
G String
48 41
49 17
n u
50 93
5 284
Ġal g
480 5
47 33
47 77
5 347
47 99
48 13
bo ts
RS i
47 62
ĠPy Float
state EPA
jump EPNS
CacheStore INS
decl j
ght tp
Const Iterator
Ġc amellia
Q Application
Start Element
48 32
dom Instance
QUrl E
56 78
mi rror
fd P
54 90
Ġre size
mpf Ev
h aust
quot ing
trail ing
model Ev
frame work
C MS
to IiESt
ZNSols Ef
A es
EJ PN
468 7
vectorImSaIm EE
IS L
49 43
expr i
j d
47 91
48 82
5 169
50 89
i sp
Impl C
reco ver
Digest Final
Ġpro gress
url Ev
K ICK
cl ES
node IP
49 47
wx Xml
Ġimp rovement
Top Ope
TopOpe BRep
ĠajStrTokenNext Parse
Q C
interr up
6 120
480 3
Ġ Object
Exist s
5 265
IvEEEEEEEE EEEENS
Event EP
Ġde scription
re ject
De mod
Un recognized
48 66
destroy EPv
Context Ev
E nsure
Ġp ay
load ing
Ġ: "
real m
m orph
470 3
IO PIN
Ġ right
Ġ 280
Ġk ate
L L
S b
Menu Bar
But tons
Builder API
BRep BuilderAPI
EPKc jS
ap tEv
47 21
m E
49 66
56 69
468 5
5 488
svect IP
F vi
Ġn ghttp
entry EE
Tree Value
ne on
free p
elf nn
50 24
end sWith
78 90
ĠH E
Poly nomial
entryIj P
48 76
QSlotObjectBase C
QObjectPPvPb E
EPFvi PS
69 69
property EPKc
ĠCONS T
E id
Sh are
48 65
termin ate
H IG
List NodeOf
B OM
Ġm as
CB C
dom Kinematics
IP op
5 203
9 128
48 97
Progress Bar
F old
rs si
5 199
I so
sort PN
NullPointer Exception
ar ser
48 99
46 91
Input Source
Accessor INS
o ok
Ed RK
Ġwin pr
Ġconstra int
Ġc or
im ag
47 53
deallocate EjPv
FileIO Visitor
Ġp rep
Ġp attern
LO AD
quantifier E
55 70
State IteratorINS
SDL Key
QAbstract Slider
498 4
plit ter
e cho
ĠElm ListFuncs
490 3
occ s
47 51
490 4
c map
OutputWindowDisplayDebugText EPKc
50 65
G URL
47 71
Action EE
47 65
Re vision
Ġd en
tr c
ĠĠĠĠĠĠĠĠ ĠĠĠĠĠĠ
str ch
54 70
ACC OUNT
set Font
Ġbound s
5 276
St age
47 12
itpp L
G ExceptionC
48 16
48 86
48 83
z Qt
49 69
Critical Section
traitsIcESaIcEE ERKS
Len s
B I
warn EPKcz
ig raph
50 52
468 9
Co eff
47 23
traitsIc ESa
text domain
an imation
of EPKcmm
functor INS
iz ing
Ġre search
register Option
5 114
S IM
g reen
47 17
L U
User Config
cro ss
49 76
Reg istered
ĠE rr
xffffff a
Ġbo xa
Key Ev
C losure
Context D
cancell able
vps lld
ZNSaIw ED
48 34
i log
dl ine
ctor ies
Ġ Allocate
ism rmrd
Free desktop
Shortest Path
d ad
47 66
5 286
Q Generic
f err
set ValueERK
Ex State
literal EjEC
50 95
Overflow Error
i EEE
h el
) ;"
500 2
Ġas c
Xa Drum
Ġ- âĢ¦"
My Val
470 5
Ġst ep
St itch
nd x
ise Ev
K Page
48 59
490 2
I MP
insn buf
5 162
s dl
SyncFileItem EEptEv
A IS
20 888
Ġseq ReadLine
Tree Iter
47 92
reader IddE
Bot tom
v te
v is
bound ERS
cb i
expr ELb
w ide
ĠSy s
site Ev
p alloc
Ġg nome
47 63
6 192
ĠBinary Source
Ġ Text
Ġsw itch
m ust
Ġc rypt
Ġid entifier
Index ILj
MyMoney Budget
500 7
H ot
red raw
Ġc s
Ġm ime
Ġb ec
List Model
Ġvalid ator
Entity E
str ncat
EjPK PS
uri er
En cry
ĠL XC
Ġex if
Quali fier
ip PKdPdS
Ġe c
R DP
ratio ILl
ĠPM Ix
50 12
Bank ing
Ac d
variable s
L and
Co ver
60 20
pass wd
error i
5 133
Ġer ro
Ġfro gr
48 33
H orizontal
e Game
and RK
ĠFc itx
Op code
QRegExp C
XaDrum s
si md
47 39
ĠajStrGet Ptr
Ġc df
deleteIS A
osg Shadow
55 30
Service Probe
String R
Visitor EEbPT
59 39
C er
5 349
> :
instanti ation
ĠS ort
current IndexEv
c diff
b son
48 95
manager IPvE
Uns afe
Geom etric
LO C
ĠC ORD
copy ToERKNS
AR F
EM F
49 61
49 42
5 131
Ġ rm
Gui Application
idx Ev
BOM BER
5 344
EESaIS A
Ġ 275
traitsIcESaIcEE EiE
48 45
Org Freedesktop
to ff
File E
NGram Model
ec dsa
dec omp
Dfs StateINS
Ġ refresh
490 6
st dll
Int Res
jPK PS
Data EPK
He imd
ke le
Ġb in
48 31
860 1
facet ISt
getRef EPKNS
48 77
Ġus leep
EPc mm
49 79
Status Of
Epeck ELb
Ġ 279
Info EESt
backEO i
topo logy
490 7
Pro g
49 53
unpckl ps
gstr t
R t
ks udoku
Ġno te
ok er
558 8
dip lo
Ġ ass
50 75
Ġpre vious
Ġli ba
v xlan
ZNSols EPKv
T unnel
get int
name Lb
reg exp
set Maximum
Da emon
47 29
find er
Ġse ctor
assign Ejjjj
M ar
Stream Ev
tt l
al led
EEEE LN
Ġv xlan
66 22
cv d
5 480
Sync Journal
S ending
QStringBuilder IN
Pattern Converter
Ġ 274
Ġpower pc
Directory Merge
48 61
Di e
Cache View
k ulap
Mem Copy
Aes kulap
49 23
p icture
et e
[ ^
ole c
Flags E
Operation Detail
Ġtrans action
49 34
fa e
port ERKNSt
Id enti
less ESaIS
50 76
57 46
Dec omp
coord inates
49 22
QFile C
erb osity
AR E
Ġrece ive
48 73
Pdf ObjectC
49 39
ox el
From String
Re si
sp ack
48 91
ff b
Ġ 276
Ġim g
se lem
Ġtran sport
e XaDrums
vtk Image
add er
C RE
Ġm ad
setCurrent IndexEi
ST B
Ġse curity
QString pLERKS
A ES
Ġ 283
478 9
chashtable IPN
axiom ENS
Ġ 277
tod on
T X
ĠSeq Entry
Nation Base
54 28
Comp ound
5 264
Ġ 278
too th
UDS Entry
Not Found
Address Ev
48 87
48 29
49 31
DSRBasicCodedEntry E
56 58
ĠM ode
5 113
Refer entE
Ġb ody
C U
ListIJEEEv EC
f streamIcSt
value Ej
5 154
Dcm IOD
der ive
=' %
5 508
Ġw c
traitsIw EEE
Write String
test ing
49 59
49 52
wx Uni
policy ELb
QVariant EE
CoinPacked Vector
Ġse nt
b enchmark
60 28
addr s
ĠP ixel
IJ DpT
svectorIjj EE
M ata
lat ex
mi ps
49 63
ARR AY
Ġ Operation
Text C
dl EPv
5 201
com ing
5 234
Ġn an
add func
54 18
rel ax
48 11
48 96
srm StatusOf
Ġg cc
po ch
G x
Moni tors
ma j
ListIteratorOf ListOf
c orrupt
Sa Ii
th en
49 96
Ġst b
sp y
Ġge om
pro ps
as p
au ss
impl IS
1754 9435
traitsIcESaIcEE ERSt
Type ESaIS
Key ERKNS
main ENK
v tx
Ġ: %
info D
Point C
50 56
ĠA T
49 14
zer os
equal ity
Stacked Widget
Group D
48 89
match ing
Ġs r
5 125
struct ured
append ChildERKS
Ti Xml
54 54
ti st
moz illa
Ġin fd
ĠT LS
Igno ring
able Ev
strlen EP
it in
50 79
Re quire
Flat ArrayIiLi
. /
vectorIS A
] âĢ¦"
61 10
d eck
56 30
TA NK
Alloc Iv
568 0
Pdt ShortestPath
PP ERM
ĠC GAL
Slot s
Ġ" ]"
53 34
ĠLog Level
53 14
Color Utils
ld ns
Parser Tester
Memcpy N
49 57
Coin MemcpyN
Subscriber Plugin
50 69
decls Ev
de fs
1015 38
c str
wx CStr
Parsing ModeE
QPaint Device
48 39
Ġre l
Pdf Dictionary
49 99
6 00000001
ms nprintf
Ġopen ing
m buf
50 62
Ġc st
60 18
000000000000 1
QStandardItem Model
Orig in
48 37
49 77
b P
Ġfi rm
iss uer
Service N
Ġab end
Ġc di
P DataStd
get File
traitsIcESaIcEEE c
Ġm w
5 339
Ġ3 20
50 29
Set ERK
5 102
h is
50 99
EEE mmEv
QVariant EixERKS
St rip
QPDF ObjGen
si i
Encoder ET
56 70
57 00
6 128
56 90
e Grid
Ġ assign
Heimd all
Q Atomic
nameIcEE PFSt
49 11
OBMol Atom
Find Next
injector INS
V AR
ge o
Ġposi x
T rsf
iterator pl
54 10
Ġn ick
Sequence OfShape
traitsISa IP
O ld
48 35
token ize
i pping
5 296
48 17
tree IPKN
nodeIS C
Ġ 281
th umbnail
64 20
Ġ 282
open ERNS
mark stack
bc f
tr ols
55 58
5 354
QWidget ENK
C udd
ĠN CONF
Identity Management
5 152
Ic N
main loop
53 40
tag IT
Ġrt s
LE lement
48 93
500 5
65 68
IC Y
h v
693 147
50 55
st ISt
et ree
V Array
498 6
comm ents
fa f
prec ated
rational Rj
sk in
48 46
Ġc im
lu INS
QMetaTypeFunctionHelper IN
49 16
ĠF ILE
Ġmail box
eb d
Ġop code
Gmm ResourceInfoCommon
Ġt ask
LogWeightTplIf E
Word List
48 72
d ither
Pri v
launch er
538 2
Get Item
50 57
50 22
Ġsi nf
49 21
LabelReachable Data
core EPS
QS plitter
ste al
5 106
Ġ 299
K ick
49 65
Ġ 290
instanti ate
Analy zer
TA NC
8888 8889
ĠM D
Token PtrINS
EPv S
48 21
Ġ 286
QString EE
5 134
5 182
u z
add mul
Ġj ob
Math Object
q r
g rt
Zgt RK
49 15
Ġb pp
Ġle ast
6 148
fc d
F d
49 13
monomial E
Encry ption
58 80
ĠP aint
EEEv St
reallocData Ej
Ġmas todon
invalidate Ev
Ġ 284
file IcED
48 12
cat z
Hashtable IN
5 184
\\ \\
50 72
stop Ev
a ration
5 122
55 68
Compact FstINS
Ġ 292
Fast a
tra p
49 32
doc ref
type ERKNS
row IteratorEv
560 8
P XCAFDoc
pref erred
a ad
fre i
49 41
Sa Ia
T I
entry EEONSt
Paren MatcherINS
Ġ 285
5 374
LO AT
orrup ted
dataIj S
ĠDo es
8 200
Proc Address
anti c
xfff c
El S
Ġg alloc
50 49
Ġn fs
Pdf Rect
DdNode ED
Read ERK
read bj
60 88
By Id
inf Ev
55 90
5 192
INS C
CD DB
C Debug
50 53
set Value
D eriv
ut ing
Ib ED
5 247
56 10
Ed EC
< <
55 20
49 51
UMemory nwEm
t se
Ġy r
80 98
49 29
ba pa
State Attribute
ĠV OI
9 000
ĠA ES
ĠB LAST
cmp sd
5 176
ĠG lobal
Digest Init
Ġh it
MP EG
Ġdb layer
zero upper
I Kc
EvEUl jjE
Channel s
Ġt cp
Error ERKNSt
Ġco ord
mail box
480 6
Un defined
Name E
Ġ 287
To Int
L u
55 50
58 10
Ġ Command
Data TypeC
object class
O v
Ġg i
Cpp Unit
ZZ E
fx stat
Pe ople
ĠMagick Monitor
G ED
Font Size
Ġy az
RR D
Ġ 291
j EENS
5 256
50 45
Dat aptEv
30 0000000
EC H
fre quency
60 80
get ValueEv
long jmp
b ol
ob ile
set Element
59 58
fre ed
log ical
Msg Type
K not
Light Object
St encil
Sago Sprite
CdlTransaction Body
50 73
AT IVE
5 121
57 40
Data ERK
49 56
Ġlog p
49 27
EEEE PT
Base Array
ISt ream
DOM Document
array s
50 97
Ġdef late
imp lied
F act
Type ERKNS
online Job
t bl
50 17
Port List
a om
Ġd ue
Ġt z
54 74
QSet I
element sEv
ĠPlugin Imports
ĠState Delta
Text Item
Fea sible
Ġi b
54 13
base RSt
A K
50 11
Document Object
6 180
53 11
54 63
Ġe l
50 81
pairIKj PN
Demod ulator
tag struct
Ġed ge
49 33
QAtomic Ops
60 30
b ignum
96 60
Pol l
QGridLayout C
1111 1111
Fv vE
te in
ShapeMapHasher E
OD Y
block ing
Fatal Error
49 97
60 68
84 20
5 107
Y F
Con figu
xffffff bf
TropicalWeightTplIf EEEEEEEE
Ġsl apd
struct EEELb
sub tree
Aligned Variant
50 42
QSql Database
5 204
Ġcol umns
65 00
reset EPS
Braid INS
H SP
Frame buffer
EPK h
res cale
Ġ 288
dist inct
ad v
Ġ 294
UPS INFO
ed x
Ġrun ning
Ġaccount s
5 119
A tk
F E
Multi Body
em ail
f id
Ġas semb
ĠA k
PLAY ER
iv Transformer
vectorI y
50 67
Invalid Access
Comm it
S cc
user name
T Inter
wx HashTable
Sa ISt
F ITS
cl ERKNS
ListIJ i
AB S
568 8
59 90
un def
EjPK PNS
Ġaj Feat
Get Length
jj j
Ġgss rpc
From Instruction
Ġfield FromInstruction
de leg
Ġarg p
Is NS
locale ERP
55 48
49 36
Invalid Argument
Ġ List
Key ENS
50 25
d rbg
fr u
P ave
ext ents
k b
get dns
K IdentityManagement
570 4
KGui ItemD
Ġglo ox
IPK St
Const FstINS
the Class
getStaticClass EvE
View port
vertex INS
DirectoryMerge Window
q dq
bound Ej
Ġxn LogWrite
ra ct
5 399
m ash
Ġ" :%
50 41
ĠA t
Ġv m
5 352
hd PKdPdS
icon s
gen l
free ze
50 86
50 36
5 109
5 237
Ġgtk am
6 150
9 299
55 60
Action E
FM Font
Top ic
nan o
> âĢ¦"
sr v
EN C
V dbe
Ġ"# #
Ġu sb
d ensity
e HalfEdge
5 175
Ġ 289
mk dir
L ENGTH
Image Command
50 77
500 3
sample s
formul as
Ġjdc flags
IiSa IiEESaIS
OFConsole Application
Poly Word
50 35
Co okie
Get Line
level EPKcS
> &)::__
Manip ulator
50 85
PROT O
Stat etype
If N
Ġspec ial
r pp
offset s
5 254
Ġi cal
Ġu res
Sp am
Ġch dir
Seq NodeOf
Ġ 293
b li
to Latin
Ġarg um
50 27
arity Ev
Im ag
49 93
db d
State EE
CH AN
Char Ev
rewriter clER
Ij ERKT
Ġre loc
656 9
ated it
FF ER
LSPClient Server
50 96
set ValueEi
vector setlengthatleastEPNS
q Hash
56 22
Loc Ope
5 165
Rec ursive
66666666 6666
5 111
50 33
Ġ act
rp mem
Ġz sock
Ġsend ing
58 08
56 57
Tab Widget
Ġalign ment
row Ej
5 202
uni form
lock s
set R
Ġmdc bufr
g lide
Con tain
657 4
Ġkey word
Eval uation
70 30
Get File
QX P
Ġgl yph
Power Devil
Method Params
Em i
gra dient
olec ule
Ġ head
D OW
k exi
referenceIS A
Heur istic
RA W
Ġ IM
F B
Position Ev
Ġ 301
manager ERSt
mon oto
56 60
pro v
no ut
H D
Ġ URL
GF X
Quali fied
51 12
o uble
ul us
setWindow TitleERK
Content Handler
lessIiESa IiEE
FA vg
498 2
50 47
fetch P
55 64
the re
be e
600 8
Ġw orld
d NS
padd q
Ġ" <=
al ls
6 130
49 71
is set
R AR
step s
Key Info
root ERNS
rin cipal
58 60
ĠS W
och rome
Get Register
5 00000000
Ġliba st
ĠPaint brush
5 277
5 303
PM IX
object INS
ĠSetImage Progress
SeekPath Reuse
val IN
s buffer
bu tion
5 191
498 7
Ġwattr set
TCol Geom
Ġw i
Ġg h
ĠO OG
ine rary
O w
52 14
Ġ DB
Ġt x
578 0
Ġ% #
ĠG Var
5 135
read Int
Em c
complex Id
50 87
Ġl a
range s
Ġd cc
Generic ValueINS
Ġmultip le
DataMap OfInteger
50 83
50 63
5 127
60 98
Ġj big
5 196
5 343
C OR
Ġ Import
Ib EC
S EOS
publish IKN
ĠT est
acc um
IL L
octet s
bt Convex
fp P
Extended StringC
depth Ev
ref P
5 103
54 64
M ul
AC D
Ġcomp lete
333333333333 333
Data Source
Set w
ĠC ID
5 307
Ġb str
TN UM
frame EP
Evalu ator
EjPK j
parameter C
52 16
IT H
Ġ", "
570 8
Su bject
5 101
Cwise Binary
498 9
anum E
Ġ4 00
Const Char
5 143
Node D
It inerary
49 95
5 159
swap IP
Ġ 304
5 366
MemFree EPv
STAT US
split E
WriteB mm
EFv RK
n ServerInfo
decl are
Ġh and
ĠErrorReturn Obj
Ġm a
55 40
inc pci
Expression s
Id ENS
line Ev
ĠajListIter Get
Q Line
Ġch an
unsigned Ev
Q GuiApplication
558 0
1000 4
49 35
J O
59 00
S tor
remove ERKS
50 46
P D
5 189
Ġre location
5 145
O cc
create ERKNS
IvEEEE EEE
5 285
Sy m
Ġcon tainer
5 229
Is Used
CF G
Ġ# "
Ed EE
Ġen abled
Cdl Conflict
k d
Ġalloc ating
J ump
Ġ 297
Pl asma
EEEEl NS
ĠGetMagick ResourceLimit
value set
l shift
Interface C
Check Box
80 30
Ġ" |
server s
mon ster
ĠRe size
Ascii StringD
Port Module
key press
ZNSols Eb
data set
ZNSols El
PP M
Curve s
50 15
Scc Visitor
Con tains
nation al
Ġnl msg
Blue zQt
Address Book
Ġs array
Eigen Backend
Separator Ev
5 257
C alibration
P eak
EPFv P
tif act
constraint E
Ġpvm trc
ra r
Cl amp
50 26
copy ERKS
class NameEv
uggest ion
k w
49 72
ĠStr Equals
Message Handler
duration IlSt
H OST
uff icient
498 5
5 136
ĠF ont
QCP Data
Ġbit map
5 151
comp act
Ei PKcS
50 19
Message D
Key Item
b lo
Ġintf cm
iostream s
in ing
IS M
et able
x Ej
net util
Fvv EE
category ERKS
5 364
In clude
find EPKcm
R EM
PKw z
fo reground
N DS
Add ing
55 18
e Wall
sub EP
Attribute Error
de ja
G Exception
Pro mpt
Inde xc
av l
sto red
TropicalWeightTplIf EE
er C
Ref EPK
Py x
getAnd RefEPK
P Fi
80 60
get bits
clause ixEj
6 138
50 61
local host
5 206
Normal ized
50 32
5 123
Ġget uid
iteratorIPK S
Ġpara m
0 1745
Ġ 296
m ic
send f
ecess ary
58 78
psub w
Ġ 298
TRO Y
nano msg
5 305
ni que
5 142
b if
5 117
expr EN
50 82
mon ochrome
Comp lete
libc data
/ \
l dbm
6 178
Wait For
Linked Node
coord s
Ġhost name
5 309
CH O
Ġp rt
Drum Kit
55 38
Add ReferenceEP
Object P
5 181
Ġc reating
On Ev
Measure ment
568 6
Rece ive
Ġv f
54 23
5 249
S elf
Ġpol icy
leg end
Ch ip
roto col
5 259
EEb RT
Type Ei
50 31
push value
m v
toIi ESa
Interface E
unpckl pd
LinkedNode Default
Bus y
SE G
Stretch Ei
VER IFY
55 54
5 105
Manager E
FAvg Score
5 332
53 25
manager I
K w
EE EixEj
EES I
r cc
Put s
Job EvE
Ġ End
expr RK
79 18
an not
52 13
plugin C
ĠOpen Blob
E AL
Sa ving
ContractViolationls IPKcEERS
Style Config
il a
E Model
80 70
bb e
Retri eval
L AN
N N
498 3
Ptr Ref
PCol Std
5 287
5 274
Ġimage s
Vec C
String EE
5 115
set wi
CD asher
Ġl zma
over lap
49 45
H ACD
58 20
Ġm ade
pairIi N
Explo sion
exp ire
5 179
65 78
dc b
TutorialApplication C
re sist
50 21
Run ning
6 164
5 359
Cell Renderer
Ġ 295
proc EEEEvT
System T
Ġty p
Ġp g
Ġ 302
QS G
548 1
bi vector
100 48
50 13
Me an
Edd PNS
Ow ncloud
fp rint
Ġdis abled
reloc s
lin alg
position s
490 9
55 78
EEb PKci
EEbPKci RKT
aspell er
5 163
540 2
assign EPKc
medi aw
Visual Scene
5 166
comp osite
Ġlog in
par sing
ContigNode SaIS
Ġ 303
n ey
Transfer Syntax
Is Same
Le ave
Number C
set AlignmentE
OP EN
f idEv
64 69
Sago TextField
50 39
quot ed
al len
5 146
IcEE PKT
Filter ProxyModel
Cer visia
40000000 1
80 20
58 74
Cdl Property
z Ev
Ġ regex
Ġprog ressive
Y acc
55 44
Ġ3 13
5 177
PK hj
5 292
Seq Align
CO NS
app PS
Click ed
Ġd on
PF P
af b
GString Rep
Ho me
TopOpeBRep DS
Iterator D
pgr s
5 241
traitsIcESaIcEE EEENS
rewriter C
100 28
Re store
CwiseBinary OpINS
VAL UES
Ġad cli
Fst Register
aux Emm
grow EPii
M idi
set Text
Ser v
Ġ 306
b ESt
57 29
ps m
re served
+ %
di f
Ġ NS
52 23
Collect ed
Kill bots
Ġl on
53 24
Inv oker
Tra iling
set IN
Ġp cre
am age
tse itin
6 00000000
transform EEEvPNS
w ake
5 375
indexOf ERKS
ANTLR Token
ĠMagickMonitor Formatted
5 116
G MM
Ġgl End
Paje Field
uf bv
= \
Ġ locale
NG Image
ĠT R
DES TROY
sp ot
Ġf older
um in
52 24
mi a
ex plan
al formed
5 236
Cont ap
60 70
ĠF OR
moveIR ZN
get str
5 194
Wrapper Proxy
50 23
rat ch
5 227
s EPNS
ar er
ĠCor p
OFString PKc
ĠxmlStr cmp
ĠF locale
wx Thread
vpadd q
Ġtemp orary
QDBusPendingCall D
Sem antic
filename B
To c
registerOption IZNS
T Obj
5 246
7 181
Unit Array
svectorI bj
6 280
55 52
Recursion Depth
Ġstat ic
enume rator
80 10
Ġyy char
View Manager
aug ment
Ġmp c
mkv parser
90 50
5 186
ER f
print EPKciS
Ġ 308
mem v
ec o
Ġc printf
ObjectES H
M ps
CM D
Vec IdE
7 270
Merge Result
From Double
5 173
5 197
ĠA IO
EE PKw
op kele
D UM
ĠSeqLoc Id
5 132
ml p
Item Enum
Ġ rk
rewriter E
iv ity
A head
Ġ3 11
60 78
Ph ase
Ġ3 10
5 297
P aste
ĠB it
PFv S
F iction
50 71
49 92
Ġ rs
CON TA
QColor N
Ġdis k
ĠajListIter Del
5 195
5 172
ĠMA dSingleton
L t
590 8
Ġc v
Ġht ab
58 70
dcmp stat
s Model
vol ver
mid i
Ij j
Ġmy sql
range Ev
J ingle
Loop Body
498 1
Lock ed
l st
Pattern Syntax
slot IvNS
MyStr D
Ġchannel s
Fiction Book
58 98
vi r
50 37
Ġ IPv
Size Em
erase PSt
List clEm
ip atch
MergeResult Window
DataMapNodeOf DataMapOf
P MD
erc ion
01745 329
Ġ Mat
Ġlib ewf
EL F
CdlSimple Value
59 78
5 161
aes dec
SY STEM
sl it
548 5
MyMoney Xml
MyMoneyXml ContentHandler
Ġalloc at
Y our
Ġ21474836 47
544 3
SIM D
650 3
ĠMod ule
mediaw iki
M aybe
pre process
w eek
Add ER
Ġl m
ĠL t
Message Viewer
538 6
TANC E
Ġ ran
Ġf n
or EP
cl flush
link s
libf data
If EENS
lib s
Di ag
KConfigGroup C
Pro d
LDOM Basic
cl t
ll ll
Parallel LoopBody
em i
wx Arg
au f
wxArg Normalizer
5 357
5 335
59 38
vp ins
sEi PKi
5 232
xf er
Ġy ara
Mon omial
5 393
Co verage
6 298
5 351
c ene
Code ValueTypeE
Executor IN
size Ej
EEEEE OT
55 16
Math ml
ConstructParams E
Element C
57 15
Split Behavior
db b
wxXml Resource
5 269
Node ERK
rnd s
main E
quantifier RN
Dis connect
HandleException IPvLs
oc sp
66 34
Ġ3 65
Poly hedron
b NS
exprj R
matrix Idd
to Bool
C OLL
54 53
60 10
6 140
50 51
6 160
N B
now Ev
KFile MetaData
54 27
cast Ev
52 19
Type Info
type EEEEEEEE
mode ls
Ġ 305
un implemented
sat lsERSoNS
54 75
53 29
tString S
assumption s
a IP
657 2
9 0000
5 342
53 12
58 48
ne ighbor
Model EP
Ġlib p
Ġcall back
d fd
Ġ%. *
Ġw eight
um an
5 235
5 355
5 147
fpos I
Ġvi deo
note s
D bv
m bc
QFuture Interface
mem dup
Bit Input
57 26
y na
Ġ"../../../../ ../
56 36
lib harp
5 205
Event View
544 1
typeERKS A
STR UCT
l ass
55 24
x malloc
EP d
V D
Ġc c
5 291
GEN OS
56 98
QString j
54 67
Ġsy ntax
Global ColorE
is space
72 10
Sa ved
Debug Visitor
408 00000
W AV
N u
544 9
f ba
5 363
Byte String
sharing E
6 118
58 88
QUrl Query
Type Ej
quantifier ILb
6 188
54 24
An im
Argument C
Ġecp g
EPdlPK dll
58 30
Init Ev
56 40
DefaultES L
Image IhLj
en us
Bound ary
a fa
5 139
De gree
ĠG ET
ep silon
5 345
EEEv EC
blue fish
bra cket
Nick Alias
Config ERK
Ġ3 14
5 353
File Format
7 354
fff eff
PatternSyntax E
Eb RK
mi se
an chor
J peg
g hi
5 209
Enabled Em
IsLevel EnabledEm
Base ESt
Ġpk cs
Ġb mp
file NameEv
55 94
QAbstract ScrollArea
idi ag
un load
5 336
ĠajFmtPrint S
Zls I
5 289
visit EP
ByName EP
pop Ev
itera ls
22337 204
m ission
Ġba mf
string Ev
Ġ3 50
grid s
538 3
53 21
64 90
56 20
UT YF
57 47
EEix ERKS
5 262
Ġ OFCondition
Image Pixel
52 15
Ġ(% .
100 40
Ġ 307
Ġc amitk
dl printf
CONTR OL
ImFont Atlas
P ORT
Ġpro b
Ġsignals log
Ġ 309
n cmp
5 221
ĠG R
Com Ter
K AddressBook
FlagEE N
w as
Point On
f undamental
5 267
bb er
PL T
ĠGet Pixel
p avg
Del ReferenceEP
50 91
57 70
PortugolAST ED
Ġl anguage
word EPj
Ġnew line
ReadD wordEPj
54 55
Access Manager
N a
5 207
538 5
all ing
auxEmm mc
sp I
base ES
6 270
d fa
52 17
shared IN
fffe fffe
p ick
bb f
Open FlagEEN
qRegister MetaType
ĠB rotli
Ej ERS
map square
Ġquot a
xfe fffefffe
xfefffefffe fffeff
L ut
cred s
52 26
ĠMC Inst
m illi
iv Control
QPush Button
ĠA G
EdEcl Ei
mash up
Ġex ceeded
s vector
54 15
EEPKw RKS
File Descriptor
string ERK
lib ssh
lcEngine EvE
Ġ Convert
QRegExp D
C ert
Re quired
AS equence
i EEEvDpOT
58 50
res ses
Map BaseINS
Ġms Small
5 253
TR ACE
Null Value
5 404
60 90
52 11
55 34
5 275
Matrixcl Eii
QHash IPN
mpf C
wxEvent TableEntry
Ġs ay
Range Exception
Ġ3 21
Ġmag ic
6 100
u lo
58 90
Kate Plugin
gn utls
method ENS
Ġtran sition
Ġdi stance
55 53
b onus
Ġal low
Vec IdLi
ra c
Ġ5 00
Get ProcAddress
row Ev
First Child
d ash
ark as
I q
5 306
Ġ heap
Ġl xc
6 176
66 21
sig ma
Eiii iii
K M
n map
co p
Ġpoint s
QVector IiE
Memory Chunk
Node EPNS
QModelIndex E
ms gpack
fe a
70 78
open slide
Sub st
Sol ve
Clone Table
Egeneric D
Ġs cope
ByName PKc
MyMoney Object
ĠM ix
sph erical
g el
5 155
polynomial ES
5 346
K People
H ole
Ġc dio
Unit D
c pos
XM LElement
ĠC K
ASC II
X B
6 174
tOutput S
Attribute EP
Default Hasher
Ġ3 18
DataMapOfShape Shape
EEEE iii
Key E
mux er
eq ERKNS
560 6
DR ule
Ġc t
f name
sy mtab
addProperty EPNS
rop os
Surface Element
lib page
libpage maker
K Parts
rpp EE
56 74
S el
SP trans
E st
5 396
ab ove
fs ck
7 246
550 3
reserve Ej
shuf ps
Ġ3 15
Mesh Element
z lib
Obj Mgt
B v
TInter m
Y UV
Dir Ev
ai m
Ġ Options
SC AL
Ġc amera
m ann
rp z
wx Static
IDENT ITY
Ġc ustom
54 76
Ecl ERKS
79 63
Me ans
Program ixERKNSt
abc af
MetaProperty E
CaseSensitivity ENS
5 333
f wd
56 28
Item Ev
haust ed
ESaIS H
54 16
ce il
au til
Tick s
d rat
baseIP St
IP Fv
F req
T an
ex cl
54 99
6 108
54 52
core ILb
M IP
EEEE EvT
57 37
D IS
ĠxmlText Writer
cb f
EEEEEv RKT
var ELb
par setree
g vc
M i
sort IPPN
QColor E
6 198
Ġtext block
Message ERK
vectorI Lh
5 141
fabs EdPNS
72 20
Push Append
55 33
vectorImSaIm EEixEm
maj or
54 21
cl in
Of Transient
5 261
POS IX
Ġkey s
59 70
57 10
fmt stream
5 222
EEEE lS
cv olume
File Transfer
u char
K BB
modi fier
Var i
attribute PKcS
Ġu mask
P eek
Ġ3 24
Ġbet ween
polynomial Ej
54 59
Ii EEE
54 93
Info Ev
Multi ply
QChar S
v endor
> (
Null ary
temp ting
Ġn u
ĠajStrAppend C
g z
57 20
opIdd EEKNS
re ached
d u
db f
Op tical
alloc PKcm
55 17
Ġp ta
Normal ize
ZStlt IcSt
5 266
count D
Ġvalid ate
set Focus
Get Config
QJson ValueD
Ih EE
5 137
tactic S
5 243
ON G
append EjPKPS
Ġi pv
Ġlibp ff
5 233
WO RK
allen ge
C V
Ġms Free
vectorIy Lb
z en
In trusive
Get X
5 281
5 239
5 369
DN ASequence
TN EF
Ġdest ination
58 68
D AT
Zls RK
st all
iv ing
ĠPy Tuple
Ġa a
b R
Ġlib fsapfs
F C
Info St
ĠSO CK
CdlConflict Body
pos sible
68 74
Ġ3 19
52 25
L B
vertical Layout
Line ERK
ĠA nope
col on
cxx eq
QFile Device
Ey j
Ġfd open
nodeIJ RKSt
e limin
ur p
64 65
Explorer C
exec Ev
54 56
IN TRO
MemoryPool INS
57 28
] ,
ae a
ĠP ACKING
facet D
bo ss
fc b
Control Point
50 92
wh it
Ġgo ogle
Cdl Valu
CdlValu ableBody
P rs
Ġt ake
Action C
5 376
5 193
J RKSt
Ġ rcc
Ġse l
59 68
Size Eii
Ġt ty
IO DRule
complex IN
55 37
iterator Ii
H ap
Ġens ure
5 251
d ff
ĠEOF Blob
inte l
ĠP a
54 14
vectorIiSaIi EED
PK wm
57 77
bj h
Comm ents
P w
T ang
58 72
58 44
ret ran
clip board
Dcm ByteString
Kate Project
57 38
Item EP
ar f
5 444
c andidate
set MetaType
setMetaType sEiPKi
proc IS
ĠmsString Concatenate
Rec ip
Bound s
Close d
Dbv t
Ġe lem
DSR Document
57 19
5 282
5 295
ServiceN FO
57 68
Ġat k
ri vate
6 158
f EE
Q Accessible
8 120
59 20
56 18
ĠIn fer
V EC
write bjh
entryIj E
decl aration
ArtinPresentation EEESaIS
20 0000000000
] +
Type P
mech an
read n
reference I
Ġ3 16
xp m
sched uled
ĠInfer no
A mount
54 92
conv en
atomic IS
re rootERNS
ls c
544 5
Ġ restore
Widget Ev
5 331
8 100
to ur
link type
dec i
5 361
K Service
async Call
AVal St
ĠĠĠĠĠĠĠĠĠĠĠĠĠĠĠĠ ĠĠĠĠĠĠĠĠĠĠĠĠĠĠĠ
ĠL en
@ %
5 171
End Of
100 58
QFont C
5 271
buffer IS
first Ev
56 48
Radi us
Cwise Nullary
5 397
I RK
Ġv sha
BL UE
Ġad ded
54 34
B tree
KDe v
mat ure
QShared PointerINS
Ast E
p ure
Get Entry
5 372
QScoped PointerIN
6 147
ĠA CL
S ite
bif unc
59 60
58 38
5 252
CT erm
DSR XML
ĠM I
re ction
564 3
ab f
Ġnto hl
Iterator I
SetChar Value
Z Ev
M olecule
5 299
E cvbEv
Y ear
55 11
cv RNS
exprb j
68 00
ĠG st
CS V
u ra
Ġto k
vp n
53 17
impl IXT
CY K
backIJ iEEEvDpOT
Command CS
sci ence
719 7998
5 273
set Auto
A W
ĠJ son
Delay ed
make bifunc
Lat er
A ns
Ġc ase
Job C
mem str
st h
@@@@ @@@@
svectorIjj ED
Ġl n
traits ESaIcEE
54 19
quantifier jPKP
encrypt ing
Ġi cs
ut s
sc d
5 183
p nm
57 50
ex if
procENS B
55 19
Execution ListE
el t
', âĢ¦"
sh dr
Ġc ert
Ġp lace
With Argument
RGBValue IjLj
Read Write
Ġ rfx
Execution List
Ġaj Char
p error
55 92
Ġ light
EEE ppEi
Bl ur
le s
53 16
Ġmon th
fn EEvPT
QLoggingCategory C
ĠajStr Prefix
ĠQ LoggingCategory
999999999999 998
iterator ES
symbol ic
g sto
59 18
Iw ESaIw
Ġu Array
5 294
ex plain
stack IPN
y s
fe ff
Ġ Output
node IPN
DcmItem RK
Ġrender ing
55 59
EEv SA
handle s
OBMol AtomIter
C Object
QS equence
Accum ulator
Ġ AL
Control led
57 18
57 56
pr une
Map Ev
Pred icate
80 50
554 6
Import Export
Ġdvb psi
SaIS D
54 62
57 78
58 28
59 40
Ġ3 17
j ection
comp Ev
Comp arator
Cache BaseImplINS
f lo
One Ev
Ġ3 12
554 1
Ġmem ber
Ġacd Log
ĠC lp
xac b
Ġi con
string IcN
Tree Item
re ed
53 27
71 10
LogMessage lsEPKc
Begin Ev
54 11
5 272
eq c
564 2
54 57
ID E
iteratorIP iSt
Rel ative
5 365
string aSERKS
58 18
Trace back
traitsIcESaIcEE ERKSt
k ick
5 394
Ġsi ngle
Bise ctor
yy error
Ġi rp
Ġp rev
QCommandLineOption D
D PS
======== ========
D lt
indexOf E
lm no
traitsIcESaIcEE EPKc
Data InputStream
rs Std
52 12
Boole Monomial
set Parent
5 301
5 373
9 375
exp ansion
ghi jk
65 48
54 22
gl Multi
Ġinst all
55 14
tree IcSt
ra ck
ĠC x
66 30
setItem TextEiRK
Ġ3 30
Ġirp lib
58 40
5 279
CwiseNullary OpINS
Ġx calloc
ĠS k
value INS
5 377
Ad aptive
INT ER
Recip ient
57 76
temp orary
ĠEX EC
54 32
B ODY
at ropos
me vent
54 31
M SL
p us
Ġ ffffffffffffff
for INS
7197998 12
56 38
Back up
De ep
6 288
H Curve
j PS
ĠL ength
Shape RK
ĠTh is
Out side
c aa
53 23
Ġd rm
mapI K
Ġc re
anon ymous
Ġc rypto
Hash Map
FIL TER
5 509
d it
O rdered
540 5
Boole Set
56 97
q ERKNS
570 6
rational i
HashTable Set
54 35
dest ination
Ec E
Th umbnail
56 12
5 341
57 36
stack IN
58 91
lic ator
b k
Pa inter
Ġ< /
Ġaj Warn
Last Error
er INS
5 356
node EEESt
c be
Ih Li
bul k
550 2
EE J
540 9
5 371
Reader INS
5 242
80 90
Ġe ff
eq EPK
Free Surface
550 6
range Im
57 60
Ġwadd nstr
vo ice
ĠS ection
add Attribute
Name N
E aS
Ġ(% âĢ¦"
Main Widget
Ġi dl
BRep Algo
P ACK
55 39
Ġby e
ran ds
vtk Transform
traitsIcESa Ic
SplitBehavior EN
or th
64 50
65 40
g Parser
prefix ed
ĠS A
tupleIJ O
65 20
Map OfInteger
stre hl
Dictionary OfInteger
QGroup Box
ter ms
BO X
7 160
Free Func
Dat ai
4034 00
Ġ"( *
f arkas
BasicImageIhSaIh EE
New s
6 190
start up
CK R
and EjPKP
C Bit
Iii Ei
el lipse
ĠP IL
append EPK
abb rev
ĠBioseq Find
5 395
6 365
Red o
5 263
F ore
Ġ ogg
libc di
st dio
BACK GRO
QObject RK
Bit Vector
Ġ3 22
qc log
5 283
5 337
T F
ER dS
b ss
ctx EP
newSV pv
reg f
ZGV N
90 54
Im Exporter
Selection Ev
560 4
58 19
Client Proxy
FACT ORY
Coord SystemT
CameraInfo Manager
it ize
59 93
vec ILi
63 78
QVariant Ev
free Pv
IR Cd
M ip
Multi Line
Panorama Options
qHash RK
54 29
get master
th in
W e
DefaultES J
true EPK
internal ized
69 20
Owncloud Propagator
68 68
gt s
Ġe asy
55 93
ig o
57 30
Ġtext domain
ĠM issing
bucket s
53 22
id ERK
Ġse lection
55 12
set Widget
57 99
59 44
men us
53 19
IN PUT
544 2
ara m
IcEE S
55 25
ĠE lectronics
580 9
ongo DB
600 4
54 69
Height For
As semb
5 304
Ph on
getmaster token
Open Struct
Ġms GetError
mprintf PKwz
get EvE
I W
544 7
56 16
escape d
whit ney
59 10
move EPdlPKdll
Ġra di
un til
Ġf it
) )"
libd ino
graph ic
Cred ential
Ġ3 28
538 9
Ġge arm
List INS
54 17
57 92
C ar
Ġro t
54 95
64 68
56 26
407 6800000000000
Il SaIl
Ġv e
Ġt itle
Ġd s
Element ESaIS
m r
54 39
codec s
un interp
H MAC
Ġcomp onent
ĠMem ory
QChari N
al e
63 20
Ġgl X
parent s
Cal culate
lu ks
56 93
84 00
Bind ERK
Ġh ref
Stream C
Ġpro ject
EEEE RKT
table INS
visit I
Ġbyt ecount
Functions Default
PtrRef FunctionsDefault
Intrusive PtrRefFunctionsDefault
St PKw
Ġ Alloc
56 34
56 75
54 36
li fy
Ġfor ce
c si
get attr
count E
Ġy es
Find Texture
f ad
helper ILm
Private E
AS L
neg ate
View Ev
ast ic
solver EptEv
K C
m si
548 2
n pool
56 94
Loc ator
Reference E
DUM BF
plugin ELb
Ġgl fw
548 4
Ġso me
57 27
Measure ments
55 71
V oice
B LOCK
55 27
ĠR etype
Region s
ĠRetype Bag
AVal SaIS
Group EE
Array Column
name C
enume rate
deleg ation
ĠA n
FindTexture ByNamePKc
file sys
Ġin ff
Qt Abstract
mpbq S
6 248
c id
550 1
QDebug lsEi
59 98
54 96
55 32
Ġ3 25
55 22
svectorIjj E
67 60
Ġ3 23
spl us
graph ics
568 9
Process Object
Player Wall
40 1921
5 231
V oxel
File Ev
Changed Ei
Ġs ca
connectIM N
mi ERKS
57 57
dp aa
54 25
56 24
) ;\
Initial ized
S ieve
tactic sR
Ġmail dir
Comp at
ng simd
SIMD IdLi
550 4
B an
Ġ[ "
use s
traitsIwESaIw EEE
cvls ERNS
Ġwrite s
55 91
Data ESt
wxEvent EP
tile s
M ongoDB
55 75
String P
Ġd av
ĠSeqId Dup
IPosition E
55 74
ĠAsn OpenStruct
54 94
59 92
Neg ative
53 15
c SaIS
ton l
ssl apd
Ġa f
Ġ look
54 12
Ġch a
ĠI gno
Ġback up
C OPY
R ational
t sg
Ġgl Tex
opt ind
Ġy et
54 65
symbol E
54 61
57 16
54 79
Cy l
Ef LNS
from text
setup Action
Pay ee
Di ffer
KLF Lib
QAccessible Client
() âĢ¦"
seek g
Linear Space
literal EjELb
iterator EN
5 293
ĠajListIter New
8 300
clause ENS
jit te
Ġ Con
p ressed
sort EP
54 73
ms l
setFont ERK
a fd
Ġe sb
Ġmon itor
56 59
Ġar mour
GM Cast
abcdef ghijk
57 48
540 3
comp lement
S MS
Get ID
nodeIS D
V oices
f ce
Save Vec
st p
ĠRegister MagickInfo
Time stamp
reg ular
Tri p
Ġ3 27
o op
q object
hook s
N exus
53 13
57 66
exprj PKS
gg P
54 37
F n
l X
Render Hint
78 60
n pos
578 8
dv d
s bufferISt
55 96
OP ERT
support s
56 44
QWidget S
ED n
ZNK S
De s
Ġsi mple
54 71
ĠRe move
inconsistent Ev
506 24
Bad Alloc
empty set
Curve Representation
F allback
M W
Processor PKcS
stock holm
NullValue Msg
O df
q BadAlloc
qBadAlloc v
insert Ej
pr s
Ġlib rary
fi ler
ĠAsn NullValueMsg
P FT
Doc Std
m gl
Ġ3 26
Tab Bar
Config Tag
nd n
callback s
Buff ered
lo pen
QDateTime C
x add
20 000000000000
64 58
55 21
Magick String
6 240
forwardIR PSt
d ark
Ġbec ause
PropagateUpload File
IdSa Id
less Il
o ra
Ġcomp ression
540 7
a ae
548 7
Ġmulti ply
60 55
ĠL V
g iza
EPKc PKNS
F MT
580 6
Opt s
AddOn Pair
544 6
Seq Entry
desc r
ĠN cbi
Ġg ldns
Ġauth entic
53 26
Out er
Ġ ~
Look Ahead
Su spend
ĠG roup
COM M
EC ON
CL ASS
Ġgeom etry
back E
54 72
Qualified Identifier
m ary
null str
stIS H
Command NS
proc C
per f
6 163
QFile Dialog
circle s
Ġ Input
Property I
Retrieval Driver
ĠD ate
wx File
ĠN AME
ĠM AC
88 92
Al low
580 4
Close Struct
et z
s cc
CoordENS B
Ġt s
5 391
q strcmp
NGramModel IN
G ML
Plan ck
59 50
EL h
slapd FrontendConfig
enc ryption
g Control
end i
pq rst
min imum
dat abuf
e le
Ġpack age
55 76
Text Width
Shape RKS
cap ability
I e
mem strcmp
Location PKc
soft ware
62 20
erase ESt
57 11
5 302
56 65
Ġd tls
Ġseq Token
538 7
Frame Buffer
ĠFormatLocale File
on s
540 1
Ġin dd
e uid
56 54
550 7
55 73
Item Role
Ġ3 31
ra ra
Check Statei
ar s
is Valid
60 74
object PP
base EE
10000 2600
Ġv o
C fd
P k
E memory
deleter Ev
write ER
h ow
Ġb ptr
7 250
Cartesian IdEEE
Ġas printf
EEv RK
util D
NTL mlERKNS
IPj N
Ġ3 33
Ġcurl x
addItem ERK
Ġ Matrix
54 26
bin istream
QW eb
TropicalWeightTplIfEE Lm
Modi fication
404 00000
54 33
58 14
Pdf Font
ĠM win
lv convert
e al
OPERT IES
est imate
64 30
ZZ ZL
Element EPKc
p gm
ur ve
57 44
Event C
SequenceOf Real
Rect Ev
allocator INSt
map view
req ERKS
Ġf mt
560 9
QDBus ConnectionD
ĠGet Virtual
G X
65 90
BRep Offset
stateE y
env p
connection C
TER Y
dom Joint
580 7
un hook
r upt
As Ptr
538 1
ti ps
ge off
554 2
Ġerr no
int s
detach node
P ic
ep ad
Ġ"---- -"
debug obj
55 29
Ġd k
Eb P
se at
bound E
54 66
Entry SaIS
B g
Logls IPKcEERS
ac cessible
format ted
Ġp f
6 380
pipe line
j RS
Ġx sd
58 54
55 67
sl l
ĠAsn CloseStruct
ivity EP
Gu ard
var PK
o v
set TitleERK
Vector I
IfSa If
is finite
Ġm us
6 194
bf rop
g us
gf arm
64 61
new chunk
69 73
D ash
Ġh ci
Element Text
e bb
q Flag
qFlag LocationPKc
Indexc viEv
ColorRole ERK
imp lies
Frame E
Ġun getc
Resource Table
Task Data
57 98
560 5
Ġ 343
C AN
Set Cursor
Ġcould n
74 60
LIN UX
66 69
to ERS
day s
f uture
eParticleSystem C
cor pus
ComTer p
BAT TERY
560 7
dl r
FileStorage ERKNSt
ph rase
Sa ver
wxWindow iiiP
ro ke
7 178
xml ns
pairIP Kc
omb ie
ĠC OMP
resource s
66 19
600 2
IntegerFilterStateIa EENS
EP i
MB R
000 3
Find ERK
Match es
6 208
57 64
Ġcos f
55 79
aS EPK
Pixmap ERK
FACTORY E
N EXT
ER A
DjV m
ĠG dip
an ES
type B
59 48
BU FFER
RK h
Map ped
tplI ZN
bl ur
66 98
fn D
S coped
Table Expr
Alloc Em
circ ular
c bd
v cc
interval C
5 392
Over ride
56 35
Filter StateINS
564 1
r lm
Ġp lsc
cr it
6 588
Status String
Path E
traitsIcESaIcEE Eii
5 362
IM GUI
72 18
K Decoration
TCP Header
ab d
Ġ QDialogButtonBox
QDBusPendingReply I
dom Link
vectorIP KN
writ able
Ġ{ "
55 77
60 94
String Match
Stack er
Osi Cut
base IPK
AffineSpace TINS
55 97
56 27
Force Field
StringNC mp
C rypto
in x
54 51
find And
6 200
string ERKNSt
IL NS
Colo rspace
QString EixERKS
Map IN
status bar
90 40
n event
55 57
ĠH SAIL
setup UiEP
colo ur
Ġt an
vol ution
endl R
58 51
StateDatabase E
LogType RKN
F it
St anza
Client State
fixed point
cl ing
Sa mpler
60 54
en tral
en tification
Ġc as
Tech nique
Thread s
vi a
Ġ openv
Ii LNS
Find Attribute
Or Modify
Properties P
Design er
8 480
k ate
k dfs
load Vec
VTK ImageImport
58 55
Ġ3 34
59 59
55 15
Vertex ERK
u Ev
traitsIwEE RSt
mbed tls
100 698
GExt EELb
Blend Func
brush ENS
ĠSeqLoc Start
64 78
ĠBu ild
Browser Widget
toBool Ev
2000000000 0000001
57 34
T ON
to wc
1000 10
Block Ev
core EjPKP
CImg List
Ġl abe
Ġp ly
Ġ abs
Ġasc ii
O X
64 10
57 65
traitsIcESaIcEEEE deEv
aa f
ĠTIFF GetField
up grade
fact EPK
Ġdup printf
k Ev
540 6
It St
ItemRole EP
sy mlink
EEES A
A U
value ESt
7 208
b w
{ %
factor s
Of Vec
Ġipp FindAttribute
vi ded
get l
ĠC H
vectorIS B
Convert Exception
Compose Hash
reflex ivityEP
80 74
7 200
cas a
ĠRe set
LogMessage E
Extra ctor
558 9
C ull
B IG
M IX
Pre vious
De b
57 12
App S
ĠajFmtPrint AppS
S or
object PvP
NewPointerObj P
explan ation
contin ue
Ġ3 32
Ġspec ific
6 508
b ce
PK f
Ġm db
IJ RS
56 95
Ġ3 35
matrix EllPNS
6 143
Ġ Op
QU ER
ba e
554 5
xffff fd
Module Event
EL D
mann whitney
My Frame
Keyboard Layout
55 69
vile ge
PortModule ixEj
Table View
RES P
bu mp
Shape Ev
T urn
s caler
Get Prop
lc Propagate
Comm un
ĠVAL UE
Ġaj Acd
xfffffffffffffff d
EES K
66 24
mannwhitney u
ee a
policy INS
mount s
Ġlist ing
30 0000
Error s
Get I
v wm
map E
57 33
Ġlat ex
div di
get top
OutputArray D
KeyValue Pair
66 68
] :\
6 388
Ġ 349
6 169
59 54
56 32
Ġper ms
Ġ rows
200 38
startsWith E
T Request
print w
58 86
A to
Get Max
CImg IfE
K id
N Compare
57 67
56 92
ENS H
55 26
Sq rt
56 29
R ig
Line C
ĠDialog ContentTransp
Test ERKNSt
out er
Ans wer
57 75
Category Stream
in sp
ĠP oly
or EjPKP
expr EONSt
get ER
Message Plus
ĠNcbi MessagePlus
ĠNcbiMessagePlus Error
decl St
Instance E
Ġ 341
60 45
59 53
s mprintf
Work er
Unweighted CompactorINS
lmno pqrst
Log ic
lt EP
59 28
69 70
lat itude
kind ERKNS
54 97
S uccess
Field Value
vectorItSaIt EE
A mb
lib fsapfs
SPEC IAL
cl EPKcz
554 9
clas ses
plugin E
Ġv g
64 18
56 15
ĠA I
Throw Fatal
Boole Exponent
100 50
KGAPI Debug
Se maphore
d ax
DL R
00 3
Ġs cal
568 2
Memory Allocation
O c
56 99
QConcatenable I
VI EW
clin eno
sic s
56 79
70 90
lib fdisk
56 17
ast P
Size E
UnweightedAcceptor CompactorINS
554 7
Ġ Entrez
Ġn fct
d ES
Expanded FstIS
AT CH
Ġi list
657 7
status E
rewrite EP
558 6
yes no
Copy right
gh ter
g int
forwardIR N
A gg
at m
Hull Internal
Ġp tp
ĠMem Base
String bb
Seq Id
d ce
64 14
EEv RNS
l z
c ce
av y
B t
Ġpro blem
Z Stor
58 22
ZStor St
Policy ES
57 35
t nl
Ġ3 29
pairIK t
un rolled
6 306
ne ar
slot IFv
Sequence ComposeFilterINS
e fe
y n
600 1
Ġ3 40
First Ev
Bullet TextEPKcz
59 34
xc cccccccc
G Position
56 11
564 6
PKNS B
b h
558 2
Ġlua V
7 158
() :%
Ġk mod
era ture
Ġcur sor
name E
Get Type
de g
598 8
iteratorIS D
string EEERS
Ġst andard
Ġd df
57 14
ObjectES C
ra to
i RKT
Acceptor CompactorINS
Ii Lm
N FreeList
58 42
n sslapd
56 72
QMap IS
jitte rbuffer
Index Item
i val
Ġs um
ri ff
Package s
Ġh tonl
u ded
57 21
Se ed
598 6
Player ID
W IZ
Test Out
WIZ ARD
66 58
8 140
548 6
mark EPKS
rb it
62 28
mt x
Shape S
dc d
65 18
HostOs Scan
sum er
f uel
Mask Polygon
Ġexce eds
Bu ddy
EiE h
format s
57 74
x tensa
1000 100
Ġ3 37
Open File
S SH
Ġl qt
po o
QVariant Value
State FlagEE
dae T
set To
EiPK ii
Ed E
asyncCall WithArgument
asyncCallWithArgument ListERK
Ġmk v
v atar
agnost ics
r hs
56 96
Ġa tom
ĠSeqLoc Free
Graph Node
Stream Helper
59 62
56 67
ĠLocale NCompare
String Str
heap E
KD Tree
prepare FixedSize
g datetime
Input Output
HEAD ER
6 369
re jected
gu id
emp orary
55 31
QVariant EC
File Open
57 31
******** ********
62 38
rr set
ll a
74 68
Ġc losing
Input Text
long itude
74 00
cl m
fa udio
Node EESt
58 73
dimension s
Ġ( &
Module C
if IN
ĠajList GetLength
Ġ3 38
7 369
mov n
goal E
K igo
or mal
error out
aj or
ser r
63 40
RVNGInputStream E
Ġ3 54
57 43
EEEE EED
W izard
dr v
58 69
999999 97
MyMoney Price
nz r
Ġ` "
ET E
56 77
expr ED
g if
55 95
Ġb d
63 28
Ġ 344
6 608
dcmp sta
tk nzr
Ġim lib
55 65
Ġh b
s ENS
59 52
interr upt
Ġp refs
send er
p ublisher
z sock
ES P
StringN ICmp
Ġdk im
EPKD s
dat as
z freePv
55 13
ix gbe
run ner
p shu
66 00
task s
59 94
558 4
Insp IRCd
init ed
lit tle
Ġeasy src
6 308
g uess
B IND
MemoryAllocation Failed
58 21
59 26
6 480
66 70
ĠS ub
Surface C
aint y
incl usive
y ield
Ġar c
ACCOUNT WIZARD
N IS
55 51
ĠP op
564 7
XML Parser
Coin Mps
Ġfilter ing
P ti
57 59
---------------- âĢ¦"
66 50
Ultra ScanInfo
57 13
Append ERKS
57 23
Data OutputStream
aS ERK
59 24
net Objects
freediam eter
bit wise
w it
Tree Map
W B
57 51
create EiPKii
IT ER
59 19
decl EC
B FSIter
Ġv movn
Align HB
l iterals
error E
Ġ >>
ay land
550 5
G ER
et ter
558 1
Ġp kt
col lector
QForm Builder
N R
Filter s
70 68
gl Uniform
sph inx
err Ev
M ASTER
ineq ES
ER iS
Line Ev
SC H
55 72
Step Writer
cls r
560 1
AR P
MO V
Ġstr s
60 44
57 69
s free
NodeOf FieldOfHArray
wxArray StringD
Coord BBox
Qt MsgType
GImAllocator FreeFunc
j EONSt
cket sphinx
Token D
Network Packet
fo o
55 66
d cccccd
high light
OL S
in a
Ġ 345
56 56
s mooth
56 73
57 54
ast Lb
Ġope rand
999999999999 9
ĠE BC
Ġ 347
EEEb T
56 51
internalized EPK
6 172
moveIR jEONSt
unhook Ev
resol v
Ġ"---------------- ----------------âĢ¦"
red irect
Raise OrModify
TypeError PKc
RaiseOrModify TypeErrorPKc
66 25
DB US
Pdf ObjectD
Ġe ck
EEcl ERKNS
65 30
PF b
58 56
key gen
6 278
Co ercion
Ġ serv
55 23
con current
56 66
R X
55 62
ĠL EN
548 3
58 59
dead Ev
6 154
Ġpin yin
Cap abilities
Cor ner
54 91
US H
6 300
57 32
factory INS
---- --
59 63
OFString b
Ġgar min
6 166
Input File
u rb
72 28
d N
Manager C
FAST QSequence
578 7
pop Ej
1564 15741
58 45
er ies
58 41
AD A
UR N
58 89
6 290
67 00
Curve Element
String TypeE
Ġ 342
p meth
58 77
oc to
bl asr
Ġ< âĢ¦"
blk id
Binary Op
Ġs append
etz li
56 62
Re maining
S kipping
55 63
57 96
Rec ent
MetaProperty C
DW ARF
ĠS MS
7 0000
set Buddy
ĠO K
setBuddy EP
p mEv
sl ave
IPosition C
56 37
bo gus
TreeView Column
554 3
xfff b
ers Ev
sock name
564 9
64 98
sn mp
ii PKc
p cmpgtb
ps l
value ELb
Sp h
63 38
Get NameEv
Ġsh utdown
File State
func Ev
568 5
unrolled ET
60 76
65 60
Ġdec laration
BOP Algo
Comb ine
InputImage SaIS
Q Thread
ut c
am l
OL D
ĠF Audio
59 23
Index ERK
wr lock
error EPKcz
partition er
56 33
6 144
es sel
Ġde lay
deleted Ei
con firm
578 4
SQL Table
848 000000000
6 390
T ls
IM IT
EEES F
det ermine
58 87
cmd C
Ġend win
Of The
Ġ" ::
57 79
F raction
Ġ3 39
58 79
Ġ3 57
extra s
60 99
R AN
48 348
Q HeaderView
bit stream
Pi lot
If INS
O IS
68 58
cl ust
ENS B
in ser
ac ed
8 208
Ġre ached
Ġhe im
Weighted StringCompactorINS
56 21
i fi
Ġ3 36
58 29
j R
co ver
al lo
4000 4
sub expr
Ġ" ]
Command OS
PA RS
setWidget EiNS
58 85
EEcl Ei
ush ort
DefaultCompactStore I
Iw Lb
Ġ3 53
Ġne eds
ĠC BS
Propag ating
Set Free
Ih EC
uint EPKcRKS
59 16
600 7
6 268
tColored StringD
56 63
Ġigno red
cxxmi IP
C Lib
F tp
ma ken
59 69
AD R
false EPK
MyMoneyStorage Sql
ut es
cv NS
I Q
56 64
String Chr
Key ESt
Ġ"------ "
g sc
lt EEcl
564 5
QUER Y
Meas RefINS
56 19
Ġj tag
/ .
Ġm er
CC ESS
bt ex
A CG
57 53
gf PKdPdS
56 14
Ġg vfs
per i
Fst IT
aj bsp
sort R
59 73
6 398
m nt
57 63
lmnopqrst uv
nlo pt
Ġre quire
Ġ"_ "
ii E
IiEE RS
CALL BACK
ex o
f Rand
570 7
QMetaTypeIdQObject IP
57 25
register MagickInfo
EX PL
58 15
init name
En er
67 71
pro files
Ġget addrinfo
lib itpp
Vector FstINS
000 7
CImgIcE cvPcEv
string plEPKc
Ġsig emptyset
56 61
ĠT d
t ns
Q VarLengthArray
ĠCol lada
560 2
L IC
Ġite ms
bi btex
Ġ' ,
590 6
EEEix EO
One EvE
left Ei
Iterator Owner
reduce d
B ogus
ContractViolation D
70 20
55 61
Ġl iteral
sync EPcmm
Ġ3 48
iv ec
580 2
qRegister Normalized
addressof ISt
63 30
rd r
no d
to number
EE PK
T ray
fix up
Variable Container
orig inal
ARK v
Ġf lex
th umb
[ "
p ac
EG IN
containsERK PS
57 95
Ġ3 70
7 282
Ġ3 62
F ollow
Impl EE
T cp
FileName E
ed d
x stk
64 22
570 2
dS chema
ĠB uffer
cxxne IP
g om
6 153
548 9
ĠCollada DOM
sub curve
56 23
indent Ev
60 24
59 51
S ender
59 41
72 30
in um
56 39
c rash
Ġl ay
QAbstract Concatenable
set Frame
expr iSt
create Ev
fRand v
V ote
Chem istry
58 61
570 5
unc ert
traitsIcESaIcEEEE OT
Log Writer
QDialog D
no ArrayEv
Ġff g
6 364
457 98
w eb
Ġal arm
Transp arent
57 45
ff a
node C
59 74
Inte ractor
ĠW ARNING
roll ing
palette Ev
Arc Iterator
I RKNS
63 68
ub s
mult f
traitsIcESaIcEE ET
570 1
anteced ent
On Ej
G EO
568 4
Cred entials
570 9
AD CON
59 75
6 139
iv Clipboard
ĠMagick GetToken
n avi
CrtAllocator EEEE
error msg
6 184
ĠCurrent Profile
pair Idd
an c
Repeated Field
590 5
String IT
Date Ev
set Max
icon v
f pl
xde ad
A sio
Q Region
58 49
DefaultES K
Ġcon cat
tok typ
678 0
EE LN
get Logger
String Move
Po w
Text ures
appendEPK wm
59 46
Sph erical
BRep Blend
Ġev thread
en velope
2000 6
[...]
